node {
  name: "global_step/Initializer/zeros"
  op: "Const"
  attr {
    key: "_class"
    value {
      list {
        s: "loc:@global_step"
      }
    }
  }
  attr {
    key: "_output_shapes"
    value {
      list {
        shape {
        }
      }
    }
  }
  attr {
    key: "dtype"
    value {
      type: DT_INT64
    }
  }
  attr {
    key: "value"
    value {
      tensor {
        dtype: DT_INT64
        tensor_shape {
        }
        int64_val: 0
      }
    }
  }
}
node {
  name: "global_step"
  op: "VariableV2"
  attr {
    key: "_class"
    value {
      list {
        s: "loc:@global_step"
      }
    }
  }
  attr {
    key: "_output_shapes"
    value {
      list {
        shape {
        }
      }
    }
  }
  attr {
    key: "container"
    value {
      s: ""
    }
  }
  attr {
    key: "dtype"
    value {
      type: DT_INT64
    }
  }
  attr {
    key: "shape"
    value {
      shape {
      }
    }
  }
  attr {
    key: "shared_name"
    value {
      s: ""
    }
  }
}
node {
  name: "global_step/Assign"
  op: "Assign"
  input: "global_step"
  input: "global_step/Initializer/zeros"
  attr {
    key: "T"
    value {
      type: DT_INT64
    }
  }
  attr {
    key: "_class"
    value {
      list {
        s: "loc:@global_step"
      }
    }
  }
  attr {
    key: "_output_shapes"
    value {
      list {
        shape {
        }
      }
    }
  }
  attr {
    key: "use_locking"
    value {
      b: true
    }
  }
  attr {
    key: "validate_shape"
    value {
      b: true
    }
  }
}
node {
  name: "global_step/read"
  op: "Identity"
  input: "global_step"
  attr {
    key: "T"
    value {
      type: DT_INT64
    }
  }
  attr {
    key: "_class"
    value {
      list {
        s: "loc:@global_step"
      }
    }
  }
  attr {
    key: "_output_shapes"
    value {
      list {
        shape {
        }
      }
    }
  }
}
node {
  name: "global_step/IsVariableInitialized"
  op: "IsVariableInitialized"
  input: "global_step"
  attr {
    key: "_class"
    value {
      list {
        s: "loc:@global_step"
      }
    }
  }
  attr {
    key: "_output_shapes"
    value {
      list {
        shape {
        }
      }
    }
  }
  attr {
    key: "dtype"
    value {
      type: DT_INT64
    }
  }
}
node {
  name: "global_step/cond/Switch"
  op: "Switch"
  input: "global_step/IsVariableInitialized"
  input: "global_step/IsVariableInitialized"
  attr {
    key: "T"
    value {
      type: DT_BOOL
    }
  }
  attr {
    key: "_output_shapes"
    value {
      list {
        shape {
        }
        shape {
        }
      }
    }
  }
}
node {
  name: "global_step/cond/switch_t"
  op: "Identity"
  input: "global_step/cond/Switch:1"
  attr {
    key: "T"
    value {
      type: DT_BOOL
    }
  }
  attr {
    key: "_output_shapes"
    value {
      list {
        shape {
        }
      }
    }
  }
}
node {
  name: "global_step/cond/switch_f"
  op: "Identity"
  input: "global_step/cond/Switch"
  attr {
    key: "T"
    value {
      type: DT_BOOL
    }
  }
  attr {
    key: "_output_shapes"
    value {
      list {
        shape {
        }
      }
    }
  }
}
node {
  name: "global_step/cond/pred_id"
  op: "Identity"
  input: "global_step/IsVariableInitialized"
  attr {
    key: "T"
    value {
      type: DT_BOOL
    }
  }
  attr {
    key: "_output_shapes"
    value {
      list {
        shape {
        }
      }
    }
  }
}
node {
  name: "global_step/cond/read"
  op: "Identity"
  input: "global_step/cond/read/Switch:1"
  attr {
    key: "T"
    value {
      type: DT_INT64
    }
  }
  attr {
    key: "_output_shapes"
    value {
      list {
        shape {
        }
      }
    }
  }
}
node {
  name: "global_step/cond/read/Switch"
  op: "RefSwitch"
  input: "global_step"
  input: "global_step/cond/pred_id"
  attr {
    key: "T"
    value {
      type: DT_INT64
    }
  }
  attr {
    key: "_class"
    value {
      list {
        s: "loc:@global_step"
      }
    }
  }
  attr {
    key: "_output_shapes"
    value {
      list {
        shape {
        }
        shape {
        }
      }
    }
  }
}
node {
  name: "global_step/cond/Switch_1"
  op: "Switch"
  input: "global_step/Initializer/zeros"
  input: "global_step/cond/pred_id"
  attr {
    key: "T"
    value {
      type: DT_INT64
    }
  }
  attr {
    key: "_class"
    value {
      list {
        s: "loc:@global_step"
      }
    }
  }
  attr {
    key: "_output_shapes"
    value {
      list {
        shape {
        }
        shape {
        }
      }
    }
  }
}
node {
  name: "global_step/cond/Merge"
  op: "Merge"
  input: "global_step/cond/Switch_1"
  input: "global_step/cond/read"
  attr {
    key: "N"
    value {
      i: 2
    }
  }
  attr {
    key: "T"
    value {
      type: DT_INT64
    }
  }
  attr {
    key: "_output_shapes"
    value {
      list {
        shape {
        }
        shape {
        }
      }
    }
  }
}
node {
  name: "global_step/add/y"
  op: "Const"
  attr {
    key: "_output_shapes"
    value {
      list {
        shape {
        }
      }
    }
  }
  attr {
    key: "dtype"
    value {
      type: DT_INT64
    }
  }
  attr {
    key: "value"
    value {
      tensor {
        dtype: DT_INT64
        tensor_shape {
        }
        int64_val: 0
      }
    }
  }
}
node {
  name: "global_step/add"
  op: "Add"
  input: "global_step/cond/Merge"
  input: "global_step/add/y"
  attr {
    key: "T"
    value {
      type: DT_INT64
    }
  }
  attr {
    key: "_output_shapes"
    value {
      list {
        shape {
        }
      }
    }
  }
}
node {
  name: "tensors/component_0"
  op: "Const"
  device: "/device:CPU:0"
  attr {
    key: "_output_shapes"
    value {
      list {
        shape {
          dim {
            size: 750
          }
        }
      }
    }
  }
  attr {
    key: "dtype"
    value {
      type: DT_DOUBLE
    }
  }
  attr {
    key: "value"
    value {
      tensor {
        dtype: DT_DOUBLE
        tensor_shape {
          dim {
            size: 750
          }
        }
        tensor_content: "\320\302\022qM/\351\277\245\362\320^\025\375\211?\260\246\221\032\330\377\n@M8f\\\315\244\344\277\325\270\">\021\224\371?R\3109\251/Q\362?=\345\315\275\377\216\350\277:\223\254\025\234\344\345\277\221U\371\345B\317\376?\231n\004\245\0061\343\277\255\016i\214\236\324\345\277[\377py\271\373\251\2771@\246{2\363\336\277\201e_\014\234\205\014@\030\013O&\2178\346\277\237%\211\023h\r\321?4\004\2657wl\351\277\302\371\313\214\033\215\322\2779f\277#B\331\361?\316\r\217\tJ\313\336?_a\002o\331\250\351\277PF\030[\346<\263\277\316\r\217\tJ\313\336?\220x_lg\365\340?\024\216\003l\320u\350\277!12\220\256l\345\277i\325\364\223\203\371{\277D%\245\226S\214\351\277\300Z/`\335<\344\2777\210\322\274\304\334\344\2778\r\022%Y\343\350\2777\210\322\274\304\334\344\277\021\310wD\226k\334\277\243\332\220\310q]\320\277\262\320~*\364\250\343\277l\367\333\342\365\316\350\277\217\275\353v\001}\363?\272\035K%\\;\275\277[F\363\326\217l\346?nO1\300\247|\325\2778\301\260\350\270\373\333?\257\357U\325Y3\016@P\021\376c\261\204\365?\245I,Q5\373\277?XZ\333\327\024{\317\277\224\261CfJy\341\277t\333\314\\\"}\342\277\250\202\315\357#\324\330\277\373Q\337\17733\377?a\003\264\025L$\350?\314D&\272\326\017\373?\220\006\340\241\204\375\260?\022\335\373[\240\254\325\277N^\372\316\032d\351?k(\230V)s\002@\033tqQ\362\264\343\277\025,\301\302Y\337\350\277\262\320~*\364\250\343\277IR9\005\202\235\300?8\230\001u5\001\342\277\253\237\n\221\340|\324?\370\005\2643!\002\351\277=[9\366\321k\350\277\r3\205\326\212T\346\277%\034\367\241\207;\335?\'Y\023LRk\376?\270\356\345\227f\273\276?\326\254z-Z\220\347\277\250h*\267p(\367?bH@ \346\253\372?\210\">\321\307\310\344\277\'\030\302X\027B\351\277c\353\321\241\027\375\261\277\3248\307\322\002\034\332?\234N\264\353\202 \351\277\035\204\240\tc\331\340\277\246\356\301\362\331{\312\277E;2f1k\337?p.\035Pg^\007@\246\261\356q\362[\372?\212\247\001\207b\273\335\277PC@\265\244\254\345\277,\t\374\337\262P\345\277,\260\010m\300\370\344\277kDWg\320t\324\2772W3\321k{\257?\271\021\034\256\211\224\346?k\241\246^\316\373\254?\313\352V\330\246\203\351\277\314\335\312!\341|\242\277\341+Q\nl\034\347\277\326g\276\262\276\273\272\277\025S,pO\255\321?a\003\264\025L$\350?^\013$v\033|\331?\306p\343\021\214L\346\277\217\275\353v\001}\363?ek\327\027m\273\000@\251\304;\222\020n\351\277\235y\336\375\3358\344\277\3446+cC$\350\277p.\035Pg^\007@\230D\027\225\352\207\n@\364Z#f\321\353\332\2779\'o\351\002-\323\277\325\236\205\323LM\321\277x\341QV`h\347\277\367\014\nL\266\233\333\277\367\333\344\251t\344\346\277@\251`\307J\364\347\277\036&X7\327d\344\277@PmTX\234\347\277bH@ \346\253\372?\016\345k\274o\004\347\277\025S,pO\255\321?\237%\211\023h\r\321?\272\3462\334\242\270\345\277\217\006\2601\203\260\366?Q\314qY\027\375\342?T\247\r\201n\014\347\277\263\207\272oru\340\277\326S\207\272g8\347\277\364\275\300\227\366|\323\277pr\2521\277\000\345\277b\221\004\333g\337\375?\234I\232\376n\333\335?\016\345k\274o\004\347\277\312\302\004\272\357\366\350\277\203\276p\005\376h\343\277_&\344]\200\230\346\277f\262\003H\001\205\350\277u4\242I\245I\014@\224\261CfJy\341\277\331\031\227/\250.\350\277{\252\272\245\323#\373?O\352LB\262T\345\277\377\250\324\240\241\300\345\277.\216;HGW\351\277\274\304\037C \265\362?\323H\255a\2200\346\277\330\236\316\374/]\342?\323&\232\310\r-\363?\234N\264\353\202 \351\2770\315\017\320\214\357\374?\004\336\022l\372\373\272?isx\351\236\374\365?\216\1779\322\002{\350\277\022!k\267\210\303\334\277\247\223W\224~\374\244\277\036\225\026,\363\247\351\277\020k\212^\364\372\256\277}\220\035;\017\335\322\277\257\356SE\240\233\334?\234\223~\317\0312\351\277\020\234\247\001\356\320\343\277\257>\212\321R\221\351\277\240\354\370\035;\246\351\277V\274\221\230xM\340\277\376\275R\352\274\234\305?\336\335\356\306m\274\306\277\212\000+8E\305\361?\234\302\242\270_l\347\277\352$\021DA\223\336\277\361\202\250\r\237|\305\277\207\365\032\241}\013\335\277\372\215\313\217Y\224\347\277\3208~\251\037\014\351\277\006\375\273\335\335\013\333?\354g\342WK\373\316?Ux\351\227(\322\350\277\256?\216.\340\213\332\277\227/\314\"H\253\001@\nw\253\010\220[\314\277(\\jYg\275\340\277\025S,pO\255\321?;\347eH\355\370\003@\364\372\364\371A\323\001@[yR\3274\005\342\277\022\254\326\271^\365\340\277)\376!\207\333H\344\277a\274l\024\"}\263?\013\201\236\360\245\244\345\277\246lbgX\324\347?\367O\2226\335\363\352?\253\351\320\333\033H\t@N\027\263\315\360\274\264?\301<TwB\345\341?)\202\376\313\264|\345?\300\270w2i\261\340\277l\235J\332\302\314\324\277\336 w\261\224\024\346\277\003k\352>\367\224\343\277\375z\312\377\225D\346?/\273\342\305\227\000\346\277\037\354\316\234\023\252\351\277\'Y\023LRk\376?\363W\002\227\254K\334?\206C4\273\230[\334\277\367!\216c\300\334\324\277\235x\221\336*{\276\277a\003\264\025L$\350?\003\264\256\371x\310\346\277\240\237x>\032]\302\277\243u\324W\341\303\n@\212\000+8E\305\361?\275J\000\250l\030\347\277\277\023i\367\337\323\372?\\t\375w\233\350\345\277k\241\246^\316\373\254?\313\324\260\335U\254\347\2775\026a[\335!\350\277\252\003\2173\307\314\344\277B\344xQ\242\364\345?\331\032\362\267V)\341\277\345]\334\204BT\370?\310\337|\177\317{\350\277=lD\035\200\304\366?\354ac,\374t\343\277\367\333\344\251t\344\346\277(B\254\001\2748\005@,\t\374\337\262P\345\2770\313\021~\010%\343\277\302\371\313\214\033\215\322\277*\265]\314Y\025\341\277z\311\262= \354\330\277\265$\035>M\344\347\277\352g\231.h\353\355?\300Z/`\335<\344\277\001.\230V<\263\336\277\251\304;\222\020n\351\277\240\342\000)A\265\341\277\330\005n\240L\350\347\277.\345\201\224\305\375\221?%W\017,\337;\313?\3704\330\034g<\347\277\312{\275jcT\347\277\325\236\205\323LM\321\277\024^\275\237C\245\341\277%W\017,\337;\313?\031dB\231\201\220\346\277\273\244\2758\227\246\351\277Bf\330\334#\234\310\277\320\001\347\370\222\307\374?\241\260\004LW\357\350\277\367O\2226\335\363\352?z:E\311R\300\347\277\037B-\2247\373\207\277\310\177\000\007\366|\245?\326\261\317\214\363\254\343\277\337\322]\227y\304\346\2777\240\365\"\013E\350\277q\212\315\227\005i\350\277\240W\225&k\203\335\277w/kp{\270\346\277\240\206\266\2509\013\377?\225\204 6\000\274\331\277\210\">\321\307\310\344\277\210\n\237\270\207L\326\277\r_\213W#\241\362?\266\243\244#\215\373\354?n\223\240\033\220\223\334\277\234I\232\376n\333\335?\305\371\024\266\376\234\343?\003W\222\231{\222\351\277\030W\353\206R\374\266\277\016q}\357\222\270\350\277\003\256r)\036\355\322?\305\213\235+\002\004\352?\326\254z-Z\220\347\277\306\316\r^\2505\014@i\325\364\223\203\371{\277\244\355\332\201\030\275\342\277$\310\035\034\251(\350\277\352g\231.h\353\355?\025,E\020`\313\335\277^q\342ve\255\320\277\215nl\204Q\254\327\277ZQ\204\006\204d\326\277\006\277\210RP\320\347\277\031\302\212k\r\005\343\277n}5\223\304\223\353?\t\312b\253\'\330\350\277.\345\201\224\305\375\221?\315B(hRE\341\277\314^\311\362\211\273\334\277\251\326\241Am\301\360?\235x\221\336*{\276\277\221\275\2658\021\313\337\277\316\r\217\tJ\313\336?\233k,\261b\245\350\277S\254b\340\007)\343\277B3y\334~\003\335\277yxI\224\021\374\225\277<\271@\210\351\243\352?\224\177G\211`\263\350\277\321\351}\036C\375\321?\004(bT\320<\304\277\256)l\317\367\233\312?\341q\372\303\267\024\325\277\255\016i\214\236\324\345\277O\033r\344\363\013\332\277\003\264\256\371x\310\346\277\224\261CfJy\341\277\307\234<\376_\362_\277\276\033\334\276&\336\350\277\211\035\351q.\254\350\277\3704\330\034g<\347\277\004\336\022l\372\373\272?ow\377\220X\035\341\277*\307\212\326N\004\370?H\035]K\205x\346\277+?v\341\215$\326\277\007\242\312\030g\351\360?\0376\207\357G\211\341\277\022!k\267\210\303\334\277\250{YQ\037\257\017@\237C\350I\tQ\350\2771;\207Z\211\210\366?$\010\306w\037\035\303?U\3302#\260\303\333\277x\\\343\327\253\245\351\277\305\213\235+\002\004\352?\312|\016d\312\246\351\277\310\276EU\212\254\326?\372p\rVp\255\360?\224\261CfJy\341\277P\345\367\342\0308\351\277^q\342ve\255\320\277(\315?@\216<\267?\234\247\247^ux\351\277\341+Q\nl\034\347\277\224\261CfJy\341\277\272\r\344\375\241\350\365?\240\237x>\032]\302\277?=#\233\261<\325\277\233:\213\\\'\332\350\277\231\0229>pM\350\277c\004\233\206\r\343\337\277h\003\345\206\256\r\014@;\354\237\210\216<\346\277L\201*\027O\330\347\277`\335\037\243\376d\343\277\353}\004\2673\353\336\277\254\315\230\177\362\344\350\277\346\244\242\355?\275\341\277\233&b\315\313\223\350\277E\310c\257}B\351\277\372\025\305e\"\233\017@\361\202\250\r\237|\305\277\014\221\315\250\026\311\342\277\271\223{9\013<\311\277\030W\353\206R\374\266\277r)\346v=\315\341\277Y\307k\361OU\341\277i\325\364\223\203\371{\277\346\0317\353i\213\335\277\\GV\372J?\351\277\300Z/`\335<\344\2779k\336D\353C\332\277\256\332\nc\267V\005@VF\252\255\254\\\325\277r(\213\356\216\322\350\277f6\\?\324\314\324?\2337m\364y\354\366?\214\206\013\235\221(\346\277\226c*L/)\342\277\371\002\226\313s\024\367?F\340@\241\272H\365?\336\327\262\366\022\341\342\277A\244&\207\251\260\005@[\275\334Q\025\365\002@zU\005\261\267\334\304\277\220\333\325\"y\242\351\277\022\335\373[\240\254\325\277\020>_/b\\\347\277\n\365K}\016\264\351?\004(bT\320<\304\277<E\223\373\200\224\346\277\231\020\274\322z\274\346\277yxI\224\021\374\225\277\257\356SE\240\233\334?\223I\010\254\250\273\313\277\341@\325!v]\340\277\252a\327\005SA\341\277\034o\034\362X\230\347\277\'\024\347!\273}\240?\271\021\034\256\211\224\346?\353\032\235\303\376\013\372?\305\371\024\266\376\234\343?\314\335\312!\341|\242\277\210{1D\272 \345\277\355C\210Ca\035\341?\324\341\r\276s\245\340?\206V\231\2237\224\010@\037B-\2247\373\207\277\223I\010\254\250\273\313\277\253\237\n\221\340|\324?WY\364fS\274\347\277\343\3357\360P\314\347\277\237%\211\023h\r\321?w/kp{\270\346\277\\\026\265\245\017t\351\277k\241\246^\316\373\254?C\271\217\177\273\030\345\277\324\341\r\276s\245\340?>#\200b\376\220\363?[\377py\271\373\251\277\367O\2226\335\363\352?\226\223p\030\274\371\350\277\272\022\177\321Dg\351\277\210{1D\272 \345\277\330\355\316\207\014l\331\277PF\030[\346<\263\277\304\034E\3762\021\342\277\3370\246i\0059\343\277\3358Y%\311;\274?\321\221q\034\022d\351\277\251\304;\222\020n\351\277E\310c\257}B\351\277\237%\211\023h\r\321?-z\022\271\353\020\351\277\2168\362\202v\330\346\277\253\240\014!\232\024\006@\010v\304\227\316\234\344\277T{\222u\254\241\351\277\227^\325\354\225\014\346\277\243`\211\345>\347\001@\256T\022F\352\314\323\277\342\204D}^t\347\277\207\220\257\215\325\374\304?\350\31177K\227\001@\257\223b\200)y\362?_\204,0\014\r\343\277\207\222\263\255H,\370?\027\262[\263\234\340\345\277H\035]K\205x\346\277\265$\035>M\344\347\277\220\006\340\241\204\375\260?\211\324$\267\254x\345\277\221Y1\226*{\357?`\016EE@\034\330\277z\366\325mj\251\340\277\375z\312\377\225D\346?II-\216-\023\337\277\210{1D\272 \345\277az\235\220\321\254\004@\304\034E\3762\021\342\277i\353c\364\335\034\324\277\334\307\203>\242\274\345\277\346\024\030\312\300 \365?\026\020\244\205(U\342\277\036\335\223|U1\341\2775rg4\371\334\323?SSom\025\321\342\277\'L;\241\366\230\343\277\270\215?i\260`\345\277\236\2722X\220\024\326\277E\311\2767,=\342\277\031\0104%Y\375\320\277\nw\253\010\220[\314\277\226\354c\213\256Q\351\277\373D\007\325\327`\344\277t\332q\324s\202\351\277PF\030[\346<\263\277\252\352\020E\322i\350\277$\232T\273\021\351\342\277i\325\364\223\203\371{\277F^wf\342\217\351\277\002\022\367\313\004=\343\277\367\333\344\251t\344\346\277\221C\314\333M\340\347\277\344\355H\"Re\016@\341\313\213\314\352\026\351\277\325\236\205\323LM\321\277\314\335\312!\341|\242\277\235\364\033\3420\246\351\277\243\332\220\310q]\320\2779\'o\351\002-\323\277\247\223W\224~\374\244\277ER\370v\253e\351\277\372^\247\246\023Z\351\277d\2375AT9\341\277\004(bT\320<\304\277\263)r\235\346\000\344\277\260\300Or\203\204\346\2777*\212\3528h\350\277\344\224s5\317\230\344\277\005N\366\306\035\374\330\277\317g\275\261]\037\001@/r\036\013\026\315\342\277!\217zb:\341\341\277XZ\333\327\024{\317\277\307\266\214\313\327D\324\2776\255\177\276P\335\301?\360\235b\'\0254\331\277k(\230V)s\002@\322\033\2121Fs\336\277\215\372\276\367\350\234\303\277\035\232\005\304?t\350?\372\202:`e\234\327?}Jt\201\303\344\344\277\226\330:\374R\013\351\277\211\337\370A\225\033\315?F\3446\336\375\244\351\2776\271\367^\006\224\331\277\013h \002\261A\351\277\301\316%\026)\\\311?\247\370\264\332\357\304\343\277\355r\264\307\263/\351\277\326g\276\262\276\273\272\277\363.S#)Q\342\277\331\032\362\267V)\341\277\330\005n\240L\350\347\277\215nl\204Q\254\327\277\210\n\237\270\207L\326\277\265\202e\020\331X\344\277W\025\205\013k\245\340\277}Jt\201\303\344\344\277\246\356\301\362\331{\312\277\206k\002\214I\374\347\277x%\334\320@X\010@\242t\322\307\',\331?}\220\035;\017\335\322\277]\211c\t6\236\010@t\177\202\334\032\323\377?\300\177\334ai=\301?\362\036$k\270,\345\277\013h \002\261A\351\277^\371\366k&\215\362?\327c\266r\330\\\344\277C\271\217\177\273\030\345\277\344m\036s\206\216\351\277\352\010p\271\t\035\343\277\234 \353\212\353\340\343\277\3028\034\307Z9\361?\333\237\265m\361\033\332\277\2205\327\201@\235\321\277\235\243\310\246\202/\000@\272\3462\334\242\270\345\277\315B(hRE\341\277\262r6Xh4\347\277\0375,g\231\216\350\277\0138\3325$q\342\277\264\374Nm\234C\334\277\314-\277o@\335\001@\200\"\357\331\365S\352?\304\034E\3762\021\342\277\0054S\216jP\367?f6\\?\324\314\324?\307\266\214\313\327D\324\277g\260Kj\206\034\306\277\345K\257zMe\341\277\314\335\312!\341|\242\277\2522\225\226\235{\014@\360\3050\370\305\324\344\2770\347\262\010@\233\336\277O\214\037\217\036\271\002@X<6-j\325\360?\277v\320\352\024\263\337\277\301<TwB\345\341?g\260Kj\206\034\306\277\246\210\300\344\375\232\350\277\205YVh\343F\351\277\017;\333\330\266\240\351\277\361\202\250\r\237|\305\277\200\244New\373\314\277Ux\351\227(\322\350\277\3028\034\307Z9\361?8j\367\323)\205\342?\245\350\205\"\177\240\346\277u\326w\375\210`\346\277\203U\227\003~\374\326?\247\232l\010dP\347\277$\232T\273\021\351\342\277\334\337\246\244\350$\351\277\\\214 \336\341P\351\277\034\034eO\301\033\313\277\031z\350\223\322g\350\277w/kp{\270\346\277\360R\177-(\370\010@\213\323\327\227\371\272\277\277\300\321\227\364\035\234\351\277\276D\304\327\021=\323?\005\2621@!<\270\277\351\313\035\321N;\336\277\261\326\365l\324[\350\277\0054S\216jP\367?\364\321\361\301^\233\315\277\213\323\327\227\371\272\277\277\303e\t\271\264D\345\277?j(E\214n\006@\307<\205\350\244\316\005@W\205\372\347\353\010\364?\005f\225\337]x\347\277V^I\306\354\330\343\277c\321\370x\326\232\351\277.\345\201\224\305\375\221?\230\274\264^;\374\233?\310\372\373&\300[\333\277i\356~\365\023X\351\277\251\304;\222\020n\351\277\026\267\260\0226\375\341\277\254WHf\030\341\002@}\353\031\3540|\252?(\370\345\266\200m\320?X\330{L\223\323\354?\204\337\257\030\262\013\354?K\371\022\273\026F\351\2779\'o\351\002-\323\277\025\346\266u\014\254\t@w\027\314W;<\330\277M\325\343I\240\354\005@\246Ay\225q\370\346\277^q\342ve\255\320\2770\264\020\373\010S\350\277\215\372\276\367\350\234\303\277H3\302\005b\023\356?<\027\217(d}\300\277\204\337\257\030\262\013\354?6\255\177\276P\335\301?\036&X7\327d\344\277\0048\213>R\374\347?!\217zb:\341\341\277\341\374,!&\342\350\277w/kp{\270\346\277\243\243\340\305\300\242\351\277}\001\260\306A\261\341\277\221H!;\347\374\343\277\247&~;\207\004\351\277\005\2621@!<\270\277=\345\315\275\377\216\350\277(\315?@\216<\267?\014C\376\234\254\240\351\277\010\2669\034\314\221\350\277\335Q\234S\326\313\332\277\264&\232\251Bu\351\277\31385\200<\374\307\277\031\277\262wiy\350\277\215\372\276\367\350\234\303\277\005\2621@!<\270\277\363.S#)Q\342\277R\3109\251/Q\362?\321\351}\036C\375\321?3\231\231\356$K\337\277HvP\276w\320\346\277\215=G\342\017\365\342\277XZ\333\327\024{\317\277T\247\r\201n\014\347\277\317\'\376\367G\225\351\277\316\344\337\225\306\320\344\277T\037\366$6z\350\277k\377\224\036F;\316\277!bW2\360#\332\277\003\3112\021\203\t\340\277\200\"\357\331\365S\352?\330\236\316\374/]\342?\024\216\003l\320u\350\2773\231\231\356$K\337\277\240A*\236\237\203\354?(\370\345\266\200m\320?\004(bT\320<\304\277\275\326\021\333\217\314\350\277\276D\304\327\021=\323?\333\020H\371#\360\350\277^\315\360\352\215@\346\277^\\^_[l\327\277%\202\265\242\321l\324\277\315\267\274e|\023\335\277\001\312\023\264Uc\356?>\272\222B\200;\020@x?\232(\354\334\343\277\352g\231.h\353\355?:\273#\273+\205\351\277\270/\367\226$\354\350\277Bv\001\307\245[\354?H\2419\220^\254\347?\356?P\223yq\360?K\373\023t\022\303\337\277E\311\2767,=\342\277\235\327&\320i\255\340\277\216\337\376\017\204\200\346\277\275\361\0145z\300\346\277\016\345k\274o\004\347\277\230D\027\225\352\207\n@\005\2621@!<\270\277\327c\266r\330\\\344\277\201\220fd\362\354\343?\002\266+enY\350\277\376\275R\352\274\234\305?\024\000u\315\2670\345\277\350\31177K\227\001@\n:\330\207\250;\374?,\260\010m\300\370\344\277ze.\2339\234\350?C\240\021\221\306\265\350\277|\020\255)\247\000h?\266\222\224\310I}\341\277N\027\263\315\360\274\264?\270\215?i\260`\345\277m\305\030\253sm\340\277\350.\273\002t\314\326\277\370\360h\301~%\340\277W\267<9\3370\344\277\345K\257zMe\341\277H3\302\005b\023\356?\331s\337\\Z\034\310?\004(bT\320<\304\277VF\252\255\254\\\325\277,\t\374\337\262P\345\277K\017\261\032[E\341?\311\256\333*\224\260\350\277\nw\253\010\220[\314\277K\314(04\355\321\277\007\265\371\262\025p\t@\320\226\306{\253\200\345\277[F\363\326\217l\346?\034\351\005O\034\203\337\277a\330\312CeH\347\277L\226\256.Y\031\341\277i\325\364\223\203\371{\277\254\227\2320\021%\343?\200\244New\373\314\277\271\223{9\013<\311\277\223\307\250 \'\024\351?\003\017\037\330`\261\350\277\371e\375\276\250\363\333\277\230\372PJ\257\274\325?\245\362\320^\025\375\211?E\372\343\331m\364\326\277\342,8{-\333\316\277\312\254\342\014\245\013\334\277K=\273\273f\301\340\277\247\031\323\331\301\233\351\277\316\232\300R\226\242\350\277\277\316\334\354EL\350?K\013yjs\231\360?\221\352\330h[\210\347\2775rg4\371\334\323?\006\2249\271\034\244\351\277\335~\277\203 \211\342\277*\374\244\315\203\274\265\277Bv\001\307\245[\354?\340\277\023\336\322d\324\277j\205\245\363\223\353\334?\025,E\020`\313\335\277f\214\265pn\245\351\277\006\277\210RP\320\347\277\3203Di~\310\006@\213\323\327\227\371\272\277\277\253\215\247H\373\333\331\277"
      }
    }
  }
}
node {
  name: "tensors/component_1"
  op: "Const"
  device: "/device:CPU:0"
  attr {
    key: "_output_shapes"
    value {
      list {
        shape {
          dim {
            size: 750
          }
        }
      }
    }
  }
  attr {
    key: "dtype"
    value {
      type: DT_DOUBLE
    }
  }
  attr {
    key: "value"
    value {
      tensor {
        dtype: DT_DOUBLE
        tensor_shape {
          dim {
            size: 750
          }
        }
        tensor_content: "\311\374\211\0038a\335\277[ d\220\264\025\350?\307\210\272H\220\031\322\277\2206\260H4\n\341\277\177\246g\317\315z\317?{T\242\002<\201\345\277<\027]d\225p\352\277\311\037\326\024N\217\332\2777\3476&\034\334\311\277\260\220\341\023\037\\\001@{T\242\002<\201\345\277G\232`Q\233\260\320\277\360\222 \0149a\372\277M\204\203\r\353\377\276?\307\210\272H\220\031\322\277\265\367\276\034R\247\001@\224\371\277\204ef\232\277\2736\371\220\320z\267?\362\300\245\217(s\324\277p\r\253H\206\202\360\277\2635\335\231\003n\334?\034?)\371\354(\321\277\360\360\313\315\241\007\345?eigd\361\177\333\277\346\304e\372\322\312\371\277\227\326\345\326\252\216\367?\274\257\306\304P\237\364\277\264\013S\326\230p\300?rvA\221T\346\356?`OH\253-\312\354\277\264KO~\2665\346\277\362\300\245\217(s\324\277 \374\336\023H\030\361?8\241\236\003\360\177\317\277\310B\"&d\275\327\277\341v`\230\353(\305\277\364W\301[\346\350\334\277P\321\261\253\317\252\377\277\'\237uu\337Q\302?^\177n\351\246^\335?\265\005\267[\212\331\353\277M\205\364\371\253\036\006\300G>VJ\274\214\354?\360\360\313\315\241\007\345?\313~\340m@\330\357\277\232\200\365?qT\340?\036\301\177c\365\237\343\277cD\0179T\346\377?6\230T7\024E\362?\361\373\004@{\353\361\277H?\003\315\271U\340\277P\321\261\253\317\252\377\277q\352^7pT\363\277\t%\n@)s\342\277\341\326Ik#pm?E\247:~\376\026\344?0\255\031\231\311C\370\277\211\023d7\036\334\343\2776-\317HH8\304\277H\033\n9\246^\357?L\021~I\312C\366?\'{\347@\311C\351\277\255r[\372v\273\370?\245\307\354\371&S\365?\006\215A\361m4\346?El\333\315\253\236\366\2775\364\020S\177B\355\277\037\2363R\337q\346\277a\311\263\340\343\250\314?\214\235\245\326x\353\310\277\211\023d7\036\334\343\277\320\221\324\nI(\360\277\363z\rm\374\026\332\277M\204\203\r\353\377\276?\205c\210I&S\367\277\014\367\204\2749a\370?+\312\231%\256\256\361?\373\311\277Q\341\201\362\277\227\332\245AU\346\334?M\204\203\r\353\377\276?XvT\'\356O\377?\270\326\322@\021%\347?eigd\361\177\333\277\226jB\326\t\266\002@%\266F\361\033\274\366? J\243\360z\343\001@\360\222 \0149a\372\277\260\220\341\023\037\\\001@\273n\233\217\314c\343\277\240iA8\276\254\352\277I\0160\014C\370\333\277\334<C\013\231\220\363\277\230\263\231\305\224`\372?\245\360\004\220nD\366\277\361\330\270.e\275\364\277\274\257\306\304P\237\364\277[\010Q\361w\313\367\277\320-]\304\256\276\341\277?\323\335(l\353\257?d\363\213\217\302\314\361?\354\263`\003\310#\331?\227\332\245AU\346\334?\355FcZ\025\325\000\300\020\032\321\315O\217\365?\272cb\035\363\177\366?\336m\310\340\233\307\336?\005\323\331\023\232\220\340?\346-J.\025U\361\277\323\242n\242V\346\310?1\363\261\273\365\237\362\277\377\3421\210\247n\375?L\312\206\217\024E\341?\214\235\245\326x\353\310\277\r\3248\253#3\373?\230\263\231\305\224`\372?q\352^7pT\363\277\242]>\317]=\273?\364eH\013G\030\344\277\342\r|d\251\236\315\277\307\210\272H\220\031\322\277\2466\235\262\232\240\360\277H?\003\315\271U\340\277#Mb\275\3311\377?7.\021lH\030\340?2\215\033\305:a\325?\236\304\236\274\237\007\333\277\341\326Ik#pm?bf\374\262\340q\342?\271\251\372?\037\334\360?\204\035\360&\372\366\374\277_\225\340\315Y&\347\277<\027]d\225p\352\277\"%\367\251\217\t\362\277\234\364\304\372\030\234\353?\361\373\004@{\353\361\277E w&N\177\370?\0262\344l\214\331\325?\315\334\213/\251~\372?\275\005\"\273\207\302\263\277x\227t\273g=\254\277\233]\251.[&\343?\210 >d\201B\327?]\332\313m\210\271\355?\006j\365\337W\006\351?\240iA8\276\254\352\277\302\022\221\210\355?\337?\310en7z\353\324\2770\177;\013\024\305\002@2\177\224\025\3321\356?\273\214z\263:q\367\2777\304\352\024\006\256\314\2772\215\033\305:a\325?\240F\365&\250~\355\277Aj\317\263$3\330?3G\203\242\016\005\333?\361\373\004@{\353\361\277\035\371\220\326\300\314\326\277\323\177\"\221@\270\313?F\204\356l\350\350\346?\207XO\327Lo\352?H?\003\315\271U\340\277\004ob\315\377&\362?\234E\226\217\036\334\362\277\304w\265Q\205r\361?\234\364\304\372\030\234\353?\020\020\264RC\270\263?o^.\362\027\234\376\277q\365\227\251I8\320\277x\227t\273g=\254\277}\214\010y\260\270n\277M\250@\013\302L\003\3003G\203\242\016\005\333?\262m\356\014\317\232\357?\212\006\212\n\273u\300\277\363\210\224\034]F\341\277\274\360`n\244\036\275?\005\260\215\002\204b\343?0\013\305Z2\352\342?`OH\253-\312\354\277\004ob\315\377&\362?\235\321x\351\002n\356?L\312\0330\027\\\271?\233]\251.[&\343?\205\3013\013\217\371\341?^\333x\360\205\202\341\277\035\371\220\326\300\314\326\277M\313\345&\236\347\373?\213\252\177\003\334Q\354\277\205c\210I&S\367\277\016\261\354\231\r\005\376?\226C\212u\227p\324?\234E\226\217\036\334\362\277\002\340r\273H \000@\242:]\035E\370\345?\020C\351c\227\200\366\277El\333\315\253\236\366\277\020\211\201\206\303\334\360\277\242\244\240\350\020%\370?\203\364~\206\354\230\000\300\023\231DZ\316\243\265\277%\344\313t\013\316\340\2775P\033Z^f\301\277<\301l\315[6\363\277\355FcZ\025\325\000\300\277y\361u/\n\277\277\373\311\277Q\341\201\362\277\236\304\236\274\237\007\333\277\361\330\270.e\275\364\277\032oO7f\275\341?\272\221\347\240\342\221\340\277\2736\371\220\320z\267?v\353\275\316\371\366\355\277<\022\347\323=f\206?;\344\270\336qd\360\2774]\365\206\301\314\344\277w\002r\326\254\236\343?\313~\340m@\330\357\277\206f\326\206\255\236\321?\323\242n\242V\346\310?\312\304x\220l4\352\277\212\315\313\024\362\177\351\277\261\341\013\263\352\010\364\277\2075\003\3066A\355?\362\300\245\217(s\324\277w%\276\347\302\314\340?\276\277\211\230[f\271\277\215W\r\264L\217\316\277\274\204N\3713\002\001\3004]\365\206\301\314\344\277\237\214\215I\324\332\347\277\325\353qv\223P\354?\032\350\213\337\265%\366?\213N\303\347pT\361?\235\n7\337\313c\325\277\007G\251\316A\330\353?\320\n\021\263\230\220\344\277\260\371\036R\'S\344?\026.$\002\342\201\360?\235\n7\337\313c\325\277a\320?~\254\236\364?\0262\344l\214\331\325?\312\347\304\241\202b\347\277J\263\322\207a\235\353\277\261\004X\304\0007\361\277x\227t\273g=\254\277\335\310%e}\"\357?{T\242\002<\201\345\277i\346\316\326\350(\275\277\260\034kc=\201\341?i\346\316\326\350(\275\277\277y\361u/\n\277\277\277y\361u/\n\277\2778\241\236\003\360\177\317\277\036\326D\305\252\236\331\277\232\3711\350\300\274\364?bf\374\262\340q\342?\211\023d7\036\334\343\277\212\006\212\n\273u\300\277q\274\331\263\200B\351?\277y\361u/\n\277\277;X\210\231\031\254\373\277\213\343=\371\244G\303\277\037\220\254\242~B\337\277i\346\316\326\350(\275\277\2635\335\231\003n\334?gr\377\033A\341\261\277\270\035\312\372\306#\374?\213\252\177\003\334Q\354\277I\371j\252\215\371\345\277\005\260\215\002\204b\343?\215YUd\020\245\t\300\364W\301[\346\350\334\277\311\037\326\024N\217\332\277\232\271eJ\306#\376\277r\257\377\206\035\334\325\277\311\374\211\0038a\335\277d\363\213\217\302\314\361?eigd\361\177\333\277\276\277\211\230[f\271\277\323\177\"\221@\270\313?\000$]\275+\252\356?\253\270\363\034\243\027\363?\323\177\"\221@\270\313?B$7\221\370\326\335?\320\n\021\263\230\220\344\277\310en7z\353\324\277\023\231DZ\316\243\265\277\242]>\317]=\273?)\023E0\207\231\315?\341\326Ik#pm?6\230T7\024E\362?P\35618\264\025\371?\211\023d7\036\334\343\277Y%\321}\\6\361?1\305,8\006\216\350?i\346\316\326\350(\275\277g\313y\206>\021\000@\206f\326\206\255\236\321?2\177\224\025\3321\356?\341v`\230\353(\305\277\221w\333}\270E\362\277\027\354KJ`}\333?\377\3421\210\247n\375?\334<C\013\231\220\363\277\337x\001Su\253\373?\353\371\370%\364\177\323?\361\330\270.e\275\364\277\374B\374\3710\352\346\277\362\300\245\217(s\324\277\230\220M\264~2\375?\337\203:\305N\217\350\277\361\330\270.e\275\364\277\242]>\317]=\273?\2206\260H4\n\341\277\336\354\036\371\220\031\340\277\274\204N\3713\002\001\300\345\311\322\347z\353\342\277\300\301\r\337[&\321?\213\252\177\003\334Q\354\277Gw\024@\205\202\323\277}2\230\024&3\304?D\211[Z\220\t\360?\270\035\312\372\306#\374?\364eH\013G\030\344\277\025x|\217\2705\320?\"%\367\251\217\t\362\277\t\002\276.\023E\345\277\366\331\027\306\356_\357\277tF\033S\333Q\336\277\226C\212u\227p\324?_r\224\274C\370\351\277r\257\377\206\035\334\325\277w%\276\347\302\314\340?\242\201T\327\372\366\372?:1|\035Y&\331\277\263X)\253\031\234\331?\311\374\211\0038a\335\277Y%\321}\\6\361?\322\305\272\263l\024\306?\356#pS\305\023\377?\235\321x\351\002n\356?\271\251\372?\037\334\360?w%\276\347\302\314\340?\336m\310\340\233\307\336?\364W\301[\346\350\334\277q\365\227\251I8\320\277\260\371\036R\'S\344?#\276\271\371\364\377\257\277\272\221\347\240\342\221\340\277q\365\227\251I8\320\277\371\240\247\273\231\220\361?rvA\221T\346\356?\363z\rm\374\026\332\277\311\037\326\024N\217\332\277\215YUd\020\245\t\300qXbm\346\330\372?\340=\242\242\"3\356\277rvA\221T\346\356?u\326}f9\270\222?\\\350R\035\351\350\324?\343U\265A_}\376?\\\375\027\177\236\347\352?Fa\242[\322\272\351?}2\230\024&3\304?\007G\251\316A\330\353?O\364\375\274\345\330\374\277\237\257\331Z\352\010\345\2772\215\033\305:a\325?\310B\"&d\275\327\277\235\321x\351\002n\356?\273n\233\217\314c\343\277w\002r\326\254\236\343?\3067\351\263\212\331\372\277q\352^7pT\363\277\252\263\206/\373\366\351?F\204\356l\350\350\346?Aj\317\263$3\330?\227\332\245AU\346\334??\323\335(l\353\257?\007U0~\242\007\323?[C\260\241\312C\345?\262\236\301\315E\370\323?\346\246\206\326d\275\345\277\036\301\177c\365\237\343\2770\013\305Z2\352\342?eigd\361\177\333\277)\023E0\207\231\315?[C\260\241\312C\345?\037\220\254\242~B\337\277\315\271?\036\223P\375?\353#\245\000\300\365\240\277\036\301\177c\365\237\343\277\236\347\352\315\2655\330\277@\260g\326P\217\322?\305\270\340\206\t\256\342?\2736\371\220\320z\267?\327\360\336c;q\365?0\350xI\034\274\345? \374\336\023H\030\361?\255\233s\220\276\254\371\277Q]\342\360\'c\364\277 X\233/\263\025\354\277\270\326\322@\021%\347?\002\006~\231\275\234\372?\360\222 \0149a\372\277\275\005\"\273\207\302\263\277L\312\0330\027\\\271?z\225\3157\300\274\366\277 \374\336\023H\030\361?e\371W\024\364\217\365\277\311\037\326\024N\217\332\277{r\201&\252\216\371\277\255O\017\351`\215\373?\032\013\330\360\313S\363?{T\242\002<\201\345\277\327\315\222R%C\370?\223\254\230\352\336(\254?\360\023\030\337\2675\342?\260\371\036R\'S\344?\255\233s\220\276\254\371\277\245\322%l\0007\342\277\355FcZ\025\325\000\300P\034\267\273\243\'\343\277\006j\365\337W\006\351?\256,\303\327J_\376?\303\353\204\014-\272\374?\006j\365\337W\006\351?\237\257\331Z\352\010\345\277\232\3711\350\300\274\364?[C\260\241\312C\345?\274\360`n\244\036\275?\021\337q\035\375\026\350\277G\232`Q\233\260\320\277\026\300\322\340\367\326\357?\341\326Ik#pm?\341v`\230\353(\305\277\260\276\277\241\324\332\366\277\320\n\021\263\230\220\344\277\336m\310\340\233\307\336?1\242\340&\360_\353?\2055\252\273p\324\001@H\033\n9\246^\357?=\2545\010K\341\222\277\264\013S\326\230p\300?-a\265\361k$\372?\036\263\370\263\224p\334\277\333_\217\034\257\276\360\277\0262\344l\214\331\325?Af\017Iz\333\362? X\233/\263\025\354\277=\2545\010K\341\222\277\213\343=\371\244G\303\277\320\n\021\263\230\220\344\277\007G\251\316A\330\353?0\013\305Z2\352\342?\215zY\305b\275\313\277\226\034~\371\326\352\361?\033L\003&P\217\344?\242]>\317]=\273?\234E\226\217\036\334\362\277\212\315\313\024\362\177\351\277\205c\210I&S\367\2777\te%]>\000@wl\265\241x\313\365?El\333\315\253\236\366\277\201:p\263\336a\366?\013Y\335R\263\365\307?\240\243\326\361\211\231\265?qXbm\346\330\372?\323\242n\242V\346\310?\265\005\267[\212\331\353\277\021\337q\035\375\026\350\277\355i\010v\361o\371?\260\371\036R\'S\344?\366\331\027\306\356_\357\2772\177\224\025\3321\356?\210 >d\201B\327?\241\3528\013=\201\362?\350\205S\254Qf\250?\2635\335\231\003n\334?x\227t\273g=\254\277\271\251\372?\037\334\360?\035\034\335\347\326\372\323\277\035\371\220\326\300\314\326\277\3331\n\231\277\254\346?\210 >d\201B\327?\314p/}\332z\250\277B\375*\0258Q\373?\034?)\371\354(\321\277\332\023+uQ\237\362?\323\242n\242V\346\310?Aj\317\263$3\330?\215W\r\264L\217\316\277@\260g\326P\217\322?\332\023+uQ\237\362?\267\\\326\177*\212\316?\037\220\254\242~B\337\277\005\260\215\002\204b\343?\\\350R\035\351\350\324?]\272\214\024E\000\007\300\307\210\272H\220\031\322\277\350\205S\254Qf\250?\360\222 \0149a\372\277\363z\rm\374\026\332\277r\322K\2303\n\323\277\325\353qv\223P\354?\340\231\254\251\001W\302\277\213N\303\347pT\361?\260U\333m\222P\377\277\205\372\243\025\344\310\377\277\333\310\314Z\267\265\003@\215zY\305b\275\313\277u\326}f9\270\222?\264\013S\326\230p\300?\212\006\212\n\273u\300\277\023\231DZ\316\243\265\277\306\225\224u\363\177\345?\361\315\177\274\213\331\347?\221\360\027&\010\256\346\277\215\236\347\371x\313\344?\227\332\245AU\346\334?:1|\035Y&\331\2772\215\033\305:a\325?\260\034kc=\201\341?\373`\333\035\237\367\372\277)\023E0\207\231\315?\213\2073\362\305#\357\277\302\022\221\210\355?\337?\236\347\352\315\2655\330\277\'\237uu\337Q\302?0\013\305Z2\352\342?rvA\221T\346\356?\242\315\270~X\026\371\277 5O\036\235\347\356\2771\212\315\207\263\025\373\277\242:]\035E\370\345?<pB.\220\211\000@|\270\031I\326\352\363\277)6\221A\235\307\312?B$7\221\370\326\335?I\371j\252\215\371\345\277XvT\'\356O\377?x\003\321m6A\376?\270\372}\351\260\365\376?\217T\217l\242\027\365\2770\255\031\231\311C\370\277\333_\217\034\257\276\360\277E\247:~\376\026\344?x\227t\273g=\254\277\307R\t\013\232\230\001\300\316rHd\335Q\350?\262\220:\036\345\310\354?X\231\2408\004~\374?=\2545\010K\341\222\277\0344\360\206\023E\364\277\333TV\252\325\332\343?\'\237uu\337Q\302?\341S\024\207\325\372\307\277`\354\377\361\371\326\311?\032\350\213\337\265%\366?\316rHd\335Q\350?L\312\206\217\024E\341?\236\347\352\315\2655\330\2776u\010&\376\026\365?\363\235Y~\022E\327\277P\034\267\273\243\'\343\277\004ob\315\377&\362?\213\252\177\003\334Q\354\277\315\334\213/\251~\372?\2635\335\231\003n\334?\277y\361u/\n\277\277\n|)d\311#\305?\215zY\305b\275\313\277\025x|\217\2705\320?\037\2363R\337q\346\277\206f\326\206\255\236\321?\033L\003&P\217\344?\344\0042\230\315c\360?w%\276\347\302\314\340?\205\372\243\025\344\310\377\277\242\244\240\350\020%\370?\215W\r\264L\217\316\277\272\221\347\240\342\221\340\277\033L\003&P\217\344?P\034\267\273\243\'\343\277\341v`\230\353(\305\277E\247:~\376\026\344?\241\3528\013=\201\362?\242\244\240\350\020%\370?\272\221\347\240\342\221\340\277\334<C\013\231\220\363\2777.\021lH\030\340?\242\244\240\350\020%\370?\3331\n\231\277\254\346?\261\341\013\263\352\010\364\277\276\277\211\230[f\271\277O\364\375\274\345\330\374\277Q]\342\360\'c\364\277\335\326\254\024\336Q\326?\021\337q\035\375\026\350\277\360\023\030\337\2675\342?\257\333?.\271E\360?1\212\315\207\263\025\373\277\340\231\254\251\001W\302\277\242:]\035E\370\345?\212\006\212\n\273u\300\277\265\005\267[\212\331\353\277?\323\335(l\353\257?\345\347\261\013\351\370\366\277\213\2073\362\305#\357\277\321\005\244\305\360o\373\277\370\024\036l{k\001\300.\033\035\317?\310\377?0\255\031\231\311C\370\277\262\220:\036\345\310\354?\301{u\274/\312\326?l\242\272\372\274\214\332?K\220\206vKo\356\277\265\005\267[\212\331\353\277\307,\260A\261\365\355?\223\254\230\352\336(\254?\340\231\254\251\001W\302\277\323\242n\242V\346\310?\333TV\252\325\332\343?\363\235Y~\022E\327\277&\274\022vM\177\372\277w%\276\347\302\314\340?\020C\351c\227\200\366\277\3331\n\231\277\254\346?=\2545\010K\341\222\277\264KO~\2665\346\277HT\310.oT\326\277\036\326D\305\252\236\331\277\373\203\'/\265%\370\277bf\374\262\340q\342?\363\235Y~\022E\327\277}2\230\024&3\304?\211\267Y0?\270\337?\307\210\272H\220\031\322\277\002\300\214l\313\323\004\300<\027]d\225p\352\277eigd\361\177\333\277\361\315\177\274\213\331\347?\227\377\375l\362\177\370\277\033)\267\024:a\347?\236\304\236\274\237\007\333\277r\322K\2303\n\323\277\307\210\272H\220\031\322\2776-\317HH8\304\277\315\275V\027a\270\206\277r\231\215\242j\024\354?@\260g\326P\217\322?`OH\253-\312\354\277\236\347\352\315\2655\330\2770\255\031\231\311C\370\277\365\037\260\350\032\274\351\277\355FcZ\025\325\000\300cg[Jj\024\375?\025x|\217\2705\320?\323\177\"\221@\270\313?I\0160\014C\370\333\277#\276\271\371\364\377\257\277\332w\242\273\353\010\341?#\276\271\371\364\377\257\2778\014$\362\273\214\375?\\\350R\035\351\350\324?V\002\205lF\010\364?\2206\260H4\n\341\277%\344\313t\013\316\340\277=-\020\316\374\016\010\300\232\3711\350\300\274\364?\365\374c\327\004\216\354\277\227\332\245AU\346\334?h,g\371\024\205\267\277\335\310%e}\"\357?\210 >d\201B\327?\365|\221\263\374\326\261?\237\214\215I\324\332\347\277L4\312Z\340q\363?\030W<\230)s\361\277\3420\310u\277\314\312\277G\232`Q\233\260\320\277F\204\356l\350\350\346?\362\212\364Q2\362\003\3006\n\20372\n\307\277\301Ti@oD\364?3G\203\242\016\005\333?\364eH\013G\030\344\277i\346\316\326\350(\275\277\215W\r\264L\217\316\277\274\360`n\244\036\275?\373\203\'/\265%\370\2775\364\020S\177B\355\277\341S\024\207\325\372\307\277\335\326\254\024\336Q\326?\267\\\326\177*\212\316?\212\006\212\n\273u\300\277q\337%\305\226p\346?Aj\317\263$3\330?\306\240\315\347\314c\362\277r\257\377\206\035\334\325\277\371\240\247\273\231\220\361?z,\351\003~2\377\277]\332\313m\210\271\355?r\257\377\206\035\334\325\277\'\237uu\337Q\302?\235\321x\351\002n\356?\343U\265A_}\376?\212\315\313\024\362\177\351\277\034?)\371\354(\321\277\263X)\253\031\234\331?gr\377\033A\341\261\277P\014\270Q\\\266\001@\273\322\022\326f\315\361\277\3644uJ\320\272\337\277q\365\227\251I8\320\277J\326\036\231w\313\350\277\372\246s@\313S\365\277P\034\267\273\243\'\343\277r\257\377\206\035\334\325\277r\231\215\242j\024\354?G>VJ\274\214\354?\274\360`n\244\036\275?\340=\242\242\"3\356\277\325\353qv\223P\354? 5O\036\235\347\356\277%\344\313t\013\316\340\277\235-\203\360\341\221\322\277\n\274%\014\347\350\352\277\273^\234%\205\362\001@Fa\242[\322\272\351?\361\315\177\274\213\331\347?l\242\272\372\274\214\332?\275\005\"\273\207\302\263\277J\353\343\372,\312\336\277\221w\333}\270E\362\277\221w\333}\270E\362\277\033)\267\024:a\347?e\220s\340\261\005\376\277\340`\356\2638a\353\277Fa\242[\322\272\351?\335\310%e}\"\357?\362\343\361\240>\241\321\277M\204\203\r\353\377\276?\215\345\336\263.\312\371?\353#\245\000\300\365\240\277x\227t\273g=\254\277\340=\242\242\"3\356\277b\255\363l\226p\367?\344\341\345\206\2675\363?"
      }
    }
  }
}
node {
  name: "tensors/component_2"
  op: "Const"
  device: "/device:CPU:0"
  attr {
    key: "_output_shapes"
    value {
      list {
        shape {
          dim {
            size: 750
          }
        }
      }
    }
  }
  attr {
    key: "dtype"
    value {
      type: DT_DOUBLE
    }
  }
  attr {
    key: "value"
    value {
      tensor {
        dtype: DT_DOUBLE
        tensor_shape {
          dim {
            size: 750
          }
        }
        tensor_content: "\264\206\243,u\322\320\277\327\205\344\241\243\376\324\277\2008\333\247\025\320\312?\023MS\330T\217\350\277\210+\214QkG\t@\234s\217\254G\330\347\277\357\3143\372\023\376\354?\"T\3172\275\320\221\277\014\377\004\022y\343\370\277\340\005\003B\221V\332\277\255\211\010\205\231\'\357\277\252\372\313\201Q\275\372?\007\036W\020\254\206\340\277a\255\\[\313/\343?H&\356\332~\'\342\277\214y\367\330\361\225\340?\360\340d0\022D\257?\005j\037%\362\214\315\277\333\037\344\014\001F\342\277\247\026\345I\351\270\314\277\036\"^\332p\306\272\277]b/?\0314\342?AUy\316iA\325?\244\221\330\023\225\200\304\277\020w\t\335=\036\360?\312_\217\206r\253\330\277\377\305+\265\017\355\356\277\253N\376\010\316\225\352?\327!4\226\232I\323\277\363<?R\000I\334\2779\221\013z\244\266\270\277\033\023\022\321\246{\326?\204\001\317I\026\r\300\277D\231\034NN\252\321\277m\0106\242y@\273\277\341\357\306\251\032\267\335\277\225P\017\247\357\035\022@\214\306/gO\303\326\277\336\377\242\354\371\272\322\277\337\\C2,$\341\277\374w\004\005\336\327\360?\274\317fu\034\253\363?=G\\\316h\217\360?\266\331\023\245\263\t\363?\376\022\313P?:\311\277f\275\007k\324\346\331\277qJ\274\021\264\206\260\2770[\000\027K\230\350\277\202\000y\242\211q\371?GLl/\023\312\305\277\307\225\014?\360\325\344\277\221\202^\216A\302\331?<\315\376*\213X\347?\256\2430\255\020}\336?\220\242&\363Dd\270\277\233\362\344\327\027\262\332\277W\335R\250\007(\346?\354\017\274o\264n\322\277\213\224\223\2519\302\360?\353\375\002\024S\321\350?G\235\"(\300\177\361\277\242\317:jL\277\356\277\233=M\031,\275\360?\306~`-b\017\357\277\365\005^I\227\244\365\277\354:P\233\177\276\325?\031\300v\023\005\376\332?\253 y \034\221\300?>\312\033\007\320\251\331\277\223\214\356_\241\257\344?\226\007\237Xx9\354\277\243_\335l\006\"\260\277\025U*\315/\305\342\277\002\203\235B\203\314\360\2777\255\223\275&\212g\277\253\210\021\267R\021\334\277wa\236\rq\370\346?\277\214\325(\343\325\327\277\004\016_=B\317\362?\345{W\177P\322\361\2773\346\312`\211\223\373\277N\016\205\332x\010\310?.\016q\323\000\250\344?eU\302\204\267>\303\277X\232a\317H+\266\277K\321xeg\002\316\277v\037\361Ms~\366?\232\326H\352\tw\326\277\247?A\360r\220\360\277\343\020\212\3417Z\330\277N\230\347\316\370\236\327\277 \031P \'\361\272\277 \372\004\263s\036\336\277\266\250\006}\354\310\320\277l\200\026\271Z\005\344?\327Ds\307\332l\363?\215i4=w\347\362\277\243\222\376\004\222\340\003@5\332\373\000\202\311\373?\276R}cp\210\352\277wl\274Y,H\345?\004\016_=B\317\362?\037\374\002\247\346\247\352\277|\233\357\311}\341\376?1\3219\357\245\226\262?\027\016/s_\257\320\277nr\3201\3664\314\277\373Evh\rI\351\277\241An\340\033|\363?\241\234&\377\222\374\316\277\021\217\206Iu.\375?\342\352a\'\235\034\262?\223\214\356_\241\257\344?vN\251\314\332r\356? \372\004\263s\036\336\277\"\302\235c;\262\304?\271\241\217\251C]\351\277\032\266\245\037WQ\322\277\237\0304\270\217^\355?\242\305\331Z\t\227\360?\312v\007\004\0363\344?\\\343\241j`X\241\277\335\205\244\252{u\342\277\215~\033ITI\331\277!\311h\022$,\354?#;\267uq\322\343?\t_\027|\010\031\312?\224\216b%8\225\331\277\311C\363\230dp\324\277\243\275\3516\260\237\311\277\017\302\177?\227\233\344\277\214\036\251br\304\356\277o\342\235 :\215~\277\365=\027\004\020\306\304?A\201\334\351\036\014\002@&l\274i\254x\325\277\034\201R\256\017\036\343?\303En\357z&\364?\3350b\256S1\350\277\000\225l\363\265v\331\277\33789\243.g\342\277$\372\325>W(\315?Y\304%S\252\323\262?y\321\227\307^R\344\277\223\227+\270`\300\242\277d\033{BP\204\327?n\024\263\364s\374\353\277\234%\371B\321t\352?\247c \262\363\232\300\277\212&\027\004bF\351\277\331\323{6@\230\335?\330\303\321A*?\347\277Kk\263\365&Y\360\277\276\371\320Y\261\003\372?!\016\232\014d\367\333\277\212\314\344+\272\215\340\277b\260\014\006\227\375\346?r\264\201n\255-\360\277#\230\r\253o\010\003@\313&\247:\027\205\344\277\262\377\\\302X\243\366?\356\337\3106>\310\366?\\a\363Y\344K\323\277\207\357d\367.\004\371?*R \266*[\351\277\217\177\022\027\233_\354\2776*5\002\337\257\265?h\026?F|\331\367?\2738\210\264\350\023\345\277O\212p\215^D\343\277\022a\033\2534I\320?8\nX\005\312\267\261\277\277\013\0148|\026\320?\201\372\261? \266\375?qp\326BV\226\310?\007\301\000\333\255P\001\300r|\267\270B\345\304\277\\\337\227\371\201\027\312?\262\351\236\247x\216\315\277p\000\025\257w\\\000\300\255a\2562vI\347\277aD!\322\215\247\304?E\305\204&V\214\344\277wF\027\216T\212\000@\315\001\375\222\277t\340\277\345\017\r\352\347\212\326?\346p93\225\202\363\277\227\221\267\353]\360\367?`\317\357J\205R\357?\325\036\013@\376j\351\277\201\301\235\203;\023\325\277\n\213\027\034\030\245\355\277\270[\010\200]\212\375?\005\010\220.f\345\353?\177^\315\2564\"\001@\354:P\233\177\276\325?\325+\005\212H\366\333?S\332\220_=i\320?\324\034Z\017\354\341\363\277}\341t_\275\321a\277E\300$\356\204\377\360\277\023MS\330T\217\350\277\327\255\027\017W\006s?\026;\340\256\324!\333\277\232\20205\030*\331?\rHx\256\231]\363?N|\201\221\215\361k?+\363\345\2327q\r@s\221\231zs9\303?V*/\257\262\030\361?\034\200W\212\217p\002@\2527\250\201\006\\\307\277\231\253\023\250\267\204\361?J\271qRm\272\336\277\306\330\243x\342\202\276\2773j>\207\351\334\343\277\266\021e\'4\325\342\277-\374\331m\203X\323?\241An\340\033|\363?\032\274\363\326\357\373\347\2776\244\313\013e\237\346?Y2b+@\213\326\277\"\236\026\024g!\254\277\263\034\263\0222Q\355\277\306Uf\302\344\335\341\277H\314\270(*\272\313\277\330]\273\t\266\252\271\277\274o\n\203r\256\010@\217vkj#\252\340\277\207\254\242\000\363|\253?\304\201n\226\200\004\366\277\247\223\306\257\"\255\332\277 \204\301F\300\004\264?o\276/AQV\365\277v\350?\344L\006\334?\024,\332\347\036\337\255?\376\272Z,\265\235\367?\017\351~\220N\370\342?o\276/AQV\365\277+\005\002r>M\360?\\TaH\222\026\340?\017\372\004\336\023\022\364?s\213\3658\024\002\273?\027\230\200\364\006\213\351\277E\234\262\256\250X\370\277m\337*\304#T\347\277\023j*\200q|\300\277\367\305\236%\'W\353?\377^*`\232[\362\277]\274\034\000\323\032\357\277\226|\223t\005\353\360\277\007\213\217\254\365W\303?z\334N\006H\202\356\277)#+Ta/\326?\034({\327\323\346\343\277\202D\274\035\002\037\307\277\226\007\237Xx9\354\277\246*\255\034\311r\344\277\tGc\031(\251\337\277Z\310\r\336\327\236\334?=1\236\263\210z\307\277\003\341\367\352\200\250\341\277?Y\224\322\206\355\350\277\232\216\".\020\014\347\277\247\333\225\246\374|\241\277\207\251\021b+p\347\277S\266\352\003e\027\350\2777\3039\232\"\366\346\277\256\334\024\3242\010\224\277\302wqB|\263\303?y\346\262\3577_\372?\310\201Dl\020\034\315\277\312\256\1779\325c\002@\356\260R\365\027\361\354\277f\357\002\022cE\336?^\307\360b\332\036\364?\254#\301\222\357\010\325\277\356\216\245\273\354\256\363?\307\2114\220i\023\364?7\264\r\310\202\242\335\277\314\323\330\003\206&\317\277\311b\214\364\236y\363\277\r\005N\367K\024\301?\244n\033\355\327>\306?\226\024\263\3543\344\373?l\311;\357\r\265\361?}\341t_\275\321a\277u\216q?\312\270\351\277\3410*c\236\326\360\2771o{&\312Q\371?\251\372\334|C\344\366\277\333\350\344<m\003\353\277G\'t\251g[\372?s-\351nj\204\301?%g\225\037\235\020\337\277?\024\313\020?x\270?J\246\3449\234\262\272\277!\2500$\326\212\351\277\353\311N\220?\273\323\277\370\376\021\273Q\177\327\277\350\"\306b\0177\364\277U\271\316B\023$\306\277\177p4N\357]\300\277\361\274mn\006\377\204\277G\\\'\2474\266\315?\037\360\250u\366o\315\277\277\315\331\200\007\004\342\277\340\316\017\233)\301\361?\030|\341\034\031\303\254\277imCn\250\315\343\277\004\010\262$J3\344\277\355\036\306Kpt\343?\321\325\210g\245 \260?\345\230\317\305\r\316\300\277u\177T\206\351b\211?\'S\346\336\256I\007\300\001\250a4L\374\321\277\177Q\351\340;\213\323?\347~\366.*y\371?\"\000\202,)\216\360\2774\000q~}\007\271\277V<\264v1w\360?_\304\021Ye\275\006@\236k!\013XV\355\277\213\2170\227\273\200\337\277o\342\235 :\215~\277\337\027Tu-v\357?\343u\230\310YE\341\277\201%N\217D\310\326\277z\276\034]\277\023\315?y\300\262\030:G\352\277\275\254\026I\352`\347\277e\233\307;gt\335?E8\007e2E\251\277~KM\3035\026\361\277\365\006\355f\377\320\376?#\374\312[1M\363\277\276\372\212\274|v\354\2779\206\236\323\010&\003\300\321g\014:\2648\363?\345\r\034\233-\221\010@\306+\332\347k7\343?\315\001\375\222\277t\340\277\244\215fZ\213\021\323\277\277k\235:\2254\305\277Lh\371\363K\221\022@5\342\034\337\020K\357\277\340\204\370\217u\\\004\300\337\036\021{\267\021\303\277\030:\350\241g\254\212?^\007\250\332\327=\363\277\343\276\345\361\334\362\357\277\245%\206\322\271\n\356\277\251Mf\234\346p\360?y\346\262\3577_\372?\322t \316o\343\322?\210m4T\026\252\323\277\327!4\226\232I\323\277\303 \0161\327a\351\277T\354\3630\330y\307?N\373\367\301\247\000\324\277\314\307+\"|\026\355?\020\314\312\t<\217\276?\312\330\030}\023P\362? \325&w9\317\357?\324\"\007(\344}\342?L\251\304cD\374\224\277\031\300v\023\005\376\332?\320\202c{\'\377\314?\311\021\033\023\340\225\323\277}9\001\352x\334\356\277\272\277\326\332\252I\265?\273\261S\350\312\325\374?<\315\376*\213X\347?\204$\3435\363\351\346?$c\314\260\246\336\357\277W\255\356\347\0313\332\277\355J\222W\235\301\354\277V>mS\266.\361\277\225j\315\257\336\007\006@\356G\364J\320\344\332\277$\374\344\245\242l\320\277,@\237\363~\347\262?\305\177\003 i\027\322?\250m\003D\2408\353\277:\2444_PS\346?K\350ODr{\362\277@\313\363\270\337&\302??Y\224\322\206\355\350\277\027\244\332%\367\302\326?\302\001\240\242\031\013\351?[\326n\312\240\354\361\277\232\322]\205/\367\356?A8\231O\264\357\366\2771$\026\277b\373\340?\203\371\325^W\211\335\277m\267\022\257A\223\335\277\363<?R\000I\334\277I\316\224&\271\365\357\277(\211\224<\357\233\350?v\221!\352\225\206\355\277]\013\021Eb\264\323\277\354v>\034m?\300\277\321p\263\346+\356\376?\253\\\314\377T\263\354?3\010\002Aw\r\307\277c\'d\354\310m\364\277H\360\222(\030#\271?\263b1u\262\227\315?\2626\332\017\203p\301\277f&\337\300\354\003\322\277\312\307M\030`d\345\277E\022P2\017V\363\277\203\014\007h\\\350\360?\265T\356\307\372{\323?^\301CJ\342\202\345\277Z\014\376 \035\010\360\277\321*\224\345\n\231\307\2775\342\034\337\020K\357\277(\211\224<\357\233\350?^\314a\226\235\322\343\277`\373\362\304A\223\340\277\370\024qt\322\242\327?\305:j\3550\366\342\277\221\246\223b\242\305\361\277#\3369QI\355\310?&\177I\202}\200\311?\244\360\375\241ib\351\277H&\356\332~\'\342\277\003\230\322\264\315\370\363\277~\020\007\177\373\252\341\277\013\251*\251iz\344\277-\027:v\\\253\350\277\352\246 \342\n+\365?SAf\274\017\022\263\277\303\351\357D\014\206\307?\3722b\013@*\306?BpR\202\023\245\320\277\324\034Z\017\354\341\363\277\223\335\000\340\000\242\333?\277\266\246\032JN\322\277^\314\3619L\272\376\277jwZ\2247\252\350\277\362\205\217U0\253\350?\353\201\023\203\032\222\n@\304\326\205ME\002\327?\374\364\272\235\232\031\340\277J\367\243\t\342\314\354?}\374q%\013\322\343\277\212\'\267\034\274\231\356\277\014O\210tp\251\366\277E\005+\243a\204\347\277\211\002Z8\305\211\361?\301 \177\302\316\304\222\277m\241\213\212\n\336\361\277\215\320\336T\346I\274\277}\317\316\222\364=\355?]\274\034\000\323\032\357\277i\254@\203\332y\360\277\245z\374b\304\215\302\277D\267\266/\317n\342\277\301\231\027\017[&\217\277 4\001\3613/\360\277\244\007v\037\025\352\324?\224\300]\314\306\363\335?DG\254\362\325\201\303\277~\026\264\227\363F\360?k~\301\017\373\270\351\277\340\205\004\257\3470\361\277\241An\340\033|\363?*\333\0266f\265\330?\357f\017)tc\306?\241e\010\023\310 \355?\376\272Z,\265\235\367?\224G\312F\r\276\000@\337~\2353$\"\360\277\377\271\336\341\361\254\224\277Q\266N7\212\202\316\277\\\240f\310S\300\375?-\360]F\257\322\355?<\347\212\206\'\031\355?Q\222ou\tx\376\277+\024\212\313\220\335\344\277\034\307\tw8\035\373\277\244\223\023s\203\255\361\277#WuYc[\340\2773\247\343\264\234\245a?\267MK\204\310\223\367\277\310:\007\3451\301\267?\006F\366y\2756\344?x\211\266\"S\271\320?\010\256\345\305\340y\315\277X\251\237O\032H\314?\0039N\305\231%\306\277\207\265k\223\033\250\324?\033\254\217$\356\252\310?\270\022\027\336\214\031\332\277\225P\032\241\013\342\361\277|C\220\240\345k\311?\356\372\273\274r\267\344?\346o\177\320\311\017\341?\003\322\313\030\341T\330\27764\301\316k\262\327\277\214\334\177\007\021\351\215\277{\341uPW\352\344\277\371\177L30\215\377\277\217\241\334t\344u\340\277\006\3251\332\370\326\362\277\371:\245\337\262\371\361?\347\347\177\036\325\313\344\277t\365_\266\247\300\001\300\251\326T\200\342t\257?\277Pq\326\321\370\264?\205~I\242}\341\331\277\246*\255\034\311r\344\277\241\\afPk\341?E>6\020\307.\337?\361n~\345VC\321\277jZ\310\003\t\217\314?\310\014\245\346\326\200\000\300\236\345\267\024\336E\276\277gB{\256\372>\326\277\330\303\321A*?\347\277\2242\271\255LB\336\277&l\274i\254x\325\277\332<S\214X\265\325?\316;\206\022hL\272\277\340H(\2572\222\304?a\247\264\004f5\247\277b\345\266,\313\363\343\277H\233-\013\346Z\313?d\373<\014)\206\240?\177S]\246\322p\350\277H\032\026,\370d\361?Q\302\306\3141\'\t@\247\220Sp\322\202\367?\272^K k\210\324\277\256,\363\2106\300\310\277\314Nz8\013t\322\277\244n\033\355\327>\306?\216qD \024B\352\277JEU\313)w~?n\024\231\252\002\335\376?\215;\002\215\370&\363?\264<\027D\020\210\265\277\214\036\251br\304\356\277\374\364\272\235\232\031\340\277~\325\257?\317\030\366\277\374\223\352\333\237^\356\277\205=\351\302\246v\364\277\226\340\344\036\257\256\351\277\3615\024\237\253\023\366?\313c-\260\005\227\376\277\334\"\213hM\033\365\277\367\236\260GH\265\263\277\022\260\014\026\027.\327\277\25709\201P\006\001\300\211W\370\273\237\n\327\277%\201\337=\370\263\346\277\375|rN\301\376\247\277\226\340\344\036\257\256\351\277\255\213\177$\335\301\341\277:\355\204b\200\265\302?\256-O}\277\340\023@y\000\253Q\354\240\007@\312\005H&\354t\245\277\"\322O|\252\315\360?\004/l^\023\276\346\277\315\030r6\276G\356\277\323\204l\016\263)\237\2772\200z\037`|\340\277!D\322\324s7\002@P\227\340\250\314+\336\277\002\234\211\205\3059\361\277\214\003\261\222\221\307\270?\243\372a\213Y?\365?\035(\013{\202\316\376\277\304\030\345\246\325\261\352?\032b\003<\211`\335\277\343;\n\005\270#\201?\250\226\'x\364\315\001\300\\\326C\375#:\303\277\275\254\026I\352`\347\2774\304\014,l*\326?\365=\027\004\020\306\304?T\025D&\0348\347\277~\325\257?\317\030\366\277\371\326B\3020{\262?\250\226\'x\364\315\001\300,\373\235\210Np\344\277p\367Cu\034\215\310\2772\3108\243a\221\260\277\260\234\333\317K_\357?\331U\204\346\210\364\301?\302\3114N\016\264\326\277^\322\016\257\225n\362?t\177\351\345w(\365?n\023\371\221\250\211\371?`\304\363\364\255P\351\277\231=\250u\270\303\260\277\321*\224\345\n\231\307\277\256\215\321\363\217Y\336\277j^\315\262T.\361\277E\004q@\226\021\365?\366\214+\220\374.\317?J\323\t\3275(\363?\262\000\027%$\026\351\277\276\330\367\314\302S\340\277\375!p\336\342v\263?7\334%\335dc\347\277\205n\007\346_\336\342?\245\231\300\213{I\340?\336\311\232\352\254\216\356\277&\217\014\226\336\302\361\277\014\375K5\364+\370?c\265\3568\270\223\341\277\3233\376\021\224H\013\300b\2235^z\020\317?\262\000\027%$\026\351\277\017\206]*\307\333\277?\330\366\020\362FH\360\277\247\333\225\246\374|\241\277x\211\266\"S\271\320?!) \020\364\202\322?\320!\205\020\316e\327?\322v\224\223\006\311\347\2773o1=\026\006\320?\027r\337~hd\322\277;\366\2237\275\350\322\277Z\205e1\r7\254?\260\325\362\335\303J\360?\361\314\212\257\000\301\332?\rck4\316L\341?Z\360|\270\331\372\256?\374Xk\251\243\316\341\277\375!p\336\342v\263?z\354\223\234\022:\343\277&s\357P\215H\354?\372\014\226\310$Q\360\277\206\235\2670;8\312\277\273\014X\205\3113\240?\345Q8\237b#\265\277\262v\253Y\013\033\363\277\367\3176\243\371r\361\277NE\243\306C\344\351\277\363\304n\006\253\352\007@\t\203\361{\366\201\247?\242\305\331Z\t\227\360?k\227\255R=&\352\277,\0327\344\210y\363?v_*X\r\353\254?V\004/\330\264\000\341\277\256\373gk\362`\310?)r\034\277C\024\335\277\214\036\251br\304\356\277\361\264X\317\211\306\374?\327w9\314&e\326?\323\204l\016\263)\237\277?\334+(Q\342\273?w\325\262\313{\376\307\277\270D\357c\021\364\332\277\316\202\312\210\371\036\301?`7v3\212\t\256\277C\344gkD\341\354\277\016]\255 \344\211\366?\017i\227\365\202\251\316?\222X\006H\253Z\345?\033B;\327\205\276\276?\240\005\017\330\266\254\350?\330\360I\217\335\214\364\277-\026\200\023\2218\366?S\304\375\021\332\006\346?\212s\224\251\255E\333\277\253\370\213P\235\026\360?\260(\244\3606\325\332?\211\276zhX\333\304\2779\037|\004<)\356\277\226\356\262\0256\314\353\277\360\304\347N\010\312\352\277O\233;\362\0210\360?\223S\236\353\200\013\274?\'\344\001\317\245\006\325\277R\204W\225\316\016\343?\374\220\360G E\361?\234\352\335C\372O\324\277\016\226rA\265\027\236?\277\377\261\006\214\336\342\277\224-\204\272\336\373\303\277\257\035N\373\222\203\256\277!G\331\r\254\340\335\277~\020\007\177\373\252\341\277\322KA\355\374i\005@\214\330\365\357\202\\\004@\201\361\001D)\010\341?\353ut\363U\360\225\277\233\325}\214L\335\367?\364s>\"\224\213\323\277/\245\315\021\313\311\326\277\360\262b\207\211k\353\277\345\255\320\243u\273\351\277\016s\255\360\353O\330\277\024i\357\305b\312\354\277sn\202\264\351\247\316\277q\270\'D\263G\361?*\014b2)Fi?ei\357\265\342\231\334?>`\307\271g\275\337?N\373\367\301\247\000\324\2776\244\313\013e\237\346?\264\271\033\313S\000\327\277G|\022-B\334\337\277\363\'XF#\347\365\277\026\333q\315\305\207\271?\366\243D$/Y\374?\t0\356u)\326\321\2773gl\3469\301\347?8O\340\304)\036\332?=\r\304\263\232\021\252\277\336\262g\204\357\330\336\277\305&\263\235\\\317\354?\331\374\254\017M\275\322?l\200\321\241l3\350\277\325\242mkl\215\365\277\021\270\235\330\0204\325?\315\001\375\222\277t\340\277S\t\307\323!|\266\277?{\343\331b\'\030@\347\244\007\001\032\270\345?j\371\351\230\257\365\326?\030\022:\037\227\376\315\277\007,%\0073\244\342\277\256\300\007U-j\346\277X\254q\360\311c\330?\264\014\245\352\366\214\340\277\246H\232\256c\017\272\277\020\306H\256\215\315\323\277~\005\3512@[\343\277\013\344\212\277.q\306?\207\'\025\333\016\301\361\2772\216H\026\347\231\342\277\330\017j\267-\031\310\277\260(\244\3606\325\332?\235\364\\\242\201\202\310?\201\247\242\000\364\204\236\2772\333\305\2732\231\324\277r+\224\305\n8\327?W\336\241ja`\204\277\027\211\022\345%\032\342\277\271\036q\017}Q\347?p5v,\221\237\346\277"
      }
    }
  }
}
node {
  name: "tensors/component_3"
  op: "Const"
  device: "/device:CPU:0"
  attr {
    key: "_output_shapes"
    value {
      list {
        shape {
          dim {
            size: 750
          }
        }
      }
    }
  }
  attr {
    key: "dtype"
    value {
      type: DT_DOUBLE
    }
  }
  attr {
    key: "value"
    value {
      tensor {
        dtype: DT_DOUBLE
        tensor_shape {
          dim {
            size: 750
          }
        }
        tensor_content: "<\031\333\376\013\000\323?\373\027)>\206\023\321?\367OCf\343~\375\277\365\322\357\031}.\370?\374\250IMvI\000\300$\366\235e\242U\310\277:\330\033\300\350\342\261\277\241\362\021J\222\362\302\277(\205\330\260\313\321\341\277\377\257\241p\275J\215?\244M\373\246D\001\360?cP\351N\321<\364?\"O7\216KP\362?\255*m\021^\342\002\3004\322Q\246\371\006\367?\245\370\001\347\255.\314\277\000\230\364X\372\001\353?h\205b\327L4\342\277\007&\302v\336\302\302?\343\223\017]\247\250\344?A\232\316\263\204x\356?b\222\323u\240Y\342?6I\265UD\033\363\277\224\321\370\305\266\020\366?\014\0047\236\372\004\332\277\255\213\334\232\351\322\353\277\321\315\342\203%K\360?\362)b\337\360\352\310?\203P.\342\021n\364?\301 \007\203.\213\336?\241\231u\323A\202\355?\222\323H\372\277$\371?\202\222\030\t\341\212\342?!\232\211 DG\356?\000\230\364X\372\001\353?e\226s\336\262\201\350?\246\313v\215\257\333\366\277\327@\314M\212\227\264?\203\223@\243\345\024\344?\215\367\331L\251\244\312\277\020\341\203+\022\275\277\277\354\212\000\330\037\034\r\300\205\227\340\013\370<\352?\327M\256\236\2319\372\277#Q\207\302Td\365?\n\364M1\231A\305\277BS\034\212\236\251\370?\005th-\324\242\243?\014\213\203\272\246\334\352\277\n\331CZ\355l\263\277\244M\373\246D\001\360?\365-\002H\003\023\317?\343\223\017]\247\250\344?vK\217\260\316\221\366\277\206\314Y\224s4\370\277p\'\376]\345\021\305?\300\036\267N%w\333?\207\315\201.x\276\371\277\253\211\214f\340\276\350\277\302Nh\324\211\274\361?4\037\313\233\'<\334?\350\215\266\365sI\357\277\215\005s\205\001T\334\277\t\033\241\014\224\261\325?\214\004K\353\374\311\332\277uH\027\342\300\363\361\277\013G\274\352\245\323\275?\202\222\030\t\341\212\342?\301 \007\203.\213\336?\013\244WF\232M\241\277\204R~\026\033\202\367?\264\322e\363\373\313\367?\017\3373\367\010\251\274\277uH\027\342\300\363\361\277\363\324?N\206B\373?\206\212om\244\027\352\277d\307L\376\033Q\360\277\210\376ZN\341\215\321\277\010\'\352\020\343L\304?Ul\277\260\365n\005\300e\354a\372\225\207\005\300DNT\207\207\367\360?\215\367\331L\251\244\312\277\205\211G\323\237\215\350\277N\0079\223\211\005\337\277\267Mi\013Y\010\372\277\007\316\225{z\203\372\277\245\351sR\tL\001\300\241\2215\002\0352\341?\345N\255g\312\355\361?\204R~\026\033\202\367?\362\316O\261j\006\362?\365H+/\303\270\362\277\277\226B\230t\025\351?\314\003\255wy\242\331\277\343\223\017]\247\250\344?\000\231\034\363\376\213\354?\212\000\253\202\352\241\324\277\262\316\305\212\351\243\361?\220\320\320+\262\206\364?\327@\314M\212\227\264?\010\'\352\020\343L\304?\r/\33432\236\t\300\336\2247\367\2532\346?D\307\007k\333\037\360\277\374\222,V\343O\343?S\325\016\010H\326\373?\023\325\204\341\306s\373?\275\032\027\346\022O\325?O\317\036k,\232\362?D\307\007k\333\037\360\277\244\225\325j/Z\347?\013\244WF\232M\241\277p\'\376]\345\021\305?\365H+/\303\270\362\277\277\035\217\264 \355\331?t,\306`\374\303\314?\342\204N\212Jo\341\277L\212\345F#\265\351\277H\205\035D\014\003\342\277\245\226\375\0044\344\350?\004\226\244$\361\355\347?\007&\302v\336\302\302?\013\2113\206\235\310\347\277\314y\2068\317\251b?\217\372Q\033\267B\317\277\215.\026\225\005\330\317?\362\316O\261j\006\362?\214\366\261\262\244\032\311\277\203\223@\243\345\024\344?\244\225\325j/Z\347?.-\321\222i\273\006\300UJ\"\203\211\326\364\277e\211\002@_\\\350\277\016\372=\316\264}\316\277\017\3373\367\010\251\274\277T\321n\2375\256\365?\376\033\311\246\230;\327?\250w\010\226\346\312\251?\tDD\034\2305\271?\262\316\305\212\351\243\361?\345N\255g\312\355\361?\007\316\225{z\203\372\277\345\307`K\036\026\361\277\314\003\255wy\242\331\277\224G4\333\374\232\360\277E\226.KrP\350?\215\005s\205\001T\334\277\202!\245\366\261\262\337?\323\320ZR3\351\364?|\031e%\215b\323?=\032\003\231\020\212\324?u }\\\255(\336?$R\257\\Y\356\366?\327@\314M\212\227\264?S\324\346mCL\372?\004Rj\311\030\275\366?=\032\003\231\020\212\324?\010\321\rJ\210!\377\277\245\370\001\347\255.\314\277\007\317\275\025\177\r\374\277\242\3639\344\226|\304\277g\231\353\254\300\037\355?\245\370\001\347\255.\314\277\'\204\260\026\307G\340\277\327@\314M\212\227\264?\262\316\305\212\351\243\361?\244q\030\371\312\216\240?I\377\370\301d\265\322\277\013\332k\364\361\366\264\277\314y\2068\317\251b?\200\037U\302\250\236\334?\212)N\222\356%\310?\001\221\334!\332;\340??\340[\221\r3\276\277VN\302\353\233\376\372\277\212\210\0379\233\003\347\277\331B\034\202\223\253\267?{\027\025\361\203N\320?\213\002\373\266\363\265\327\277\021@o\273\017K\226\277\262\317\355$\356-\363?\007\204k\203\206\026\340\277d\351\351+\210\351\000\300\226L\374\335\023M\370\277\376\033\311\246\230;\327?uJg\026\312\007\365\277f\311\2342%e\363\277\342\204N\212Jo\341\277\235\252\312\307\275\311\002\300\375\223T\360\347\331\344?\333E\224P\241I\274?\017\252G\343\265\211\252\277{\027\025\361\203N\320?`\230\303\022\274\225\353?uH\027\342\300\363\361\277]\223\373\017\245\343\343?\010\'\352\020\343L\304?d\225KD\256\367\346?<\333\223\216\366\200\266\277~\034\335\363\232\000\330?\002O\362\372\n\037\362?o%\256)\334\375\301?\366o\220_F\003\013\300r\317c\376l\313\362??\036\243\001#\262\332?\371\247a\237\230\372\200?\307\213!.*\004\354\277<\333\223\216\366\200\266\277\010\205\223\035\213\240\341\277\342\204N\212Jo\341\277\312\001]Cp\216\326\277\310\031\357K\016\305\323?\312\0005\251k\004\325\277\204\207\367\236\226y\345\277{\221\360n\334\000\341?WO\352\205\240\210\374\277p&\326\303\340\207\303?\275\032\027\346\022O\325?\377\226\314\276\365w\351?B\222\216\342_(\342?\025\3234\255\275_\370?\004\210\013\354\230>\346\277\304\224\362ck\001\346?\005\313\035\255l\345\365\277\333E\224P\241I\274?\014\334\273(\373\n\270\277\304Q\340\242\227Z\366?m\246\247z\243a\244\277d\225KD\256\367\346?\310\375\274\332]f\320\277\300\037\337\350)\001\335?s+\236\306\3679\313?\036\226\351\2671\037\350?q\254\227\027\277\235\255\277q\254\227\027\277\235\255\277\t\362\375\374\217-\302\277!N\017\364F\306\360?\036\226\351\2671\037\350?\303\223\312\311fw\344?A\231\246\031\200\356\354?\304\225\032\376o\213\347?\226NL\022\035a\373\277\304\224\362ck\001\346?\247\214\0045\356\\\355\277\311\2051\221\016\310\342\277\213\002\373\266\363\265\327\277\331B\034\202\223\253\267?\375\223T\360\347\331\344?\365\322\357\031}.\370?\036\226\351\2671\037\350?\336\2247\367\2532\346?\374\030Q\330\212\235\322?#P_(P\332\363?\346\212>\'f\253\352\277\022\317\224D\2537\362?\204R~\026\033\202\367?\310\204\t\367\t>\341\277>\225\006\261m\306\346?e\312\304\314)\357\364\277\210\376ZN\341\215\321\277\312\207\201\305\027\334\345\277r\317c\376l\313\362?\323\320ZR3\351\364?+\211x\031\336\371\347\277\241\231u\323A\202\355?>\225\006\261m\306\346?\246\311&Y\246\307\363\277g\231\353\254\300\037\355?\325k\253c\363\251\004\300WM\232Q\227t\371\277\343\223\017]\247\250\344?\213\002\373\266\363\265\327\277um,\336:*\007\300~\225\220\327\356(\347?\n\364M1\231A\305\277\312\001]Cp\216\326\277K\002q\220rS\327\277\373\027)>\206\023\321??\035{g\036(\331?\313\002\205\335t\030\330\277I\206E\336\020\215\343\277\210\204\177\320\210\333\340\277\t\377n\233\343R\322\277c\224#\252\251m\345?\211\377\202\350\345\027\323\277<\333\223\216\366\200\266\277\300\036\267N%w\333?e\211\002@_\\\350\277\t\377n\233\343R\322\277\203\224h=\352\236\345?\010B\364\347\216!\266?\205\211G\323\237\215\350\277\036\226\351\2671\037\350?\242\222]\234!\274\342?\377\226\314\276\365w\351?\325G\276\001~\375\360\277\247\214\0045\356\\\355\277J\001I\366m\311\325\277\'\204\260\026\307G\340\277\222\317\250\221\255\374\362?DNT\207\207\367\360?\t\327\363%\344X\260\277f\314\024\0013\003\370\277\241\362\021J\222\362\302\277\013G\274\352\245\323\275?\371\247a\237\230\372\200?g\214z\016m\372\354\277\250w\010\226\346\312\251?&\212\240\263\342\203\351\277\204QV|\026\370\365?\361(:E\354`\307?\207\317\321b\201\322\374\277\"\233\261\272H\321\357?\304\225\032\376o\213\347?F\357\2245c\364\t\300\244M\373\246D\001\360?\007&\302v\336\302\302?\230q^\324\325\365\203\277\301\221z\225]c\341?\010\215\323\356\257\360\355\2776L-$R\271\367\277\246\311&Y\246\307\363\277bO\301\264\314\262\362?\204\207\367\236\226y\345\277UJ\"\203\211\326\364\277G\240y\014\304\226n\277\306\212\371\223%z\352\277\021\316l\252\246\255\360?1\316\261=\347\336\360?\324D\017$\"s\234\277\345N\255g\312\355\361?\346\212>\'f\253\352\277q\254\227\027\277\235\255\277\203T\316J$\226\372?\016\250\367\256\254u\247\277\375\223T\360\347\331\344?\274\030\307\261\t;\322?\034\252\266z\273\004\002\300\266K\031\327O\364\366\277d\207\262\013VH\345\277\345N\255g\312\355\361?K\003\231*w\335\330\277\332Dl\266\234\277\272?\312\207\201\305\027\334\345\277\324D\017$\"s\234\277\277\035\217\264 \355\331?\237\256j0\320\361\010\300\007\214\253T\253f\354\277\323\324\372\272E\021\373?<\333\223\216\366\200\266\277?\340[\221\r3\276\277\003P\032\225\017\251\363?\374\030Q\330\212\235\322?WM\232Q\227t\371\277\352\207\306XX\r\346\2773\321)\014\365|\365?\203P.\342\021n\364?\016\007\257l\010\243\336\277\007\316\225{z\203\372\277\342\222\347\302\242\036\343?\210\204\177\320\210\333\340\277\303\223\312\311fw\344?\247\317\026\366\301\003\375\2775J\335\357H\245\364\277\222\323H\372\277$\371?\n\364M1\231A\305\277\025K\300\366\014\376\365\277\244Q\233\017W)\366?g\315<\2337\215\371\277\205\312\t`j \365\2774\037\313\233\'<\334?&\2309\354:3\353?\343\223\017]\247\250\344?\305\307\033\270\335\344\360\277\204\207\367\236\226y\345\277\277\226B\230t\025\351?\r\005_8\377\216\333\277\235\224\255\320*\320\345?=\224\336\026i<\345?\014,\262\023\372\376\313?\005\340\220\211\203\365\232?\243PsuR\237\364?r\317c\376l\313\362?\246\314\236\'\264e\370\277\361\'\022\253\347\326\305?\250\204\304c\311\014\341\277\203\224h=\352\236\345?r\317c\376l\313\362?\230q^\324\325\365\203\2774\322Q\246\371\006\367?\211\206\317\004\222\357\343\277\207\030=\213\210\330\321?UJ\"\203\211\326\364\277\016<\317R\375\"\220\277\244Q\233\017W)\366?\344Q%6\330\213\366?\362\316O\261j\006\362?\250\205\354\375\315\226\342\277aN\231\032\310(\361?&\2309\354:3\353?\262\317\355$\356-\363?\313\002\205\335t\030\330\277\365-\002H\003\023\317?\211\377\202\350\345\027\323\277\245\370\001\347\255.\314\277\204QV|\026\370\365?(\205\330\260\313\321\341\277\300\036\267N%w\333?\243U;xiQ\374?$\366\235e\242U\310\277\242\222]\234!\274\342?\266LAqT~\370\277\364,\332\255\376\210\315?A!\033\3200P\337?\301\221z\225]c\341?\202N\336\255\010Z\361?&\2309\354:3\353?\277\035\217\264 \355\331?aN\231\032\310(\361?\004\226\244$\361\355\347?\"\223q\351#\201\343?XQ:\272\251\234\377\277\002\222\004\274\336\305\341?\r\005_8\377\216\333\277\211\377\202\350\345\027\323\277\014\213\203\272\246\334\352\277\"O7\216KP\362?\004\225|\212\354c\346?\336\225_\221\260\274\347?\'\320*C\304\310\375\277E\310/\005\340\251\361\277!N\017\364F\306\360?\246\313v\215\257\333\366\277\216\371)\201\262\270\315\277\262\317\355$\356-\363?\311\377\014\017gz\323\277\022\317\224D\2537\362?\253\211\214f\340\276\350\277\266I\311\242F\340\363\277\265Gyn=\314\360\277\366IS\311\307B\364\277\333\220\227\216\231\n\340?\212)N\222\356%\310?u }\\\255(\336?D\352\3142LB\002\300\201\232X\332\005\333\356?E\226.KrP\350?a\221\253\333\233\317\340?\350\215\266\365sI\357\277\374\222,V\343O\343?\343\206\236\276S\203\344\277\250\215,\317\362\346\356\277\006?|\031\201\203\261?\r\006\207\322\003\031\335\277;\030\263d\007v\321?\206$\206\217\327s\300?H\205\035D\014\003\342\277\302Nh\324\211\274\361?\010\205\223\035\213\240\341\277a\221\253\333\233\317\340?\220\320\320+\262\206\364?I\206E\336\020\215\343\277\016\336\013]\004\037\273\277\317\007M\340\213\312\337\277\345\211\026\215a!\351\277\244M\373\246D\001\360?\206\230\010\246\374\306\353?\tzX\312\357\336\254?\275\032\027\346\022O\325?r\323\003g\177\363\370?\256/5\024u\224\n\300\315\005\375\253\202\266\334\277\t\362\375\374\217-\302\277\230P\234F&u\376\277\206\314Y\224s4\370\277\342\221\277(\236\224\341?\311\2051\221\016\310\342\277\203\224h=\352\236\345?\201\232X\332\005\333\356?T\322\2269:8\367?\247\214\0045\356\\\355\277\002\222\004\274\336\305\341?!N\017\364F\306\360?\301 \007\203.\213\336?bO\301\264\314\262\362?\342\232\'\224\307n\357?F\213\r\341\'?\353\277\246\313v\215\257\333\366\277\342\221\277(\236\224\341?\216\006\233\037\006\336\335\277E\226.KrP\350?\013G\274\352\245\323\275?\265Gyn=\314\360\277\360\317wKo\220\363?\303P\270\010\223\320\364?I\377\370\301d\265\322\277\r\006\207\322\003\031\335\277\213\002\373\266\363\265\327\277\214\003#Q\370?\331\277\014\367\305\377\246\337\311\277:\330\033\300\350\342\261\277\206\212om\244\027\352\277\331B\034\202\223\253\267?=\224\336\026i<\345?N\006\021\371\204{\335\277\222\317\250\221\255\374\362?tG\357G\274i\360\277\315\005\375\253\202\266\334\277*\207(\345\324\345\344\277g\315<\2337\215\371\277b\222\323u\240Y\342?T\321n\2375\256\365?\247\214\0045\356\\\355\277\310\204\t\367\t>\341\277r*v,\363\257\311?5K\005\212M/\366\277h\215\242\250q\204\356\277\363\035\031\333\241O\332?q\254\227\027\277\235\255\277\315,\002\331\247\'\006\300\351\205v$O\371\342\277=\032\003\231\020\212\324?|\031e%\215b\323?\301\221z\225]c\341?\006?|\031\201\203\261?\017\252G\343\265\211\252\2774\322Q\246\371\006\367?\025HH(\377_\361\277{\027\025\361\203N\320?A\221fH[\236\340?\n\363%\227\224\267\303\277\275\032\027\346\022O\325?\034\222IO\037\367\341?\230q^\324\325\365\203\277\314\003\255wy\242\331\277\365H+/\303\270\362\277G\240y\014\304\226n\277\235\223\2056&F\344?\t\377n\233\343R\322\277cP\351N\321<\364?\216\371)\201\262\270\315\277sL\267J\323\033\370\277\312\0005\251k\004\325\277\t\327\363%\344X\260\277d\225KD\256\367\346?\201\232X\332\005\333\356?&\312:\246\250\214\364\277|\031e%\215b\323?\332Dl\266\234\277\272?\364\315\'\027f|\360?\004\226\244$\361\355\347?\214\366\261\262\244\032\311\277\374\250IMvI\000\300\237\227%\2378n\352?\013\332k\364\361\366\264\277\310\320\203#\007\277\376\277A!\033\3200P\337?\363\320\237\345s\032\365?\202\222\030\t\341\212\342?\364\315\'\027f|\360?\314\003\255wy\242\331\277$\225\301\035-\225\346?\216\007\303\271\nh\337\277\005\310\245\336^G\361\277\300\037\337\350)\001\335?\312\207\201\305\027\334\345\277\377\257\241p\275J\215?!\221!\265\032m\340?\224\321\370\305\266\020\366?3\321)\014\365|\365?\324D\017$\"s\234\277\340\230\327_\276Z\354?\302S0\327\240n\371?\207\030=\213\210\330\321?=\033+3\025\024\326?\324D\017$\"s\234\277d\207\262\013VH\345\277\235\224\255\320*\320\345?\007\315m\341u\371\370\277=\335\343\302\377\224\271\277\344Q%6\330\213\366?\250\232\235mF\014\357?p\'\376]\345\021\305?A \3635,\306\335?\345N\255g\312\355\361?&\312:\246\250\214\364\277\375\223T\360\347\331\344?=\335\343\302\377\224\271\277\302\232\342\000\207=\357?xPW\263\345C\376\277\004\351\032r\306U\000\300H\215]\0251S\356\277o%\256)\334\375\301?s+\236\306\3679\313?\303\223\312\311fw\344?\262\317\355$\356-\363?g\320\264iE+\376\277\303\223\312\311fw\344?\277\226B\230t\025\351?&\2309\354:3\353?\242\222]\234!\274\342?\314\003\255wy\242\331\277\350\215\266\365sI\357\277\313\211\321\371 \360\350\277{\027\025\361\203N\320?\363\320\237\345s\032\365?\345\226\207+\265F\351?\203\224h=\352\236\345?\325l\323\375\3673\006\300\013\003\017\004\366z\330\277\334\250\004\2725\030\000\300\204\207\367\236\226y\345\277\206\3131\372n\252\366\277\003QB/\0243\365?\211(&\370\351\233\306?\177\226\270q\363\262\350?~\034\335\363\232\000\330?\363\320\237\345s\032\365?o%\256)\334\375\301?\204QV|\026\370\365?\n\331CZ\355l\263\277\216\006\233\037\006\336\335\277\346\311\260\177\'*\364\277\341\231\377\371\302\344\355?\023\325\204\341\306s\373?\343\350\325\336\205$\000\300\211\361\351\257\215h\301\277\007\204k\203\206\026\340\277\010\'\352\020\343L\304?\310\376\344tb\360\321\277B\222\216\342_(\342?\005S\222c\035G\370?\314y\2068\317\251b?\023\321\344x\264K\365?\340\230\327_\276Z\354?\013\003\017\004\366z\330\277(\215\030\202\360!\356\277\t\207\343Q\224\264\344\277vN\007\177\334/\373\277u-\356\372\000N\316?\013\2113\206\235\310\347\277N\006\021\371\204{\335\277\250\232\235mF\014\357?\212)N\222\356%\310?\017\3373\367\010\251\274\277K\002q\220rS\327\277H\205\035D\014\003\342\277q\254\227\027\277\235\255\277\t\033\241\014\224\261\325?\202!\245\366\261\262\337?\374\222,V\343O\343?\377\034\361@\235\305\330?&\2309\354:3\353?d\225KD\256\367\346?\214\366\261\262\244\032\311\277E\211\275\254\036+\350\277~\034\335\363\232\000\330?~\033\265Y\226v\326?\343O\325\001\317w\363?\311\377\014\017gz\323\277@P\244\273\220\013\364?>\225\006\261m\306\346?TG\252\264{8\360\277\217\372Q\033\267B\317\277%S\327\366]x\370?\273\027\237\027\005\261\320?\303\223\312\311fw\344?&\2309\354:3\353?kf\356N\234\005\020\300\310\031\357K\016\305\323?\250\205\354\375\315\226\342\277T\322\2269:8\367?\351\205v$O\371\342\277\206\212om\244\027\352\277\021@o\273\017K\226\277\342\222\347\302\242\036\343?Q\316\366\320\'\020\361?\202O\006H\r\344\362?\345\310\210\345\"\240\362\277\313\002\205\335t\030\330\277\017\3373\367\010\251\274\277Q\316\366\320\'\020\361?\016-\214\377(\212\006\300\352\207\306XX\r\346\277~\225\220\327\356(\347?\303\223\312\311fw\344?\025\3234\255\275_\370?\224\322 `\273\232\367?\230q^\324\325\365\203\277\'\320*C\304\310\375\277\034\253\336\024\300\216\003\300\212\001\323\034\357+\326\277\004\225|\212\354c\346?\346\227\257\305\271\320\352?t,\306`\374\303\314?\362)b\337\360\352\310?\273\027\237\027\005\261\320?\277\035\217\264 \355\331?\224\3752\264\334\003\320\2774\322Q\246\371\006\367?\210\215\347;\262\265\356\277\345\310\210\345\"\240\362\277\014\334\273(\373\n\270\277&\213\310M\347\r\353\277\262\317\355$\356-\363?\014,\262\023\372\376\313?\342\222\347\302\242\036\343?B\222\216\342_(\342?\277\226B\230t\025\351?\327?\244\263\205\r\263?\343P\375\233\323\001\365?\235\223\2056&F\344?\\\253h;A\361\003\300\323\320ZR3\351\364?\203\223@\243\345\024\344?\305\210\251_\034f\347\277\277\226B\230t\025\351?\212)N\222\356%\310?vK\217\260\316\221\366\277\346\311\260\177\'*\364\277\305\210\251_\034f\347\277\334G\344\204\252]\277?\213\365\211\030\240\220\307\277\"O7\216KP\362?\314y\2068\317\251b?tG\357G\274i\360\277\311\2051\221\016\310\342\277\201\232X\332\005\333\356?\247\214\0045\356\\\355\277\'\231a\206?\275\354?\016\371\0254\260\363\314\277\302O\220n\216F\363?\323\320ZR3\351\364?M\2145{,\311\354\277c\224#\252\251m\345?\336\2247\367\2532\346?\327M\256\236\2319\372\277t\321\2632v\337\365?@P\244\273\220\013\364?\007\204k\203\206\026\340\277\206\212om\244\027\352\277Q\316\366\320\'\020\361?\305\307\033\270\335\344\360\277<\031\333\376\013\000\323?\014\334\273(\373\n\270\277u-\356\372\000N\316?\226K\324C\017\303\366\277\343\206\236\276S\203\344\277\245\210d\314\3334\347\277"
      }
    }
  }
}
node {
  name: "tensors/component_4"
  op: "Const"
  device: "/device:CPU:0"
  attr {
    key: "_output_shapes"
    value {
      list {
        shape {
          dim {
            size: 750
          }
        }
      }
    }
  }
  attr {
    key: "dtype"
    value {
      type: DT_DOUBLE
    }
  }
  attr {
    key: "value"
    value {
      tensor {
        dtype: DT_DOUBLE
        tensor_shape {
          dim {
            size: 750
          }
        }
        tensor_content: ">\255\251y\350\215\276\277\234k\313Z4\230\276\277\234k\313Z4\230\276\277\234k\313Z4\230\276\277Cf\321Q\233\307\255\277\345^&-\264\343\274\277\231\313qP\203)\276\277\234k\313Z4\230\276\277\341\363/\246}t\276\277\234k\313Z4\230\276\277\370\027\363T\344\244\275\277\314(\227\023\'j\276\277\234k\313Z4\230\276\277\234k\313Z4\230\276\277\267\026\240\317\346\202\276\277\234k\313Z4\230\276\277\234k\313Z4\230\276\277\266\324\351+\336\226\276\277\234k\313Z4\230\276\277E\356\252 \006\240\364?\234k\313Z4\230\276\277\367*z\342\360\226\276\277\234k\313Z4\230\276\277\234k\313Z4\230\276\277\247I\355\357\256\217\276\277\234k\313Z4\230\276\277\036\343\023\000\023\226\276\277\234k\313Z4\230\276\277\234k\313Z4\230\276\277\234k\313Z4\230\276\277\374W\246iF\202\276\2773\215`\030\346&\264\277\234k\313Z4\230\276\277\234k\313Z4\230\276\277v~Yu\313\226\276\277o\370\216\324lb\276\277\234k\313Z4\230\276\277\234k\313Z4\230\276\277\234k\313Z4\230\276\277\234k\313Z4\230\276\277\234k\313Z4\230\276\277\364\017\324D>\206\276\277\234k\313Z4\230\276\277\234k\313Z4\230\276\277\304\356\214\260\017\225\276\277\234k\313Z4\230\276\277\234k\313Z4\230\276\277\234k\313Z4\230\276\277\234k\313Z4\230\276\277\234k\313Z4\230\276\277\317\235\0132\225o\276\277\234k\313Z4\230\276\277\234k\313Z4\230\276\277\032\311\372\010\321y\276\277\224}\307\266\347\220\276\277;=\200)\2350\276\277Zk\356\275l\220\276\277\234k\313Z4\230\276\277\315\273\316N9@\271\277\337\002\205\016\337\217\276\277\234k\313Z4\230\276\277\234k\313Z4\230\276\277\324\267\307\351\030C\276\277\274\212\207G\344\223\276\277\332@\220D\035\327\256\277\233\0035\030\210|\276\277\234k\313Z4\230\276\277\234k\313Z4\230\276\277\234k\313Z4\230\276\277p}\243\254\177\\\352?\016]\277\321\304\177\276\277c$\032\232r\225\276\277\234k\313Z4\230\276\277\234k\313Z4\230\276\277\001\216\333\346p\311\275\277\234k\313Z4\230\276\277\234k\313Z4\230\276\277\234k\313Z4\230\276\277\234k\313Z4\230\276\277\235o\346\301\244\224\276\2775o\020\262g\231\275\277\032\020Y\272\272V\276\277\234k\313Z4\230\276\277\300Y\342\353\033H\274\277\234k\313Z4\230\276\277\234k\313Z4\230\276\277R\032C\255\253\254\272\277\234k\313Z4\230\276\277\320\264\226h\327\203\276\277\213\264\376\035\272\276\243\277\033n\237\341\244\220\276\277\234k\313Z4\230\276\277\234k\313Z4\230\276\277\2510Hl\213\222\276\277\234k\313Z4\230\276\277\234k\313Z4\230\276\277\234k\313Z4\230\276\277\376\212\252e/\n\276\277`=\277\035\226\222\276\277\234k\313Z4\230\276\277\243\004\330N\357/\275\277\234k\313Z4\230\276\277\n\276\254\354\000\227\276\277\3779Y\330A\224\276\277\234k\313Z4\230\276\277\234k\313Z4\230\276\277\247opO\224v\276\277\234k\313Z4\230\276\277?\032\213\212\267Q\276\277\234k\313Z4\230\276\277\234k\313Z4\230\276\277\227+/\004\r\225\276\277p}\243\254\177\\\352?\234k\313Z4\230\276\277\234k\313Z4\230\276\277%\356\327\216\363\226\276\277\242\227j;\031\217\276\277\234k\313Z4\230\276\277c$\032\232r\225\276\277\234k\313Z4\230\276\277\035C\214y\354r\274\277\234k\313Z4\230\276\277\234k\313Z4\230\276\277\234k\313Z4\230\276\277\234k\313Z4\230\276\2778\272\375\307\272\225\276\277\276q\342\303\300\226\276\277\234k\313Z4\230\276\277\234k\313Z4\230\276\277\337\213\231c\321X\276\277\234k\313Z4\230\276\277\234k\313Z4\230\276\277\234k\313Z4\230\276\277\234k\313Z4\230\276\277\277^r\364\356~\276\277\234k\313Z4\230\276\277\234k\313Z4\230\276\277\234k\313Z4\230\276\277\234k\313Z4\230\276\277\234k\313Z4\230\276\277c]\r\311)\224\276\277\234k\313Z4\230\276\277S\236\305k$\177\276\277\000\001f\251\212\225\276\277\234k\313Z4\230\276\277\230\337\313\005\204~\276\277\220\013\323|$c\361?\213\031\302M\274\217\276\277\234k\313Z4\230\276\277\214s\220\316w\204\276\277\234k\313Z4\230\276\277\234k\313Z4\230\276\277\344B!e\006\223\276\277\275\230\362\311\026r\276\277\214\247\333\357M\222\276\277\234k\313Z4\230\276\277\234k\313Z4\230\276\277\234k\313Z4\230\276\277)k\031I\032\257\226\277\234k\313Z4\230\276\277\232\347H\234\273\305\272\277\234k\313Z4\230\276\277\234k\313Z4\230\276\277\234k\313Z4\230\276\277\234k\313Z4\230\276\277\234k\313Z4\230\276\277\234k\313Z4\230\276\277\223@\271 \300\225\276\277\234k\313Z4\230\276\277\270\317\375* \367\270\277\234k\313Z4\230\276\277\234k\313Z4\230\276\277F\324\240L\354\223\276\277\234k\313Z4\230\276\277\234k\313Z4\230\276\277\234k\313Z4\230\276\277\234k\313Z4\230\276\277\234k\313Z4\230\276\277\035\307\340\273\357\220\276\277\234k\313Z4\230\276\277\005E\300\'dL\276\277\014\377\325\351\230\216\276\277\234k\313Z4\230\276\277[\312\355\2135\217\021@r\264a\244\304D\276\277\234k\313Z4\230\276\277\205+\276\251o\210\276\277\234k\313Z4\230\276\277\247\236\023c\211\223\276\277\234k\313Z4\230\276\277\234k\313Z4\230\276\277\234k\313Z4\230\276\277\234k\313Z4\230\276\277\234k\313Z4\230\276\277\211\262\3762\004\327\275\277\233\0035\030\210|\276\277\234k\313Z4\230\276\277\227:@y\221\001\271\277\342[\365\253r$\275\277\234k\313Z4\230\276\277\234k\313Z4\230\276\277\234k\313Z4\230\276\277\205+K\363IE\272\277H\273\207\313\317s\275\277\234k\313Z4\230\276\2776\'\337\360\203\r\241\277\234k\313Z4\230\276\277\374\202\245\350=e\266\277`G\262\371\231+\276\277\234k\313Z4\230\276\277Nq\231\344\316\223\276\277\364\024\302\323\242\345\275\277\234k\313Z4\230\276\277\234k\313Z4\230\276\277\222\3247\201\277\361\271\277\234k\313Z4\230\276\277\234k\313Z4\230\276\2772\231\024\320`\315\002@?\032\213\212\267Q\276\277\234k\313Z4\230\276\277\356lI\271KX\276\277\234k\313Z4\230\276\277\234k\313Z4\230\276\277\234k\313Z4\230\276\277\234k\313Z4\230\276\277\234k\313Z4\230\276\277\336\346Q\312\273\212\276\277\234k\313Z4\230\276\277\234k\313Z4\230\276\277\266FsJ\216K\276\277\234k\313Z4\230\276\277\234k\313Z4\230\276\277\234k\313Z4\230\276\277\234k\313Z4\230\276\277;\366!x\263S\276\277\264\023\315\3246\354\273\277\234k\313Z4\230\276\277\234k\313Z4\230\276\277\234k\313Z4\230\276\277\222\3247\201\277\361\271\277r\325\2315\207\203\276\277\314\250E3\206\216\276\277\345\177/\373-\216\276\277\234k\313Z4\230\276\277\234k\313Z4\230\276\277\234k\313Z4\230\276\277\264\241+\261x}\276\277\234k\313Z4\230\276\277\234k\313Z4\230\276\277\234k\313Z4\230\276\277\216\253\366V\276\216\276\277\204_\t\313E\226\276\277\234k\313Z4\230\276\277\234k\313Z4\230\276\277S\236\305k$\177\276\277\234k\313Z4\230\276\277\016]\277\321\304\177\276\277\031\237\\B{\226\276\277\234k\313Z4\230\276\277\025\177\016\227\347\224\276\277F\033\377\375\325p\276\277\234k\313Z4\230\276\277\234k\313Z4\230\276\277\257\207\273\262\252\351*@\234k\313Z4\230\276\277^w\205tA\364\275\277\031\237\\B{\226\276\277\234k\313Z4\230\276\277\234k\313Z4\230\276\277\020#?\374\234\214\276\2773\0044\276\345\243\266\277\310\004.\001#l\276\277A\001\320\217,Z\272\277A\001\320\217,Z\272\277\324\235\374]\373\201\000@\301<\n\374y\224\276\277\234k\313Z4\230\276\277\216\253\261\034\016\000\274\277\r\215\222LlH\276\277\234k\313Z4\230\276\277\234k\313Z4\230\276\277\302$\362\036\307\213\276\277\202?\273\037\262\224\276\277U\321\311g\r\007\276\277\n9V\277\300\201\276\277\234k\313Z4\230\276\277\234k\313Z4\230\276\277\234k\313Z4\230\276\277\234k\313Z4\230\276\277\234k\313Z4\230\276\277d\032\020\0004\"\276\277\234k\313Z4\230\276\277\234k\313Z4\230\276\277\234k\313Z4\230\276\277\234k\313Z4\230\276\277\234k\313Z4\230\276\277\234k\313Z4\230\276\277\234k\313Z4\230\276\277\211\255\020\244\237w\276\277\234k\313Z4\230\276\277\234k\313Z4\230\276\277\234k\313Z4\230\276\277\366m\275,jw\276\277\234k\313Z4\230\276\277\234k\313Z4\230\276\277\207\347\220y\307j\276\277\234k\313Z4\230\276\277\\\327+j\220\205\275\277\234k\313Z4\230\276\277\214s\220\316w\204\276\277\363\266\224\370\231E\270\277\267\244\\2\272<\276\277\234k\313Z4\230\276\277\234k\313Z4\230\276\277\021\261X\236.\217\276\277\214s\220\316w\204\276\277\346\233b?Q\223\276\277\250\231\355\323\3508f\277\234k\313Z4\230\276\277\256\251\327\361i\224\276\277\332\000\301P\243!\261?\024G\250\016\241\212\276\277\271\346*\333\320\342\273\277\377\035UWg#\275\277\234k\313Z4\230\276\277\234k\313Z4\230\276\277\234k\313Z4\230\276\277\326\207\337>\335_\267\277\234k\313Z4\230\276\277\234k\313Z4\230\276\277J\247\376R\206\212\276\277fO\024\344\230?t\277P\003\316\355\320\222\276\277\234k\313Z4\230\276\277\234k\313Z4\230\276\277\234k\313Z4\230\276\277\234k\313Z4\230\276\277\321c\213\\m|\276\277\234k\313Z4\230\276\277\234k\313Z4\230\276\277!\330\013\317\360\006\326?\234k\313Z4\230\276\277\234k\313Z4\230\276\277\2773\215\010\254\025\276\277\234k\313Z4\230\276\277\322\263\t\302f\217\276\277\234k\313Z4\230\276\277r\267\'@\362\350\001@P\376kas\020\276\277Xgv\027>K\276\277\234k\313Z4\230\276\277\272\213\024\356T\210\276\277\234k\313Z4\230\276\277\234k\313Z4\230\276\2773\0044\276\345\243\266\277\305H[1\313\211\276\277\372k\243\337\210\216\276\277\234k\313Z4\230\276\277\234k\313Z4\230\276\277\234k\313Z4\230\276\277\234k\313Z4\230\276\277\234k\313Z4\230\276\277\234k\313Z4\230\276\277\234k\313Z4\230\276\277\234k\313Z4\230\276\277\234k\313Z4\230\276\277\234k\313Z4\230\276\277e\250\346\365\273U\265\277\234k\313Z4\230\276\277\234k\313Z4\230\276\277\200\037mt\036\223\276\277\234k\313Z4\230\276\277\346v\345\366\376\366\347?\234k\313Z4\230\276\277\234k\313Z4\230\276\277\234k\313Z4\230\276\277\234k\313Z4\230\276\277d\266N\243t\224\276\277\234k\313Z4\230\276\277\234k\313Z4\230\276\277\234k\313Z4\230\276\277\234k\313Z4\230\276\277\234k\313Z4\230\276\277\234k\313Z4\230\276\277\234k\313Z4\230\276\277\234k\313Z4\230\276\277\234k\313Z4\230\276\277\367*z\342\360\226\276\277\234k\313Z4\230\276\277\234k\313Z4\230\276\277\234k\313Z4\230\276\277\234k\313Z4\230\276\277\234k\313Z4\230\276\277\303\\X\247\r\226\276\277\202\006\310\360\372\225\276\277\234k\313Z4\230\276\277\300\274[\334\032p\276\277\234k\313Z4\230\276\277\234k\313Z4\230\276\277\234k\313Z4\230\276\277x\020\216~\315\225\276\277\234k\313Z4\230\276\277\234k\313Z4\230\276\277\234k\313Z4\230\276\277\234k\313Z4\230\276\277\323u\206\212\334Y\274\277\000\356\201\334\277Z\275\277\234k\313Z4\230\276\277\234k\313Z4\230\276\277\234k\313Z4\230\276\277_r\227\345\334\224\276\277\234k\313Z4\230\276\277\276\366\333\261Bc\276\277\234k\313Z4\230\276\277\234k\313Z4\230\276\277\017\014\264\305Zx\276\277\234k\313Z4\230\276\277\306@\317\306\371T\004@\234k\313Z4\230\276\277\234k\313Z4\230\276\277\234k\313Z4\230\276\277\026\245\221\366\314{\276\277B\351*i\237\224\276\277\234k\313Z4\230\276\277\201\266I\213\001\203\276\277h\200\030\370\0052\275\277\036\375M\336H\026\360?m\300\313\014h\017\276\277\337D;\262\347{\276\277\017\346I\262V+\271\277\234k\313Z4\230\276\277\010\001\223\367\273.\276\277\325\357\212\261\035\226\276\277\234k\313Z4\230\276\277\234k\313Z4\230\276\277\234k\313Z4\230\276\277\234k\313Z4\230\276\277\234k\313Z4\230\276\277\317h\210\350\r\364p?\234k\313Z4\230\276\277\216UC=s\226\276\277\234k\313Z4\230\276\277\305H[1\313\211\276\277\234k\313Z4\230\276\277\336\305vx\267\224\276\277\234k\313Z4\230\276\277\234k\313Z4\230\276\277\017\232p(.2\276\277\234k\313Z4\230\276\277\234k\313Z4\230\276\277\234k\313Z4\230\276\277\234a\036\000\264m\276\277\234k\313Z4\230\276\277\367\234`@_\224\276\277\234k\313Z4\230\276\277\234k\313Z4\230\276\277\234k\313Z4\230\276\277\370g\210x\030\222\276\277\234k\313Z4\230\276\277\027^\253^)A\263\277.i\256\257\344\032\276\277\234k\313Z4\230\276\277p\247\203\310\002[\276\277\234k\313Z4\230\276\277\234k\313Z4\230\276\277\234k\313Z4\230\276\277\234k\313Z4\230\276\277_\377\2008\266\237\241\277\231\204\023\237\231L\276\277?\032\213\212\267Q\276\277\234k\313Z4\230\276\277\234k\313Z4\230\276\277\310K\351\361\312\221\276\277\234k\313Z4\230\276\277jv<\332<s\276\277\2515\360yl\203\276\277\234k\313Z4\230\276\277\"\007}\022\027\224\276\277\234k\313Z4\230\276\277\234k\313Z4\230\276\277-\231\201*\214\343\275\277\234k\313Z4\230\276\277\234k\313Z4\230\276\277\234k\313Z4\230\276\277\234k\313Z4\230\276\277\\\375\200M\000\270\273\277\234k\313Z4\230\276\277\365|\022\225\313\222\276\277\204C\326\206\"\221\276\277\3554@p\303\226\276\277\234k\313Z4\230\276\277\214x\255 %x\274\277\234k\313Z4\230\276\277\234k\313Z4\230\276\277\234k\313Z4\230\276\277\234k\313Z4\230\276\277\234k\313Z4\230\276\277\234k\313Z4\230\276\277\375\006\233]\334z\276\277\234k\313Z4\230\276\277\230\337\313\005\204~\276\277\255\010N\200\006z\276\277\234k\313Z4\230\276\277\234k\313Z4\230\276\277\234k\313Z4\230\276\277\234k\313Z4\230\276\277\234k\313Z4\230\276\277\234k\313Z4\230\276\277\021\375vb\007\027\274\277\234k\313Z4\230\276\277\004\335<\231Dg\026@\234k\313Z4\230\276\277\234k\313Z4\230\276\277\234k\313Z4\230\276\277\031\237\\B{\226\276\277\234k\313Z4\230\276\277\342\n\273\334\277\210\276\277\234k\313Z4\230\276\277\234k\313Z4\230\276\277\234k\313Z4\230\276\277\234k\313Z4\230\276\277\234k\313Z4\230\276\277\234k\313Z4\230\276\277H~<\301\320z!@\234k\313Z4\230\276\277\234k\313Z4\230\276\277\262\333\253\206\240p\276\277\237\2174m8\226\276\277\234k\313Z4\230\276\277\226H\357\356\240\216\276\277\261k|\316\2445\245?\336\305vx\267\224\276\277\234k\313Z4\230\276\277\234k\313Z4\230\276\277\234k\313Z4\230\276\277\234k\313Z4\230\276\277\234k\313Z4\230\276\277\234k\313Z4\230\276\277\036\343\023\000\023\226\276\277U\321\311g\r\007\276\277\234k\313Z4\230\276\277\234k\313Z4\230\276\277\234k\313Z4\230\276\277\234k\313Z4\230\276\277\310U\306Vg0\272\277\234k\313Z4\230\276\277\234k\313Z4\230\276\277\002!\264T\036\227\276\277\234k\313Z4\230\276\277\234k\313Z4\230\276\277\234k\313Z4\230\276\277!uH\t\025\225\276\277\234k\313Z4\230\276\277~l\351\033\037{\275\277]\254\027\273\004\210\276\277P\330EALr\276\277\234k\313Z4\230\276\277\0101frc\367\275\277K[\341\325\200\342\275\277\234k\313Z4\230\276\277\234k\313Z4\230\276\277SM\272_\272w\276\277\240\217}\3035\244\264\277g\3677W\273\356+@\234k\313Z4\230\276\277\234k\313Z4\230\276\277\262M\036\347\025K\275\277\234k\313Z4\230\276\277\'\373\265j\265\200\276\277\234k\313Z4\230\276\277\2567\361\223\373\226\276\277\032\334j\330\242\221\276\277\210.Ljo\220\276\277\213\304\233\332\341\213\276\277\234k\313Z4\230\276\277\234k\313Z4\230\276\277\234k\313Z4\230\276\277\234k\313Z4\230\276\277\206ho\000\331:\276\277\234k\313Z4\230\276\277\234k\313Z4\230\276\277I\243\343\353\025\216\276\277\234k\313Z4\230\276\2774\325L3\033h\373?\234k\313Z4\230\276\277\234k\313Z4\230\276\277\002!\264T\036\227\276\277\260\\\212\r\262@\276\277\234k\313Z4\230\276\277\234k\313Z4\230\276\277?\202!\315cm\276\277\226\235\025b{\222\276\277\234k\313Z4\230\276\277\2328\271\335:\263\235\277\234k\313Z4\230\276\277\201NoUx\270\270\277\234k\313Z4\230\276\277\327\272\325\271\265\212\225\277S\2615;\366\226\276\277\245\021\207gh\205\276\277\306@\317\306\371T\004@\234k\313Z4\230\276\277\234k\313Z4\230\276\277\234k\313Z4\230\276\277\234k\313Z4\230\276\277\234k\313Z4\230\276\277rm\003\363\332g\276\277\234k\313Z4\230\276\277\234k\313Z4\230\276\277\234k\313Z4\230\276\277\000\001f\251\212\225\276\277\234k\313Z4\230\276\277\300\312#\236\013\227\276\277\234k\313Z4\230\276\277k\016\357\355\215e\264\277\234k\313Z4\230\276\277<uC\361\241\203\276\277\234k\313Z4\230\276\277rm\003\363\332g\276\277\234k\313Z4\230\276\277(\034L\202\t\350\273\277\234k\313Z4\230\276\277\234k\313Z4\230\276\277\234k\313Z4\230\276\277\'L\301v\037\210\276\277\234k\313Z4\230\276\277$\'\313\275\252\225\276\277\234k\313Z4\230\276\277)\3015\225\215\215\276\277g\340\276\355T\303\274\277@\255 L[P\266\277\234k\313Z4\230\276\277\0177\310t\346u\275\277\234k\313Z4\230\276\277\234k\313Z4\230\276\277J?h\020\332n\276\277\234k\313Z4\230\276\277Z\244\'n\247\375\275\277\211J\177\256\222\225\276\277\352R\215\001\310\204\276\277\316\001\207\r\321\216\276\277\362\\\304\3517\221\276\277\234k\313Z4\230\276\2775(\311\276\270\226\276\277\234k\313Z4\230\276\277y\006\341#Mk\276\277\234k\313Z4\230\276\277\234k\313Z4\230\276\277\017\002d\252\230\226\276\277\234k\313Z4\230\276\277H-\342&7\224\276\277\234k\313Z4\230\276\277\234k\313Z4\230\276\277\234k\313Z4\230\276\277\234k\313Z4\230\276\277\334\372N@\376\226\276\277 }d\\;\310\251\277\234k\313Z4\230\276\277)\331Mr@\226\276\277\234k\313Z4\230\276\277\234k\313Z4\230\276\277\346\233\250\300\324\001\276\277\234k\313Z4\230\276\277\234k\313Z4\230\276\277-\213\320&\326\226\276\277`G\262\371\231+\276\277\234k\313Z4\230\276\277\234k\313Z4\230\276\277\234k\313Z4\230\276\277\n\243\035\212[t+@\234k\313Z4\230\276\277\234k\313Z4\230\276\277\325-\177&\347\260~\277n\341`\335\350\226\276\277\305i\302\205\326\\\275\277\234k\313Z4\230\276\277\234k\313Z4\230\276\277\234k\313Z4\230\276\277r\314\326\3005\226\276\277\004\335)\345\2670\276\277\234k\313Z4\230\276\277\323\273U\037\2516\245\277\234k\313Z4\230\276\277\317V\255\200\253\222\276\277\031\237\\B{\226\276\277\234k\313Z4\230\276\277\234k\313Z4\230\276\277\234k\313Z4\230\276\277\222\320d\245\200\263\375?\234k\313Z4\230\276\277\234k\313Z4\230\276\277\235\005J3\322~\253\277\234k\313Z4\230\276\277\234k\313Z4\230\276\277\227\362;\325U\226\276\277\036\216\355\2148\222\276\277\234k\313Z4\230\276\277\375\272}\340\326\322\275\277\234k\313Z4\230\276\277\234k\313Z4\230\276\277\234k\313Z4\230\276\277\234k\313Z4\230\276\277\177\372\277\021\247\256\264\277E\233\255\0355\225\276\277\234k\313Z4\230\276\277\234k\313Z4\230\276\277\227\362;\325U\226\276\277\234k\313Z4\230\276\277\356lI\271KX\276\277\234k\313Z4\230\276\277\234k\313Z4\230\276\277\234k\313Z4\230\276\277\307_D\356\236\306\273\277mym[~2\276\277\234k\313Z4\230\276\277\317\005\242tA\213\276\277\234k\313Z4\230\276\277\234k\313Z4\230\276\277\234k\313Z4\230\276\277\234k\313Z4\230\276\277\234k\313Z4\230\276\277\234k\313Z4\230\276\277\003\373\006\225\020{\260\277\234k\313Z4\230\276\277\234k\313Z4\230\276\277c$\032\232r\225\276\277\234k\313Z4\230\276\277\234k\313Z4\230\276\277\234k\313Z4\230\276\277[\350\211\275\222\334\005@\344\227G\330\340\226\276\277RaC\330\003a\275\277\344\227G\330\340\226\276\277\034\344e\351\220\215\274?\234k\313Z4\230\276\277\234k\313Z4\230\276\277\234k\313Z4\230\276\277\360\324\016\277@\010\275\277\234k\313Z4\230\276\277\234k\313Z4\230\276\277\234k\313Z4\230\276\277\305i\302\205\326\\\275\277\234k\313Z4\230\276\277\234k\313Z4\230\276\277\234k\313Z4\230\276\277\003\354\333\214\327\224\276\277\337\022\2576U\353\202?\234k\313Z4\230\276\277\234k\313Z4\230\276\277\345^&-\264\343\274\277"
      }
    }
  }
}
node {
  name: "tensors/component_5"
  op: "Const"
  device: "/device:CPU:0"
  attr {
    key: "_output_shapes"
    value {
      list {
        shape {
          dim {
            size: 750
          }
        }
      }
    }
  }
  attr {
    key: "dtype"
    value {
      type: DT_DOUBLE
    }
  }
  attr {
    key: "value"
    value {
      tensor {
        dtype: DT_DOUBLE
        tensor_shape {
          dim {
            size: 750
          }
        }
