node {
  name: "global_step/Initializer/zeros"
  op: "Const"
  attr {
    key: "_class"
    value {
      list {
        s: "loc:@global_step"
      }
    }
  }
  attr {
    key: "_output_shapes"
    value {
      list {
        shape {
        }
      }
    }
  }
  attr {
    key: "dtype"
    value {
      type: DT_INT64
    }
  }
  attr {
    key: "value"
    value {
      tensor {
        dtype: DT_INT64
        tensor_shape {
        }
        int64_val: 0
      }
    }
  }
}
node {
  name: "global_step"
  op: "VariableV2"
  attr {
    key: "_class"
    value {
      list {
        s: "loc:@global_step"
      }
    }
  }
  attr {
    key: "_output_shapes"
    value {
      list {
        shape {
        }
      }
    }
  }
  attr {
    key: "container"
    value {
      s: ""
    }
  }
  attr {
    key: "dtype"
    value {
      type: DT_INT64
    }
  }
  attr {
    key: "shape"
    value {
      shape {
      }
    }
  }
  attr {
    key: "shared_name"
    value {
      s: ""
    }
  }
}
node {
  name: "global_step/Assign"
  op: "Assign"
  input: "global_step"
  input: "global_step/Initializer/zeros"
  attr {
    key: "T"
    value {
      type: DT_INT64
    }
  }
  attr {
    key: "_class"
    value {
      list {
        s: "loc:@global_step"
      }
    }
  }
  attr {
    key: "_output_shapes"
    value {
      list {
        shape {
        }
      }
    }
  }
  attr {
    key: "use_locking"
    value {
      b: true
    }
  }
  attr {
    key: "validate_shape"
    value {
      b: true
    }
  }
}
node {
  name: "global_step/read"
  op: "Identity"
  input: "global_step"
  attr {
    key: "T"
    value {
      type: DT_INT64
    }
  }
  attr {
    key: "_class"
    value {
      list {
        s: "loc:@global_step"
      }
    }
  }
  attr {
    key: "_output_shapes"
    value {
      list {
        shape {
        }
      }
    }
  }
}
node {
  name: "global_step/IsVariableInitialized"
  op: "IsVariableInitialized"
  input: "global_step"
  attr {
    key: "_class"
    value {
      list {
        s: "loc:@global_step"
      }
    }
  }
  attr {
    key: "_output_shapes"
    value {
      list {
        shape {
        }
      }
    }
  }
  attr {
    key: "dtype"
    value {
      type: DT_INT64
    }
  }
}
node {
  name: "global_step/cond/Switch"
  op: "Switch"
  input: "global_step/IsVariableInitialized"
  input: "global_step/IsVariableInitialized"
  attr {
    key: "T"
    value {
      type: DT_BOOL
    }
  }
  attr {
    key: "_output_shapes"
    value {
      list {
        shape {
        }
        shape {
        }
      }
    }
  }
}
node {
  name: "global_step/cond/switch_t"
  op: "Identity"
  input: "global_step/cond/Switch:1"
  attr {
    key: "T"
    value {
      type: DT_BOOL
    }
  }
  attr {
    key: "_output_shapes"
    value {
      list {
        shape {
        }
      }
    }
  }
}
node {
  name: "global_step/cond/switch_f"
  op: "Identity"
  input: "global_step/cond/Switch"
  attr {
    key: "T"
    value {
      type: DT_BOOL
    }
  }
  attr {
    key: "_output_shapes"
    value {
      list {
        shape {
        }
      }
    }
  }
}
node {
  name: "global_step/cond/pred_id"
  op: "Identity"
  input: "global_step/IsVariableInitialized"
  attr {
    key: "T"
    value {
      type: DT_BOOL
    }
  }
  attr {
    key: "_output_shapes"
    value {
      list {
        shape {
        }
      }
    }
  }
}
node {
  name: "global_step/cond/read"
  op: "Identity"
  input: "global_step/cond/read/Switch:1"
  attr {
    key: "T"
    value {
      type: DT_INT64
    }
  }
  attr {
    key: "_output_shapes"
    value {
      list {
        shape {
        }
      }
    }
  }
}
node {
  name: "global_step/cond/read/Switch"
  op: "RefSwitch"
  input: "global_step"
  input: "global_step/cond/pred_id"
  attr {
    key: "T"
    value {
      type: DT_INT64
    }
  }
  attr {
    key: "_class"
    value {
      list {
        s: "loc:@global_step"
      }
    }
  }
  attr {
    key: "_output_shapes"
    value {
      list {
        shape {
        }
        shape {
        }
      }
    }
  }
}
node {
  name: "global_step/cond/Switch_1"
  op: "Switch"
  input: "global_step/Initializer/zeros"
  input: "global_step/cond/pred_id"
  attr {
    key: "T"
    value {
      type: DT_INT64
    }
  }
  attr {
    key: "_class"
    value {
      list {
        s: "loc:@global_step"
      }
    }
  }
  attr {
    key: "_output_shapes"
    value {
      list {
        shape {
        }
        shape {
        }
      }
    }
  }
}
node {
  name: "global_step/cond/Merge"
  op: "Merge"
  input: "global_step/cond/Switch_1"
  input: "global_step/cond/read"
  attr {
    key: "N"
    value {
      i: 2
    }
  }
  attr {
    key: "T"
    value {
      type: DT_INT64
    }
  }
  attr {
    key: "_output_shapes"
    value {
      list {
        shape {
        }
        shape {
        }
      }
    }
  }
}
node {
  name: "global_step/add/y"
  op: "Const"
  attr {
    key: "_output_shapes"
    value {
      list {
        shape {
        }
      }
    }
  }
  attr {
    key: "dtype"
    value {
      type: DT_INT64
    }
  }
  attr {
    key: "value"
    value {
      tensor {
        dtype: DT_INT64
        tensor_shape {
        }
        int64_val: 0
      }
    }
  }
}
node {
  name: "global_step/add"
  op: "Add"
  input: "global_step/cond/Merge"
  input: "global_step/add/y"
  attr {
    key: "T"
    value {
      type: DT_INT64
    }
  }
  attr {
    key: "_output_shapes"
    value {
      list {
        shape {
        }
      }
    }
  }
}
node {
  name: "tensors/component_0"
  op: "Const"
  device: "/device:CPU:0"
  attr {
    key: "_output_shapes"
    value {
      list {
        shape {
          dim {
            size: 750
          }
        }
      }
    }
  }
  attr {
    key: "dtype"
    value {
      type: DT_DOUBLE
    }
  }
  attr {
    key: "value"
    value {
      tensor {
        dtype: DT_DOUBLE
        tensor_shape {
          dim {
            size: 750
          }
        }
        tensor_content: "\363\024NEB\236\351\277\016[\260\266\3412\332?\270\356\317\344\253\371\326\2778(\301\216\335\255\334?\224\222\235\257k\031\327\277H\276\241R\361\313\347\277s\237\325R6!\366?\341\342\257R/7\344\277\207Jq\246>\r\301?\320\247\332\220\224\240\277\277%\003g\204l\232\326\277\233\256J1=3\326\277\026\233\335-\362\305\334\277B\023\275\344\003\300\333\277+k\370\377\254\306c?\317L\256\341z\027\342\2774\203\313\340\"\322\210\277\242\342\206\360s\233\242\277\364Szhk\024\002@\373b\242\303\303(\352\277q@B\362\205\t\345\277\345\246\260\364\036m\271\277\'\220\374\274,\016\352\277\3100\001`\251\375\342\277\210\213t\201\026?\361?\221\363}.\356\301\322?\315\241\337\002e\230\345\277\317\204\347\3447\246\350\277\325^\204\353\361`\323\277\266?\226T\321^\352\277\203\363&\374%D\352\277-\277\265_\217r\336\277N\'\227\362gz\326?\241\246w\275\317\323\321?\201\031\326\266%\357\317?\244\025h\353u\212\332\277\370\337\270\356D!\333\2778(\301\216\335\255\334?\220\014\217D\'w\264\277\244,\206(\024v\264?I\374\277\225\321h\352\277\345\021~z\323r\322\277>Xp\213W\240\360?\304\n\223\365T\240\345\277\"\306}<\2268\263?\355o;w\274\353\345\277\037\211($a!\343\277CU\254\262z\035\311\277\322\203\204\000\212\311\210?>Xp\213W\240\360?\010\"\352iB%\347\277\003\224\023\251Y\230\347\2771\345#\312\343\317\333\277\002\345\ne\353?\t@\310Er\212Wc\352\277{1\374\007O\024\007@\276\337\361\312\240g\352\277\254$\233R\303w\351\277\241\361\306H\226\017\340\277\315\241\337\002e\230\345\277%\003g\204l\232\326\277>t\235c\206h\327?\243\016\225\\@S\351\277\262Db1\311\337\347\277TL\031j\035\254\366?I\212\247@A\n\252?D\206\350\245\221\353\370?\207Jq\246>\r\301?\'\335\016\251\357\311\350\277\246Ss\216\232r\351\277\371\270\244\276\333h\352\277\255\250IG\301f\352\277/b\233;`\005\347?\275\036\025\307Z\'\342\277\343fE\201\362.\375?Vss\307\0205\321?>HR;\001=\352\277L|\247f\261\371\342\277\242\177\311\324\350\022\316?H*$\006\272I\351\277H\333\272\035\277\277\333?f?~l+\374\261\277R\355\205\tm\224\345\277/t[\266\377\301\350\277/\270\2551 =\360?]\231\201\365\377\n\352\277hA\215\216\341\341\342\277\353\331{\263\216r\322?\314\257\227\310o\026\245\277\242\342\206\360s\233\242\277\235\374\360L\357J\352\277\246\037?c\320Z\350\277\276\t<\336T\372\351\277+\222?\307\313\337\362?\023\347\303\026\316?\351\277\300\370G\263I\035\364?w\002W\263ac\352\277\346\341N\'\374\321\326\277\277\2425\275\211\345\352?\034c\272\271\014\304\345\277\003\362\244\207\223\367\333\277s#J\324X\027\350\277\016\020\365\306VE\352\277\312\253\240\353\347\333\343\277\373\374\306\233I\240\347\277\223v\205`\264P\226?\336c\326a\230\177\001@\342\262\200\377W\226\350\277\220\014\217D\'w\264\277E\370\221\216K\260\341\277\255\356\243\306\374\337\307\277\215\210\260\2509\274\311\277\332.k\'\362L\347\277q@B\362\205\t\345\277\211\247\241YE\007\330?\204\337\243 \212\007\330\277\366?\255z(\236\371?U\023\364s\301\361\342\277\3368\315f\270\343\364?\216\321\336i\252\002\352\277\337g\3339\213\366\006@\317\371\226\000\020\361\266?\227\027\024\263\004\310\345\277\331\263\313\233\263n\346\277W\310Y1\327\005\352\277\314*EO\0311\352\277\224\222\235\257k\031\327\277\231\373\222O\342\307\345?\272\254k\336\240b\371??\'UE\341\323\347\277\006\302\240H\325\272\351\277\232p\247\272 e\352\277\266:\241HF\234\351\277\305Q\311\310c\004\t@\0224\326\002\221\373\347\277TL\031j\035\254\366?\332\022_\374c\206\367?\372\224^E\265p\345\277/\014\363_k\222\346\277(u\307\377\373\233\335?7\346\321\300fP\317?\326\n\212\353\267\226\351\277\r+`\266i\220\347\277\242\177\311\324\350\022\316?\\/\241\365\222\013\342\277e*\034\364\336Y\002@\306\355\232\327\'\256\350\277/b\233;`\005\347?-V\326N\360P\317\277\305\244\242H\231@\351\277\305\253\212\\\020O\324\277\201\031\326\266%\357\317?\364\351y\327\307d\331\2775E\230\377i\236\342\277I|\262\204zn\352? \277\324\370\003\t\352\277\014\026\234R\245:\351\277\024w<\213\022K\342\277\311w73\270a\006@\254\037\340\271\023\256\367?\037\257\241\254~\363\347?\317\034\177\216\243v\346\277\326\376%EC\037\334\277P\n~\'\232\206\342\277\242\342\206\360s\233\242\277\001G\326\250}x\337\277\030\271\327\315\225p\366?\274\207\364\327\371H\341?\364Szhk\024\002@\262Db1\311\337\347\277\220c\317\207\307\335\350\277\312\253\240\353\347\333\343\277,\301M\232\236\362\004@\215\261\216`wd\305?\345\021~z\323r\322\277\001G\326\250}x\337\277|m\204\365\245S\351\277\376\272\314\257\t\316\342\277\220\n\'\373ii\352\277\241\275]\220f\225\002@D\265+\006\312`\347\277\014\313\026\225\374%\352\277\022\314m\254\374\313\345\277\241)\000LS\236\346\277!G\371\252\273\354\001@!\325\017\027\323P\345?\217\211H\020\345\257\355?CU\254\262z\035\311\277H\333\272\035\277\277\333?0E\202p\222\021\323\277\360\032\325\310l\010\006@\347S\216\365\352\321\346\277\220\373f13\256\346\277\225\030\000\246\243\363\362?\306\353\r\251\r\007\351\277\352\021\224\t\253\377\341\277\273sF\350D\250\345\277\212\025v\030x \240\277f\306\355\002\243\003\342\277$\224\270\260\007\347\273?\374\005\'Y\231~\330\277\246\267\326\014<+\346\277\t\235\211\365\200\003\350\277hy\306\221\236p\351\277\267s0Ym\033\326\277\237\377w\204\312\362\351\277>J\337i\033\344\351\277\023\247\214\213\212\355\324?\0333\213f5#\352\277\210\253P\3671\032\n@\372ZXz\203\377\333\277\312{q\230\020;\350\277\354$\313>U\256\340\277L\344\017\275E)\345\277\007\352\260f\205\226\340\277 \004\310\257\237\377\343\277N\307\027\237\0307\350\277P@\250\010\241/\270\277\003\224\023\251Y\230\347\277\000\316\003\345\263|\341\277\264\025\252\230\3740\351?\014\031\301\350j\325\314?\351\000\325}\331 \351\277\263t\2621A\202\332?\241<B\237\306\301\354?\242\342\206\360s\233\242\277\354zs\032J!\341?\376+\225\303\355\333\325\277\320\247\332\220\224\240\277\277Vss\307\0205\321?\300\254\353\207C\264\341\277-\277\265_\217r\336\277Wr\207\324q\t\364?\037\005\264\242>+\361?g-\213\0239\t\376?\367\007\377>\327\325\342?\243\207\206\014\304\210\303\277I\374\277\225\321h\352\277\013x\207\'n#\340\277\024\337\244\341\246z\344\277\317\371\226\000\020\361\266?\345\010\036\275\203\224\341\277x\235\2104d\220\333\277Wz\221\204W\367\376?\342\"\322X1\262\316\277CU\254\262z\035\311\277\023\2476Q\204\211\001@\313\222x\030H\376\017@\203\004\246\356\234\347\337\277/b\233;`\005\347?IV9\374\\\234\345\277b\241\366RY\230\341?\007\006\336>\264^\367?O\310\216Y#)\345?\272`\017\263\232\371\346\277I\212\247@A\n\252?m\032\324\2071\254\347\277;\036\337\370\271h\347\277\267\345o\'\\\033\346\277\214\233\362\373\254\337\337\277\222](\374x\350\351\277?\025\225\312A\027\346?*k\345i\330V\350\277\263\365\302\026\354|\351\277\317L\256\341z\027\342\277\252\337\274 iX\351\277\230\357\315br\023\316\277=tG)\200\004\004@\230\357\315br\023\316\277\335T\331\221F\252\344\277\314*EO\0311\352\277\303\367[\300\252\361\346\277\320\247\332\220\224\240\277\277\370!\250\274\273~\310\277\020#,\374\000\364\350\277A0\326\257\321\263\357?\342\262\200\377W\226\350\277K9A\336/\252\350\277f?~l+\374\261\277\037Y\371\320\211\200\347\277\331\314\224\327j;\352\277\247\3006\312\213\t\327\277{\272\226\341h\017\350\277tI\303\\v\351\354?gE]\331n\366\013@+\222?\307\313\337\362?\236\313X\336A\262\342\277\326\240\224f\t\300\347\277\036\r\276R$\031\374?\246\313\3714\205\005\362?X\216\264\254\240\321\332?%\222\236p\210\214\343\277@\370{\377s#\322\277\317\204\347\3447\246\350\277\257\357;.\250\323\353?\004,\253R\305h\345\277\223v\205`\264P\226?\323B\355\370\367\323\343\277\264\025\252\230\3740\351?\322}u\234\375\253\301?$\224\270\260\007\347\273?\023d\005Vh\234\343\277l\005\020$mV\351\277\203!\223\356\000e\305\277Y/\254\023\\\200\351?l\010\024\r\222\357\345?b\240\177\230N\246\344\277\2230\322k\331\340\000@\324\377*5uk\352\277\215\210\260\2509\274\311\277oJ\356U\307u\351\277x\272u4\310\r\301\277n\215\212\020+\236\324?s#J\324X\027\350\277\356\327\243\315P\033\350\277yo&\251\001\322\342\277\321\307Mm\271\365\342\277\374-m\251+3\340?\257a%\302\220o\010@\365\304w\t\265\204\321\277\223%\245\346\024 \r@f\27478\3514\353?\365f\261\235\025\303\000@\267\345o\'\\\033\346\277\017\374\247\035\235\341\350?\255\356\243\306\374\337\307\277@\370{\377s#\322\277\265\370\220\315.=\325\277\205\031\252\353\273x\341\277\022\314m\254\374\313\345\277\231Z\233\350&\031\327?\004\340o\324_\001\372?\271a\206m\245\353\343?\202?\230\254m\204\366?\317\204\347\3447\246\350\277\236$\311\3608\000\257?m\"\275\212v\230\313\277u\247I\035\347\323\331\277\220<\000\362?\033\336\277\211H\231\300\000\266\346?d\377\022\371\376\275\365?;\367\017c2\246\334\277\226\005\311p\371D\364?`\252+\374\217\022\351\277<\027m\260\177n\300?\017\374\247\035\235\341\350?Fbr\216\270\257\351\277\376H\256\216\273\317\351?c\273\237\320=A\307\277d\033\037$\215\204\345\277B:\214z\213\202\346\277\334X\251\334\323\276\r@\001I\243p\362Z\342\277y_uP\030\373\261?j\305\214\327o\236\324\277\243\207\206\014\304\210\303\277g\257\207\353\202/\352\277\256J\351\264\363I\004@hA\256;\202\343\331?\245\332\311\270\230%\275\277a)\345\344\002?\351\277v\344\332(_\002\257\277\376H\256\216\273\317\351?H\332\316* \224\376?\306K,\266a\r\335\277*k\345i\330V\350\277\367\006\210\204\314\343\345\2771\210\t\246\264b\344?\022*\377\2126+\332\2771\345#\312\343\317\333\277E0\313\221\010?\350\277tI\303\\v\351\354?>DMc\016\306\344\277\236$\311\3608\000\257?\3218\026\201\235\003\326\277{\r\271\340\234\252\272\277\325^\204\353\361`\323\277\325^\204\353\361`\323\277\232\325\031\307\304\365\340\277\344\370ld\232\275\260?\243\270\302\377\332V\363?5}\321\002\'-\351\277\235\210\362U\300b\350\277\272\327t\331\200\376\005@\243j\231\014`\013\336\2779\311\270\365\230\\\353?\037\005\264\242>+\361?m\032\324\2071\254\347\277\253\221s\023\366\345\320\277\302\013\177\350\363\313\362?\025G\r8;\252\346\277\245\n{\377\013\005\352\277\303\000\274}\372\317\327\277{\202]\336\253\200\341\277\262\027\202~:\210\303?\345\021~z\323r\322\277\253X\344\002\317f\344\277\317>W3\032T\352\277LLx\023\332X\347\277\022!~ FK\302\277\267;\030\003Q\216\346?\t5!\237\354\323\345\277\327\354\360\221\017)\372?c\244\204pA\035\352\277\253\236@\325@U\352\277\312\3549\254\364H\333\277\257\266\213p\340R\350\2775\035\247;$O\352\277\2472v\230z\t\347\277\374\213\211O\321X\364?Y\022\223H\216\214\325\277\267}\007\321\307\353\343\277O\240H\t\221t\335\277\026\\\207 \t_\221\277\014\026\234R\245:\351\277\345\006Q\365\016\262\336\277\307\000\322\014\322\\\347\277\3218\026\201\235\003\326\277\265\002hE\211\r\343\277\304\036\266\035\236z\361?\244\347\320\322\255i\005@3\232\311 T\037\346\277\241)\000LS\236\346\277\222\334\341\344\353\024\352\277\231\220\312\200\370J\233\277\020\242\345\344s \351\277\243\207\206\014\304\210\303\2778\013\250\303\017\272\350\277:A\322\244\026c\276\277iT\304\303\213\220\341\277\307\000\322\014\322\\\347\277\363\340\031\032x\206\350\277\371\031\277\271v\222\344\277\021\037\022\237\314\245\351\277\331\0334\362G\236\350\277\247\372<\225\275z\340\277^\332\220\201I\214\325?\277\321\355UV\224\351\277\344\250\212\211o\360\r@#[\257.7i\352\277\247\210\036to|\347?\002\211\305v\364\325\314\277L\344\017\275E)\345\277Y9b\336\025O\340\277\277\2425\275\211\345\352?\367\006\210\204\314\343\345\277G\373\305\214\020h\352\277|m\204\365\245S\351\277zx\206fQ\260\323\277\023\2002.\227d\372?}\223\307K\341L\335\2777\346\321\300fP\317?\222\347\316\320U\232\332\277\247\372<\225\275z\340\277R9\3424s\375\367?\026\246\240\230\353\301\367?\013@o\321Q\226\320?V_P\237\307Z\365?\355o;w\274\353\345\277\360\352\332\002\373\311\346\277\230*K\350\256v\344\277x\272u4\310\r\301\277x\211\332D\257\357\317\277\377\321\323/A\221\n@>HR;\001=\352\277!J\271xg\014\252\277\363\031?\020\324@\374?\262Db1\311\337\347\277\242\342\206\360s\233\242\277\356\364\274\230\036\017\334?\216\030_O`\240\343\277b\010\350\356\342\325\346\277y^g\0350\363\351\277\026\\\207 \t_\221\277=\242\336AH%\331\277\201\303\014.\220z\350\277w\"\351\250%\262\332\277\024w<\213\022K\342\277\031\030J\201\245\206\340\277D\3142\206\001$\017@71\000\237\214\212\326\277\017G\215\216\230X\376?`\365{,\323\304\013@\031P\203\204b\025\347\277\244,\206(\024v\264?/\033\263)\242M\352\277v\232\317\002c\247\351\277\255\356\243\306\374\337\307\277\322\3078\350w\036\351\277\036\275\226hE\217\247?\306\355\232\327\'\256\350\2778\013\250\303\017\272\350\277\253\360{\254:7\342\277|\352\3054@\260\343\277Y\022\223H\216\214\325\277\001\272\001j\013\244\374?{\272\226\341h\017\350\277\302\023\211\230\331\271\375?\335T\331\221F\252\344\277\236\371\272i\244p\333\277\376\236\300\204{\007\363?\273sF\350D\250\345\277c\365\321f\331(\337?\nHX\324\226\202\344\277\000\262\367\271%\266\361?Gaq\237\352\321\340?\013\260\300*+\262\346\277\363$l\225\230\001\360?\014\225U;\030g\351\277\017\021\247\020\254F\233?\273sF\350D\250\345\277\231>n\020\370P\360?\304\310\243\'\336B\350?\024w<\213\022K\342\277d`\237\354\215.\270?W^d\254(/\350\277\204\337\243 \212\007\330\277\026\251\316\002\201\344\351\277\265\002hE\211\r\343\277!\325\017\027\323P\345?\306!\317\002\362\305\351\277\227\325$\345\215j\350?7\346\321\300fP\317?mK\233B\264@\307?5V\002m\237j\336\277<E9V\255\361\361?H&\n\251\205\373\351\277\237Ud\340Q\036\240?\332.k\'\362L\347\277\216\367,\314\332\324\004@x\007\211\305\007@\004@m\2154\326$:\001@,\207\022B\007\037\377?\344f\257\233\275\363\325\277\007?\315\002.@\352\277\241\275]\220f\225\002@1\267\301>\201\021\343\277R\355\205\tm\224\345\277?`z;=\216\373?\020\326\031\020>8\352\277\313\345\274\362\2536\314?\306\353\r\251\r\007\351\277\n\031\025t^\r\366?\005xq\230\226\226\320\277f\27478\3514\353?\243\207\206\014\304\210\303\277\033\nO3\312i\000@\362\0215`\356R\361?\376H\256\216\273\317\351?\202n\333\014\246\371\344\277\314\257\227\310o\026\245\277I\247P\300\022\317\351\277^\252@\201\321\351\342\277\320\330u\200\255\276\260\277D\265+\006\312`\347\277c\365\321f\331(\337?\034c\272\271\014\304\345\277\340\246\313\004SQ\352\277\366\213\350\370\215\005\345\277\322\330\267\332\356\301\336\277\332\025\215f\371\250\351\277RU\356_\001\304\347\277IV9\374\\\234\345\277\244,\206(\024v\264?)\327g\035\241\324\351\277\204\271KE\r7\352\277\255\356\243\306\374\337\307\277C}\362\002\r\322\340\277\212\362\360\344\013C\346\277\323\332\245O\004\246\330?[\264\314\334\356\312\004@\353G@\336M\347\350\277a^o\0357G\320\277,~\034\237\202\005\347\277o6kz+9\327\277\212\025v\030x \240\277\017R\272\023]\031\362?K7\264\257\025\003\351\277\230*K\350\256v\344\277G\013\311\303\365^\340\277y\364\247\312c\365\330?`\336_\'Z*\352\277\177\340\004L\275l\345\277\326h[cL1\341\277\245\n{\377\013\005\352\277cg\"\202Mh\352\277\343\215~1E\266\340\277Gs1\032\212\216\342\277\334A\242\\\234\373\345\277\321/\266\303M%\345\277\260\311\302\245\212\001\347\277*3\254f\033\310\341\277\002\345\ne\353?\t@\354\330\217\300\357F\365?\206x=Ll\220\362?\305{[\t9\256\330\277CU\254\262z\035\311\277B\261\361\240q\207\005@J\377:\023\3768\337\277f\27478\3514\353?\230\261#\006Ih\351\277\016:\231\034\255l\352\277\024uo\303\235h\337\277LLx\023\332X\347\277O\310\216Y#)\345?\346p\206\023\030\304\343\277a^o\0357G\320\277\232u\273 \026\264\351\277#\320~\377\223\020\351\277\324\016\244H\354\344\350\277CM\303\25751\345\277\232=\202\035Y%\343\277\030\325\343\370#7\346\277J\345\373\257\344T\362?\241<B\237\306\301\354?O\236\202@5\273}?\241<B\237\306\301\354?\026\\\207 \t_\221\277\031\026}\2710\244\335\277\201[\244\327\373J\346\277\323B\355\370\367\323\343\277zx\206fQ\260\323\277x\272u4\310\r\301\277L\027\312Pc\207\254\277\037Y\371\320\211\200\347\277\236\313X\336A\262\342\277\017\021\247\020\254F\233?\021\230\004\364\314Q\010@\210\253P\3671\032\n@x\211\332D\257\357\317\277.\371\273*\301\343\347\277mK\233B\264@\307?XT\202\026\005\352\302\277\025\276r^!\257\005@\320\263K\362\020\035\376?\353}\00182\246\351\277~g\024\201\020\351c\277\340g\020\307\360X\343\277\242\342\206\360s\233\242\277h\021^;\nA\347\277\350\226\364}l!\341\2770E\202p\222\021\323\277\001o\034\371\017-\347?\000\316\003\345\263|\341\277S\226\207 \0161\337\277\374J\206t\371&\304?\222!\325\233\207\013\344\277w\262\270\374\354\227\313?\034\016T\013\275\340\005@\037Y\371\320\211\200\347\277B:\214z\213\202\346\277\022\374\234\377\323l\341\277\263\334\371\3324\260\345\277\314\251\3767\214]\352\277\267\345o\'\\\033\346\277F\254V\020\346H\366?\004\340o\324_\001\372?\215\235\213\344u^\352\277\014\031\301\350j\325\314?\203\326Cc:)\347\277t\316\343%\t4\010@\277\n}f}\023\326\277\327\023\365\264\374M\001@\317L\256\341z\027\342\277\341en\023\225\332\351\277}\225\224\023V/\340\277\232\rS\312\201\204\347\277H\276\241R\361\313\347\277\r?\203\336\262j\363?\261\322\"c\332\337\327\277\371\306\247\330\013l\271?cI\201\257\357B\336\277\367Y,w\234\275\351\277\371\306\247\330\013l\271?h\352\216\245\202~\334\277\212+\200\3652\302\322\277\272\370\246\\\006\312\344\277q@B\362\205\t\345\277\356\212\221\341\215_\351\277{\r\271\340\234\252\272\277\236$\311\3608\000\257?\"\030\227L\365\241\306?77\235\261\216\201\002@\221v\006\275q\214\347\277\365f\261\235\025\303\000@+\222?\307\313\337\362?\305{[\t9\256\330\2774\203\313\340\"\322\210\277\237\244\211H\272\357\327\277\"\306}<\2268\263?]\253,tp\025\360?S\230T\350\202\023\342\277\005\017~\2472\024\014@Y\022\223H\216\214\325\277\020\337\216R\317\355\324\277\373\245\206X\2519\263\277\216-\260\304\211\251\272?\243\207\206\014\304\210\303\277\273\331\237\034#\362\266\277?\213\2036\035*\010@r\014\371Az\032\352\277\256\346\272\303\267\363\343\277\270U\301\20057\314\277R\356\374\303w\206\342?g\257\207\353\202/\352\277\242\177\311\324\350\022\316?\367\006\210\204\314\343\345\277:A\322\244\026c\276\277\364\351y\327\307d\331\277\350\267\334\356J\263\351\277\312C8\225S\254\341\277\n\016R\te\021\333\277a]\031\020\315V\352\277O\260\306\014::\352\2773\232\311 T\037\346\277\005xq\230\226\226\320\277\253\360{\254:7\342\277\305\253\212\\\020O\324\277\0134VY\356\251\377?\320\247\332\220\224\240\277\277\217\303-.v\037\340\277\212P\202\303E\242\332\277\354\330\217\300\357F\365?\024H\204\362E\234\343?\254\037\340\271\023\256\367?V\216\223\377\377\317\343\277\231,\303\221\207F\352\277f\376&\006`\222\350\277|\243EO\212\022\352\277E\310b;t\017\346\277m\"\275\212v\230\313\277\002\201\334s\257\351\350\277\017\021\247\020\254F\233?\311s\210\225\313N\324?rSy\'0\270\343\277!\324\230\\\310^\350\277\025\257u\216\317\331\350\277\221\342\210p:\n\351\277\r+`\266i\220\347\277(N\327\274\323\327\333\277\034|\203\365\303\220\351\277)\233\024\275\257\367\343\277CM\303\25751\345\277\265\232\377\356\364\335\340\277\263k\274\216\274h\362?\343]O\336m\025\345\277\227\257\253\\p\230\343\277\230\357\315br\023\316\277\244,\206(\024v\264?\\U\032~\260\335\346?"
      }
    }
  }
}
node {
  name: "tensors/component_1"
  op: "Const"
  device: "/device:CPU:0"
  attr {
    key: "_output_shapes"
    value {
      list {
        shape {
          dim {
            size: 750
          }
        }
      }
    }
  }
  attr {
    key: "dtype"
    value {
      type: DT_DOUBLE
    }
  }
  attr {
    key: "value"
    value {
      tensor {
        dtype: DT_DOUBLE
        tensor_shape {
          dim {
            size: 750
          }
        }
        tensor_content: "\371s\245\260\024K\331?\346j\312\300\277]\337\277\305\342Xx(\016\330\277\261\200\004qV\221\315?\002\0055\300\265\275\375?\350H\253\241}x\346?6^\317\345\007\303\356\277K>\347\214s}\360?!s\322\211\024\337\344?28\026\212\314\233\305\277\3419\246\266)\026\000\300\245\360\177\275\2413\366?=\332/\017V^\340\277\245)\2139c\252\361\277O]\374\276\007W\332\277+\302eUPl\276\277\251\036\350\236p\275\313?\246\321\316\271\353\341\010\300\231\261\022ZI{\316?\005\007\320k\355\010\334?\212\351\243^\016=\356?\330\023ga\033\370\330\27728\026\212\314\233\305\277\365\321\213+\213\210\356\277\277\355\021\353i|\323\277\364\333\325\\V6\351?.\374\262\023\"\357\354\277\344\rS\207\277\340\352\277\347\005\216\340\210 \000@R\300\207\322c\353\314\277\366\257\272\031\204\315\363?dRCL\306\350\336\277V\323\254\363\203\206\321?ja2\026w\355\346?\354y\271\212pb\347?\211N\312\035\242\034\377?\203%\271\307}\277\370\277{\033!\211w\347\357\277^S\262\215<\251\317\277H\0007x\314\257\367?E<L\341;2\342\277\035\242E\307\317}\367\277f&\332\373\270U\353\277\316Q\311h\207\233\363\277\237P\001\344O\274\351\277Z,\356\325\024m\331\277S\353\035\263\0346\003@\313\200<\246B:\326\277\032\376,\261\204\304\272\277)5p\202\250;\372\277\002\330\327:\323H\265\277V\361\225\273V\325\315\277\353\027\235\270\212\216\345?s\t\304\243:O\014\300V\373\337\354!\203\330\277\256RC\026\245\034\007\300\330\023ga\033\370\330\277\257\036\204\271\346\021\350?n!5c\323\376\335\277\225P\263\326\024\222\373?\3419\246\266)\026\000\300{\033!\211w\347\357\277\346o!Lj\212\376?\017\024\300\244\334\026\362?\334\265\200\346\244\272\343?f0$-\204\003\346?\271\342 C<e\317?\031\022\301\023\033 \300\277$\313\010\020\271\260\337?\035C\317\374\r\n\301\277Ih\2651I\305\325\277T\216\274\232\277\026\375\277\374M\354T\331#\340\277Z,\356\325\024m\331\277g\227\345\227O.\325?\351B_\2225\270\277?\377!\271\233\'\326\237?\017\321j\367O\362\373\277\240\353\332$\274\334\370\277\320\030\014\372\000O\346\277!t\335\345\000\364\301\2770\335\206\272v\342\252?BmZ\312.\034\343\277\246ZK\025\033j\344?6i$s\277\205\306\277\233\211\276R\326\010\367\277\376\031\324~8.\360\277;m\014\275\363\361\364?Vl\353\210\270[\342?/\244.\200B\363\363\2775sn\244\2123\321\277\224,G\031\326\213\362?\203\371\235\204\253V\343\277\344\246\221\034\364\265\333\277A\006\231_c\361\323\277\177\366\264\245\322\300\264?\332\032\247\2458\232\364?\307D\331/\230\215\355?\344\rS\207\277\340\352\277kW\350\344\253?\354\277\336\231GS\220\206\230?F-]\027\213-\312\277+-s\357\331\256\377?\276\021\326\n\3716\221?\"\306\351p\246P\000\300=\3125\351\270D\353?\257\274\265\364;h\364\277\263\333\223@\254J\250\277\321\034\n\034\204<\272?\273\274\003\002w\222\322\277\312\332\r\330\036W\377?Z\375z\230Y\316\366\277\250\262\035\2665\220\353\277Ro\234\374\203|\000\300\351B_\2225\270\277?+\302eUPl\276\277\245\360\177\275\2413\366?:\2322\\\262o\307\277\000o\000\030/\364\353?o\210\366\315\236)\355\277\225\037W\340\346}\334?kW\350\344\253?\354\277x\2273\245\212X\363?\321\034\n\034\204<\272?\035B\304\240!\365\343?\223\275\326(w\376\346\277\002\0055\300\265\275\375?\240\353\332$\274\334\370\277!s\322\211\024\337\344?5sn\244\2123\321\277\034\340\247\316;!\342?\350\250,\310+\001\372\277\261\362hv\024\251\362?#\021\004\305i5\361\277\213[\272V\221*\345\277\334\265\200\346\244\272\343?\207\032\262G\001\'\357?=\332/\017V^\340\277\345~^#V\271\324?Y;\204&\343\206\000@wfs\311\322\230\340\2779\231\'\000\306Z\352?\031\022\301\023\033 \300\277\312 \273\177\224\261\362\277K>\347\214s}\360?\2014Z\204\363\231\302?\002\022\327\353i\241\365?\364y\007\230\253\214\365\277\341MP:c\317\323?a\235\371q\253E\343?\217\272\355I\236h\270?\017U\025r\337\222\243?\\\322=\262\r\306\300?\330\023ga\033\370\330\277B]`\244\221\002\356?>\313@E\245Y\310\277\"\306\351p\246P\000\300E7\247HV\333\324\277o\210\366\315\236)\355\277F\236h\263!\006\344\277o\210\366\315\236)\355\2770\325\356[\372\262\346?\0273\207\3115\306\375\277\270\342\274]\262\271\353?\017\321j\367O\362\373\277\356\017\3562\367+\371?\207*\254m\236@\344\277\233\037\363\372\\\322\350\277r\021\311\204\303\316\203?\017\024\300\244\334\026\362?.\007\010\241\331\261\304\277^S\262\215<\251\317\277\345~^#V\271\324?\221\356\226\004/\276\371?\016\343\261\273\351,\361?E7\247HV\333\324\277\314\347\375\020\016e\345\277R\277|vw\326\357?x\212\221y\326t\373?\307T\323U5\247\342\277/\227\214T\216\017\374\277Z\"\244\244I\277\316\277$\313\010\020\271\260\337?*\326\371\267\346\307\303\277~Vy\2435\177\353?\2014Z\204\363\231\302?~Vy\2435\177\353?17\013.\340\206\350?\334DuJ\016\342\331\277\035B\304\240!\365\343?\013\255\3769\021\354\362\277\275T\205H\372|\364?Z,\356\325\024m\331\277\362\023\237\226\007\241\261\277\010\321\034\352\024\310\355?tY\203\220\343\212\372?\351>ap\262\312\353\277\010\321\034\352\024\310\355?!t\335\345\000\364\301\277\312\030\276\354\305$\370?\257\036\204\271\346\021\350?F-]\027\213-\312\277=\3125\351\270D\353?m5\311\305iZ\323?R\242\236\n\221\234\320?f\277\030\221\355*\334\277E,R\273\236\030\355?p\307\204?\314W\305?\324\263\345:mo\365\277~\310\350\024\233W\003\300\201*\020S(\354\327?|\310A\216}B\364?\204\274\313\314\212\351\311?\366\257\272\031\204\315\363?\227\356\344\021j\350\347\277\311pzl=\355\000@dRCL\306\350\336\277f0$-\204\003\346?ja2\026w\355\346?E<L\341;2\342\277\035\242E\307\317}\367\277\367\257l\014I\243\325?*\326\371\267\346\307\303\277\254\343+\237(z\354\277uT\336\367\3753\375\277\246\321\316\271\353\341\010\300\300X\321w\270\224\266?\367\257l\014I\243\325?^\316\007[\236/\344?\217\226\022qO\302\340?\ri\354=\323\334\335?O\272\017\312)L\002@2-\301\374\024\331\355\277\"`I\203j\230\274\277\347\3533h}\373\321?\177\275:\016\001\252\332?d\225J\354\027\343\366?\307D\331/\230\215\355?\233)=,(\200\343?\021\257\231\345H7\341?\352\255\321`\021X\367?\354y\271\212pb\347?\325\270\212\323R\306\362?\"`I\203j\230\274\277^\316\007[\236/\344?\356\034\220^\253\017\361?17\013.\340\206\350?\357\336\206\320!W\007\300\206\310\217\233\270l\342\277C\327%\"\250R\361\277\2502|\001\007\031\261?!i\210XI1\352\277\235\201\301\277\007|\374?\210\035\340-\310\016\210\277ja2\026w\355\346?Ih\2651I\305\325\277\235\213\275\343\227\377\310?\005\007\320k\355\010\334?O]\374\276\007W\332\277\346\265\316\363\337\344\361\277Q\317v\234\024\360\344\277\307T\323U5\247\342\277\213[\272V\221*\345\277\323c\005\211C\232\257\277\231Pe\311\331g\335?Z\"\244\244I\277\316\277+\251\323\030(J\361?`\235G\177\346o\361\277U\000\205\205\007\332\345\277\203\371\235\204\253V\343\277\324Sd\024\277\346\341?=\3125\351\270D\353?q\026f\317\3562\004\300a\235\371q\253E\343?\374=\362.<\n\353?\260\224\230\323\354\354\262?\263\333\223@\254J\250\277\227X\260i\343\036\366\277\307D\331/\230\215\355?\356\027\353\305\305\270\363\277qf\327\256\\D\324?\354y\271\212pb\347?\360H\371\256\270\242\364\277\013\245\001\247B_\370?\313\205\341>(\221\343\277-\006\375D\355\234\347?\235\213\275\343\227\377\310?\213\207\325\231c\223\372\277\243\201\017\315B\246\352\277r\303N\350\\\301\350?\351B_\2225\270\277?\344\246\221\034\364\265\333\277o\371\001j5\002\327?\344\rS\207\277\340\352\277\"`I\203j\230\274\27717\013.\340\206\350?\035C\317\374\r\n\301\277\356\034\220^\253\017\361?\035\242E\307\317}\367\277\350H\253\241}x\346?\206\270\225u\033S\355?3\332\341\001\0334\362?\375\333#j\221`\367\277#\313V\035\364\332\375?\255\220L\244.\325\360?\233\037\363\372\\\322\350\277\215\305\205\256\na\363\277\335\034BQp\345\322?\005\007\320k\355\010\334?u\222@\377i\327\347?\270\342\274]\262\271\353?<*\267\017g\315\376\277\203\371\235\204\253V\343\277\303\237\314\344w\362\253\277\014\022%\371\244\313\343\277\014\002+\323\007\262\356?\353\027\235\270\212\216\345?1B`\273\227I\320\277\304\244\222B\336\342\000\300\201*\020S(\354\327?F\312\203\366\363n\371\277\313u\347\030\213w\356?1B`\273\227I\320\277Z\223\257@\340\227\350\277\320\246\365\001~a\357?\201*\020S(\354\327?|\273\237b\311^\374?\306\251\377\356+m\376?b\377\025D\221\031\345?\332\032\247\2458\232\364?\305\342Xx(\016\330\277:\2322\\\262o\307\2776^\317\345\007\303\356\277\221O\366\207c\247\314?~Vy\2435\177\353?\215\305\205\256\na\363\277\250\262\035\2665\220\353\277K\211\001\3416b\001@\211\312*G\360\267\360?\330\204r\375\261\320\342?<*\267\017g\315\376\277\376\031\324~8.\360\277\314\361GB\331\022\340?f\277\030\221\355*\334\277\376\031\324~8.\360\277f&\332\373\270U\353\277\211\224w\305\027w\362\277v\222\216\014\245\001\366\277\031\021\266\267.\013\343?n!5c\323\376\335\277b\377\025D\221\031\345?\327\231\331\317\234t\005\300=\332/\017V^\340\277l\004\t\352\261\232\360?g\227\345\227O.\325?\':\025\033\216\222\367?\344\226a_\373V\223\277b\216\n\250\372@\333\277\344\rS\207\277\340\352\277\364\333\325\\V6\351?~Vy\2435\177\353?\233\037\363\372\\\322\350\277\223\307 ZB\254\341?\352\336\337I\004B\370?k\310\363\200B\030\326?\rtA\313\212\237\345\277\322z\332\276\253\370\371?f&\332\373\270U\353\277d\225J\354\027\343\366?\261\362hv\024\251\362?\247\274g\347\000>\346?\013\245\263\231\0075\332?\210\035\340-\310\016\210\277j\360&z\340\024\335\277R\300\207\322c\353\314\277\326\253\350\247\236\342\372?\347\005\216\340\210 \000@!i\210XI1\352\277\251\036\350\236p\275\313?~Vy\2435\177\353?\217\201s\262\314Q\336?o\371\001j5\002\327?\327\"V+\314\374\340?\207\032\262G\001\'\357?\':\025\033\216\222\367?\337\211\027\226\227\'\320?\346j\312\300\277]\337\277\235\213\275\343\227\377\310?i\004\273\334vp\322?R;\335\237\305q\341?r\021\311\204\303\316\203? \232\372&\306\306\336?l5\027\323\244\204\361?\276\276\236\255\256\335\360\277P\223a3\245m\372?\264EHq\016N\356\277\227\370.C5\226\342?C\327%\"\250R\361\277\263O\222\242\331\373\350?\033d\225\262(\260\376\277o\371\001j5\002\327?\307T\323U5\247\342\277\334DuJ\016\342\331\277\263\333\223@\254J\250\277\032\376,\261\204\304\272\2779\244|\215}\035\322\277\013gQ\222\233\221\377?\\\322=\262\r\306\300?\376\323&\327\302\323\374?5sn\244\2123\321\277^S\262\215<\251\317\277\375\0142S\204J\370\277\273\274\003\002w\222\322\277\267\213\365\030\204\250\321\277\304\261\374\201\372\371\370\277/k#\004\201|\370?%\244\340r\007\311\345?\364ME\316\273\016\001\300^\316\007[\236/\344?\371\002\232\024~r\357\277$\313\010\020\271\260\337?\214\214z2I\352\367?\020C3\342\227\265\344\277Z\223\257@\340\227\350\277\251R\234\217\207\007\370?+\251\323\030(J\361?\':\025\033\216\222\367?\006|\360P\036\002\362\277\005\007\320k\355\010\334?+\302eUPl\276\277\225\037W\340\346}\334?\313u\347\030\213w\356?\312Vn\001m\362\360?\344\246\221\034\364\265\333\277\010\321\034\352\024\310\355?Z.\211\201L\270\367\277\313\347V\212\360O\006\300!s\322\211\024\337\344?\333I\032\343\3638\347\277\367\257l\014I\243\325?6i$s\277\205\306\277\250\340B\300O\344\275?\2014Z\204\363\231\302?f\220\245S2\214\371\277\237P\001\344O\274\351\277\347\013\230\317S\276d?\351\037\323\247\222\246\232\277f\304\275)\323\201\351\277*\303\337\203\370D\001@\346j\312\300\277]\337\277\241\370|Pp\300\360\277\221\356\226\004/\276\371?\342|\303w\036n\366?|\273\237b\311^\374?E<L\341;2\342\277 \232\372&\306\306\336?V\361\225\273V\325\315\277 \232\372&\306\306\336?\351\037\323\247\222\246\232\277\353\027\235\270\212\216\345?M\231\303\032<\257\326\277R1\223n\372\303\346\277H\0104\013\233<\362\2775sn\244\2123\321\277\377!\271\233\'\326\237?BmZ\312.\034\343\27717\013.\340\206\350?\346\265\316\363\337\344\361\277E7\247HV\333\324\277\251\036\350\236p\275\313?=\3125\351\270D\353?\033i:K\016\007\374?\272\0210\233mX\376\277-\006\375D\355\234\347?\345~^#V\271\324?\020C3\342\227\265\344\277\225\037\245\355!\250\372?`\235G\177\346o\361\2770\335\206\272v\342\252?\303\237\314\344w\362\253\2776^\317\345\007\303\356\277|\310A\216}B\364?\031\021\266\267.\013\343?\206\270\225u\033S\355?\211\224w\305\027w\362\277\230\307\307\340_\301\000@\314\347\375\020\016e\345\277\010\321\034\352\024\310\355?\203\371\235\204\253V\343\277\010\321\034\352\024\310\355?\336\231GS\220\206\230?\365B\227\307!a\330?A\373C\322\253.\354?M\231\303\032<\257\326\277\207*\254m\236@\344\277\336S\262!\372\020\360\277\206\310\217\233\270l\342\277V\314l\257f\344\365\277|\310A\216}B\364?\034\340\247\316;!\342?\231\216c\353\273_\364?\247\274g\347\000>\346?f\220\245S2\214\371\277\334\265\200\346\244\272\343?O]\374\276\007W\332\277\002\022\327\353i\241\365?PjP\335\200\020\364\277\245)\2139c\252\361\277\362\023\237\226\007\241\261\277\311pzl=\355\000@\277\355\021\353i|\323\277\331~&\356i\020\274?\274#\305lB\275\341\277\314\361GB\331\022\340?\340\346\216\317\227\244\344?\r~\213\374UM\340?+\302eUPl\276\277\013\245\001\247B_\370?^\316\007[\236/\344?Z\"\244\244I\277\316\277 \007l\206c]\350\277\270vVZ\0018\357\277\221\356\226\004/\276\371??\246\0279\265h\360\277\014\022%\371\244\313\343\277\317\261J\2175$\327\277\310\266\357\'\033{\344\277[l\222\017\326p\001@\247\274g\347\000>\346?\0358zoVG\351\277\304\244\222B\336\342\000\300\250\340B\300O\344\275?\toN%j\036\372\277\277\355\021\353i|\323\277F-]\027\213-\312\277p#\320\016\013J\374\277\2502|\001\007\031\261?BmZ\312.\034\343\277\375\333#j\221`\367\277\313\200<\246B:\326\2778\371\250&t\343\375\277\010\321\034\352\024\310\355?\203\371\235\204\253V\343\277+s \227O\t\363\277\313u\347\030\213w\356?\':\025\033\216\222\367?}\003L\233\000\260\301?R\312\321\003/\231\327\277\263\333\223@\254J\250\277\346\265\316\363\337\344\361\277\020C3\342\227\265\344\2770\335\206\272v\342\252?qf\327\256\\D\324?j\360&z\340\024\335\277\223\262\201\233\277;\337?\317\261J\2175$\327\277>\327~\233\212=\002@\212\351\243^\016=\356?Oo\365ufg\361?=\332/\017V^\340\277\217\201s\262\314Q\336?\365B\227\307!a\330?\216\032\37293\337r\277\331~&\356i\020\274?\202\227\201\262\305\202\341\277%\232\226A<\033\353\277\340u\2033\001\314\332\277\233\037\363\372\\\322\350\277\217\201s\262\314Q\336?\276\021\326\n\3716\221?\016\206P\243\214\r\013\300\217\272\355I\236h\270?Z\223\257@\340\227\350\277\245\343\335\221\355O\376?\t8\336T\340\362\334?\013\255\3769\021\354\362\277}\003L\233\000\260\301?V\361\225\273V\325\315\277BmZ\312.\034\343\277\\\322=\262\r\306\300?Z\"\244\244I\277\316\2771\325<i5\335\364\277\334\265\200\346\244\272\343?Q\317v\234\024\360\344\277\270\342\274]\262\271\353?\211\226vV\331m\304?\223\275\326(w\376\346\277\344\246\221\034\364\265\333\277R\300\207\322c\353\314\277\372u\273h\355t\263\2775sn\244\2123\321\277\351>ap\262\312\353\277s\271\004\267\221\023\356\277U\n\317\266\322\207\340?o\371\001j5\002\327?\340\334D\236\314\366\351\277v\203Q5\271\322\337\277\304\244\222B\336\342\000\300\026\007\036y(3\372?\006|\360P\036\002\362\277\022\234\020\337\236\360\270\2775\006KR(\307\365\277\346o!Lj\212\376?X\002 1?%\364?\352\240/5]t\377?\334DuJ\016\342\331\277\235\213\275\343\227\377\310?\303\237\314\344w\362\253\277R\300\207\322c\353\314\277O]\374\276\007W\332\277@\241\277^B\212\256?\210\035\340-\310\016\210\277\205[lIV\000\367?!i\210XI1\352\277R\300\207\322c\353\314\277\334\265\200\346\244\272\343?\250\262\035\2665\220\353\277\267\213\365\030\204\250\321\2772-\301\374\024\331\355\277\3609\274\327\314s\336\277\251\036\350\236p\275\313?\344\246\221\034\364\265\333\277R1\223n\372\303\346\277A\006\231_c\361\323\277V\373\337\354!\203\330\277\235\213\275\343\227\377\310?\311pzl=\355\000@Q\317v\234\024\360\344\277\"\306\351p\246P\000\300\323c\005\211C\232\257\277\334\2536\265\331\014\351\277\303\036 \324\\f\324\277\372u\273h\355t\263\277\206\310\217\233\270l\342\277>\313@E\245Y\310\277\233)=,(\200\343?\356\027\353\305\305\270\363\277b\365\313\022\306k\352\277|Z\257\372\244\025\310?Vb\241W\355\255\347\277\251\036\350\236p\275\313?\217\201s\262\314Q\336?\354\010\256\356\331\211\335\277\014\002+\323\007\262\356?V\361\225\273V\325\315\277\2014Z\204\363\231\302?\026\007\036y(3\372?6i$s\277\205\306\277\312 \273\177\224\261\362\277U\n\317\266\322\207\340?\331~&\356i\020\274?-\006\375D\355\234\347?5sn\244\2123\321\277\n:\364\014\271\034\267\277Z\223\257@\340\227\350\277\211\226vV\331m\304?:\2322\\\262o\307\277\013\245\263\231\0075\332?\353\027\235\270\212\216\345?\"`I\203j\230\274\277\021\257\231\345H7\341?6^\317\345\007\303\356\277\177\275:\016\001\252\332?\313u\347\030\213w\356?\215\275\210\033<\324\370?F\236h\263!\006\344\277\2502|\001\007\031\261?r\021\311\204\303\316\203?\':\025\033\216\222\367?PjP\335\200\020\364\277\002K\342g+\030\361\277\314\023\031T\340\315\372\277\211\312*G\360\267\360?%\245\353\316\363\335\302\277\034\340\247\316;!\342?\331~&\356i\020\274?5\006KR(\307\365\277\212\351\243^\016=\356?\327\"V+\314\374\340?1B`\273\227I\320\277\307O.\275OP\325\277V\323\254\363\203\206\321?)5p\202\250;\372\277\032\376,\261\204\304\272\277\346j\312\300\277]\337\277\233\211\276R\326\010\367\277-f~k\233%\373\277\312Vn\001m\362\360?T\321\021HL;\363?\226\214\310?\204\024\346\277\337\211\027\226\227\'\320?\001\341\026\020\262\341\342\277\351B_\2225\270\277?\202\207\207\214(i\354?\017\024\300\244\334\026\362?\335\034BQp\345\322?\261\200\004qV\221\315?d\225J\354\027\343\366?J^k\000~\027\313\277i\004\273\334vp\322?\261\264\270am\333\371?\215\305\205\256\na\363\277\021\245O\264}\211\346\277n!5c\323\376\335\277\320\202\327Qz\205\364\277\032\340NUY6\001@\227\370.C5\226\342?\212\351\243^\016=\356?Oo\365ufg\361?\2002[\3631\243\360\277h\306X\325\n\315\367?\303\237\314\344w\362\253\2772\251z\237E_\000\300!s\322\211\024\337\344?\274#\305lB\275\341\277\017\024\300\244\334\026\362?E,R\273\236\030\355?\303\023\313F\245\243\354?l\377cQ\314C\363\277\210\035\340-\310\016\210\277H\0104\013\233<\362\277U\n\317\266\322\207\340?\250\340B\300O\344\275?\002\330\327:\323H\265\277F\236h\263!\006\344\277\374\257a\240\241\342\002\300\307T\323U5\247\342\277\211\312*G\360\267\360?\\\322=\262\r\306\300?v\203Q5\271\322\337\277f\304\275)\323\201\351\277\205[\036<\033\326\330?0\325\356[\372\262\346?\210\035\340-\310\016\210\277@\236\032\246\346\333\365?\227\370.C5\226\342?\336K\265\216+\204\365?\"`I\203j\230\274\277\017\326\301\202\372\036\333?\351>ap\262\312\353\277\303\237\314\344w\362\253\277\316\207|\352_\334\361?\332\r\005z\204\266\374?\317\261J\2175$\327\277\031\022\301\023\033 \300\277\261\301Z\215!\277\361?Z\"\244\244I\277\316\277\273\261\256t\277\317\352?\211\224w\305\027w\362\277\035C\317\374\r\n\301\277"
      }
    }
  }
}
node {
  name: "tensors/component_2"
  op: "Const"
  device: "/device:CPU:0"
  attr {
    key: "_output_shapes"
    value {
      list {
        shape {
          dim {
            size: 750
          }
        }
      }
    }
  }
  attr {
    key: "dtype"
    value {
      type: DT_DOUBLE
    }
  }
  attr {
    key: "value"
    value {
      tensor {
        dtype: DT_DOUBLE
        tensor_shape {
          dim {
            size: 750
          }
        }
        tensor_content: "\233<\361\001\250Q\000@\337\350SG&Z\306\277\025o\352aj\t\361\277\214\214\263\365x\307\360\277\022\2366f\307\003\322\277\266\320{Z\\ \345?\'\014D\261`*\342\277\340W\352\033\246w\322\277\351v9\353R\007\364\277\206\250\325\342\010V\322\277\252\202\320\244\230\357\363\277\202\365\257|W(\250\277\032L\010\230Nc\203?\273\323C\002\342G\364\277q)\237\271\315\203\350?\031\274\236\'\024\241\252\277\261qi1~*\307?9;Y\260t\007\374?y\245\321$\370\010\317?c!\333\024\024%\360?\027\374\3562\365E\321\277\224\307-\263\304\031\342\277\207\244_qm\034\016@\342\3002%\340k\332\277\201\002\300\332\341\225\341\277\036+\365\311\306L\305?Q\257yO\256\304\302\277Z\204xs\223Y\334?\274\276\013\031\220\220\322\277.j\327\247X\367\274\277\n\370\024\303\265}\314\277m\233ei\317f\254?\3005\363\225\334M\265\277\205\260\002\262&\272\314?7\257\346\021]!\363\277\257I\345\364\004$\350\277\324n4o\307\321\344\277$\356\022\320VT\310\277\027\016\034%\ti\374?(_\300wj\361\344\277\222\352k\302\246\t\360\277\377\377{\331u\274\361\277\335\266?\233C8\346\277\031\343\202h\275\r\243\277|c\232\330\267\000s?\214\023\377\010x\350\317\277g\311\377\376q\021\002\300|\300\022%\350\327\010@\234\217y,\037\267\355?\240y\232\177\234l\n@I+^\233(^\352?\321\321C\2320\r\340\2776\240\306D\371\017\371?\2264M\352\344\030\373?\331\267k\234\267M\343?\243L\364\212\224m\373\277ij\371\023\337!\234?\333\325Z,x|\335\277\207o\3411fV\330\277\2277X\341\"\255\361\277\252\202\320\244\230\357\363\277\366\230\264z\'\234\357?\234O\'\000\362\304\251?197\265f4\341\277\026Y\322\316r;\366\277\305\257\375MJ\347\324\277\337\025;\032\007\216\n@\000\004\336\222\210r\260\2774h\223\233}\325\340\277\313\234\0265\272q\350\277\225\313\205t`4\351?\207J-\370\224\272\361\277\360\215\365\271\342\361\360\277w[\362\034\036\273\361?\234\350\360\214\374\223\356?\207\241F\357V\312\360\277\2671\241\026\006\023\310?%\033\343\361\025\212\344?[\360\313s\013\342\352?\\\334\301\253\221\001\344\2774`:\230\216\362\340\277D\305\177\347\216\210\377?\005\346d$\217\347\353\277y\242\001Y\315\305\000\300x\016\'\300\204*\325\277\274\325 \330G\005\340\277d\215\\w\317\251\336\277\274\231\205A\002\361\333\277E\333\317PI\371\342?0\211\357\032\272\264\356\277\201\270\240*Q\235\220?\016\177\216\255\371G\356\277\237\213\367O\017\201\340\277\030\305\273\013\031\365\022@\\\005M\023I\250\353\277k5#\032\204J\347\277#/9\353\224\310\024@\353t+\031\316\273\321\277\013\211&x\205\246\350\277Mq)\025\220t\005@\217((2\005\365\350\277bKAl1\217\334\277\360\010\232\203\335\031\360\277\266wh\013\032\303\340\277\237\303\353A\035\246\337\277\257\241pG\317K\005\300\3106p\324\323\325\246\277\314{\3534\254\211\240?\006>e\246\241\200\364\277\026M\360\024\320\r\347\277F\247\035\003_\306\260\277\244qIm\n\335\351?P\237\231\355\223`\341?>9\372\nf\357\t@#\230\253\'\376\274\360\277\205\344\2716A\327\343\2774\253\244\3610$\325\277\332\231H}\003]\332?\313K~%\301\332\361?\274\275\\d\002\252\321\277\004\244\317f\346/\364?DK\245-\321\267\336?\304U\253\004\016\245\315?\223\233\3171\231\337\312?\201Rx@5\026\357\277$\306\225\367\227)\271?\022\2366f\307\003\322\277_\020J\336\007\031\260?\250\344T~9G\310?\341G\241\347\251\342\361?\262\2465\243,\315\327\277\274\375\313\225Y\225\376?\326\261\313\022p\203\363\277\211:}\030\"\024\376?\225\350_\027\215\335\351\277\026Y\322\316r;\366\277\257\352\215U\003\242\366?\343\307\225\335\271\032\350\277\231b\335\231SC\320\277O\272\025\'\245<\340\277s\226\331K\235\363\316?\n\2350@\377\206\357?\343\307\225\335\271\032\350\277K\3113\333\253\352\312?;\0149\347\357\351\376\277\352\335e\2366P\001\300\2050\323Dq\357\330\277X\212\350\376*[\315\277\215O\000\330\303\233\314\277M>W\266\326;\343\277\242\347E\03070\311\277\207\331?\233\244B\364\277\205\177\2238D\034\330\277\013\367\272f\005\312\355\277\333.6\236\360\330\312\277\032\271\374~\300H\344\277Z\301(\367l\363\331?\005pw2 \341\346\277\010\331v~gh\341\277\321\261\233\024\300\272\264\277\017^\261\241\016\267\330?\204\022\202\312\200`\316?\3325k\373\215\351\326?\267f\210\343c&\366\277A\241J\242\037\220\003@\267O\362\220\366\241\322\277$P\035\375\013\341\225?\221\005\206\021\210\205\376?\231F\255ne\304\254\277197\265f4\341\277\352\362\277\002O\374\250\277\344\277<\332\3127\350\277-BZ\317\231\314\315?_R!q\361l\346?\003(|\350]!\364?D\341\312\352\034\017\341?\016oCR\222\223\361?\3403\023\371\245\276\334\277\363\266\210\022\367\353\007@O\013}A\206\243\356\277\223\205\334\361\307\035\305\277\037\257\234\212\367\214\362\277\024\364\277Jz~\327\277\356\270\244\215\207\243\325\277q\312bu{r\304?\300+\3077\016\262\320\277\335\236{\'\376\334\327\277\023h>\363\244K\324?l_\260g;\353\345?\232%\265\212\332+\371?\234\022\361\244\014\001\304\277\241e\374\300!\275\375?\201\342\332F\226*\231?D\361\252L7s\302\277\227\373;\267\'\211\327\277\274\277\327O8\007\375?\370\\48\212\232\332\277\030\343\341B(\243\312\277\001Q\315R\347\005\347\277;\303*\320\375e\360\277T-\226)\230\222\301\277F\t\235\033\271l\262\277\270\266\024\016\337\311\337?\036\220Z\003)\022\311\277<\333T|I`\367\277\215\000@\344\360n\315\277\230\366\262\275\347n\276?\354\224\214\3122;\003@\232\22624>\000\307\277\017h\231\0031\227\362?\3142>\031q\350\346\277-\0224\322>v\341\277t\3027\315\310-\346\277\276\221\246l&\266\262?r\261U\205\256\317\335?/P\371B\254\225\330\277\005\007\204\201\303\037\321?\0079\230-\246A\341\277^2K\220D|\351\277\334\036\253\224\263\247\313?s\244[D\234\212\356\277\216\254\241\227\371\226\364\277.xo\275\317\266\346\277dsZ\257]E\360\277M\301\0103\371\245\354\2779;Y\260t\007\374?\037\037\016O\335m\343\277\245\317+U\254:\357?\353\305\201S\206\266\331?\357\233.\366\326\247\222\277i\026\013\247\"\215\265\277w\375Dxj\314\354?q\240\272\314\024a\370?\317.\366@\226\322\334?<8\324\377$x\361\277\'\264{\005\0214\342\277}\240\006\314`\213\351?r\354\212\035R\014\360\277t\357|\340KO\325\277\277\304\253\242\327Z\362\277\205\203\351\322t\027\343\277\365\341\276CC\341\345\277\210\306\263\222\240\030\346\277\010\321\271i\335\005\345?\004\343\330\231\233C\377\277ym!/\226\237\372?\3077\245`m\346\317?\251gM\212\334\240\364\277\350\213[:<\377\312?,d\254\213\335#\301\277\354\023[\265\001\374\320\277T\377\222\250\311=\327?#F\0212\005,\343\277GM\204#\2336\350\277(\014\037\333*\265\275\277\220\207\357\204\223\032\332?\010H\325|$\343\364?4{C\023\205\246\206?\272\361\203\243\260\310\346?i\327@2\342\354\341\277/4h\034\0074\340?\272\354K8o\227\366?\307\322|A$\336\226?/h\275\266\361\360\346\277\223\375NJ\363\205\314?\327\351\014\204\271l\023@\324\307G\276\t/\351?\350\017\036V\034\260\345?Q\271\273\312\364\210\321?n`\007h\224\222\006@\371\217\221`\364\003\303\277\374\241|v\300,\361?97\230\034\367\273\305\277\346\277\344c\032~\300?\350\213[:<\377\312?_\347Fo\250\351\355\277\314{\3534\254\211\240?\215\356Vq\230p\314?\256\033\312/S\207\267\277QA\203v\376@\355\277\325\260\2050\304\315\321??\302 \013\3443\341?\310\370&\255\246\331\204\277\276\277s7\226)\342\277E\300\177R\020\372\367?\377\325\020\310\030\377\340?F\236\3306\350\021\324?\246\306\0279\302\322\003@\316G\0031cu\303?\200\207\026W\247\032\336\277\217k\304\2422\374\207?6\273\331\253(\273\310\277\231Z\274yM3\226?Z\204xs\223Y\334?/4h\034\0074\340?\317\364\264\305\225L\342\277\217\364\005\264\235\207\366?i}\266\013\334\251\343?s\244[D\234\212\356\277\307\\~+\351\023\004@\035<V\2052\371\305?\033\237/\372<S\346?^\255d\316\022\371\272?#CYl9\253\322?\264Q\005$\302\236\307?\005\177\340\274v_\336\277#.M\276\277\320\324\277\264Q\005$\302\236\307?\343iEb\357\332\260\277\261:\342\242\264D\351\277\366\342\3230\327f\337\277.\275xD\2303\344\277\177`\314\335\367\016\355\277\201\271\256\255\013u\253\277o)\rM\366e\272?\357\324\300\302h\031\353?8\010\221\216\275M\350\277\366\006\253S\327\037\325\277\222o\307\370\253\341\360\277mq\3562q\034\311\277T6\016\225\241\377\361?lS\235\270\200\215\336?\351P\300b\213\305\301?*\357\210\260\262\322\350?\325\321\350\211\244\301\361?4o\243\"\345p\330\277\340}\356\262\251\315\361\277\353\226\246\371\035\307\341\277\272\213H\270\037\210\341?CQ\335\333\236\270\270\277y]\347\263WW\324\277\320\355\246e\231\320\346?\236\325\315O\323<\361\277\270\265-|\207\342\327\277\344\367\252\372\353\004\276?\\\021/\315\353\325\372\2771\263|hqU\355?\224\243TiYA\320\277\321\023\033-\032a\266\2772\344{\'\300\361\343\277(kq<\365\356\353?\2118\002-\354\266\322\277\203g\262I\353\216\336\277\016O&\333]U\363\277,\320m\037~\216\321?\336\246\215\224er\346\277\035\332\326l\330R\304?\237\217\205\307\t}\302?/3\236\014\312\334\361\277\010\036\034\364\224e\342?\"\016w\335\022\340\307\277\260\254\231\017\342\023\365?c\032\322\362N\361\267\277\237\267P\232\n\321\262?\365:6\244 \276\346\277\306\375\037\253<\037\002\300\366\000s\245\t\037\273?s=\306\374Z\226\332?\224\246\312Y\344%\362?\217\264CQ\324\210\303\277\036h\335*j\347\271?b\207\253\r_s\370?\274\247\"\3234~\001@S\316\365\323\252\001\341?`qY}9\343\350\277y\033vYt\242\306?\352\361\240[\310`\000@X~C\334\221\201\371?+,94\214l\346?\212\232:\257\276\017\343\277\2671\241\026\006\023\310?[\227\3520\232\363\013\3003X(+\']\322\277\364\026]Z\265\345\324\277U\330e\252-d\321?M\307;\243\217^\363\277\274\276\013\031\220\220\322\277b\355\027\356\007\344\345\277\240b\n\376\'z\330?\377<\n!\365r\301\277\325\321\232\022r\001\360\277\320\t8\214>2\337\277\236Tk\212\025\261\275?\000\231\031\256\267\027\322?iGi@\334\276\323?\321\'\237#\247\351\303?\231,_\331;(\370?\010H\325|$\343\364?d\2668\351\215D\340\277pZ\345\016\244m\320\277`$C\3009\273\241\277%@\007\337s\311\312?+\017\014`\355\257\357?\304\374\310\252\343w\361?M\036U\232Qn\362\277\"\223s\274\274\213\340\277\013\242\030\r\243\330\361\277\263o\237[\245\232\337\277K\216\367\335eF\251?M&\223B\221\340\324\277e\370\376\233N,\300\277\025\301\177\235#G\352\277\034\305\030\271\240\241\247?x\250\211\352\303\211\357?\233;\262\302\"\211\346\277\203\255\004M;S\344\277p\nEq+*\370\277\037\346\265\214\237\356\354?y6\3277\326\r\370?\302y`\353\263z\365?\r\r>\354B\212\345\277\217\327\t\325\026\373\347\277\3041g\301U|\360\277^l\212\344\331\342\347?\271\002d\313fe\361?\022\222#\267\014\246\352\277\3746`\2376\r\312?E\266zn\323\211\364\277\256q\301\247.\344\356\277\346;\373J\2318\345\277\022m\233\262\364\024\231\277T\303Y\374\263\211\323\277\205q\" n\361\356\277Y\372\307O2\300\341\277\315D.\360\203\302\267?;~!I5\351\362\277\306\375\037\253<\037\002\300g\304urp\255\312\277:\314\216\340\205{}?N\307=\312\372}\377?\343,\"\024\275t\354\277/p\026\272\340\323\346\277\310\013\010\032\306\332\362\277\361h\270\230@a\311\277\024\305`\010\014\321\t@<\274\200\201\234i\361\277\377\374=\306\264\330\346?.\221\273\350\001d\265\277,Q]!\352\253\314?\314P\266\220\002\014\342?\034\3330\311\210\006\343?{\315_Y\350\252\365\277\2142\300\374\220S\343\277&\352\021\216\003\214\337\277pZ\345\016\244m\320\277_\020J\336\007\031\260?;H\243\210\035\316\332?\372\017\'\006\260m\357?\220B9/=\261\302?\227\261\200\022\023>\344\277Ku6\273P\333\350\277=\022\204\030Z\201\334\277c\n\341\260\013!\340?4{C\023\205\246\206?\223\206\262\243\366\230\306?\005\262N\305\t5\275\277/P\371B\254\225\330\277\016!\001\0365\035\333?\334p#NRU\353?\2779\271\352\240J\356?5+u\204{Y\261\277\313\177<\222\215\310\347?\250\201\020\224\331\221\273\277\264ET_7\241\320?\2671\241\026\006\023\310?.\275GO\200\003\374?+5\245\375\243\265\343\277\264WIt\201\303\364?\371\307\020a>=\357?\223]_\031\t\363\265?\336_{\002~-\230?\375\234\233\212\307M\317?\265\021\374*qR\363?\003\002*\332\'\013\323\277l\025\365\302&\240\322?\037\337\032\367\373>\310\277n\246\374\374o\304\367\277\205:+\335/\334\241?&\236\370\177\323s\352\277\227\035z>\362\305\004\300Pj\373\326!\\\322?\233\037\353\345\036F\343\277\361\030p\355\200\342\311?\224\220\262\306\354W\367?\021\367\"\270h\314\265\277\213\351{6GL\370\277\307\276m6<o\255\277\345s\3345\023\322\341?\220\t/a\"\211\276\277wB\262\020\316\310\346\277C\356\304+/T\300?O\237\023\240\236\375\366\2772\363\270v>\223\367?R\251\t\304\026\303\321?\336a\204\r\235\365\350\277/\365\207\212Nk\302\277\272\022\305\3006\331\310\277\'\212\337\376\233F\331?rcu;\201\271\367?\250\316a>h\205\302\277!0\216\254\307k\353\277\344r\332O\023\330\352\277\370\317id- \357?,!\235\\\225\364\330\277\002k\2415\006\005\246\277\177\020\320\347s\177x\277\325(\232\305=\337\016@\267\236\262\204\311\316\321\277\342\326\376g\020\231\337\277zM5\255y\221\324\277f\217\251\000\302\n\332?\273\214\204\242T\242\273?*\306\375H\373+\341?a\226E\215\315!\330\277\314\202\310\034\201l\364?\204KO~\202\313\307\277\205\344\2716A\327\343\277Mt\244\201\326&\323\277\256q\301\247.\344\356\277LZ\272\201?\377\351?\261\240\035\216E\205\356\277\265\314L\275\314\271\272?=\022\204\030Z\201\334\277\021\347\336D\263\350\347\277lsQ]\323\232\375?M\262Y\361\006\371q\277\2475\235\357\224\376\360?\200\336\223_\004\252\311\277\221\244\263\206P\246\361\277\377\031\030i\341\201\347\277\211\027n\336\363\222\352?\210X\037\244 \365\340\277T\303Y\374\263\211\323\277\251\313\251x\234\004\342\277Oz\255\335\377!\322?C\246\265)\344\020\010@\370,\254P\377\343\315\277\005\346d$\217\347\353\277I\345sS\001\214\006@\365\325\322\221)\030\277?\361{w\275\307\332\313\277\227\373;\267\'\211\327\2776\325\225P\203D\320\277\342\217\"\206hc\315?lS\235\270\200\215\336?\306\375\037\253<\037\002\300@\212? j\232\344\277s4\3579\366\374\361?N\261#\020\230\220\370\277\274\371\225\020\030^\325?\006;\262\036\rH\267\277=Kx\311\374\200\326\277BDsj\0179\371\277=\356\250\233E\345\200\277\226Y\323\301r\270\361?\252\\\240\322\274\274\360?\024\377\232]\326\000\275\277\374\226pnLz\263?>q\257|\203&\352\277\305k.\212Ke\305?\026\014\2419\323\013\321\277\253\264\034.E\022\373?\'F\266!y\340\364?\256\335Y\027\303\232\302\277\3126\333I)1\343\277?\305\330\320\257\264\321\277|\362~\205\3778\331\277\374:+++\364\347\277\252\202\320\244\230\357\363\2777\304\322\252\3477\357?\326:\253E\351R\357\277\375\355X+kv\003@\240M\355o\2053\324?t\347\214\257>\235\364?`\227\216\tUi\340\277\221\366\233v\213`\240?\252\024\013\301\000\234\346?\365\256\217v\025\026\317\277\355Ri\242\366b\320\277\206\350\021\370\334\361\352?\031\212\332\225\327i\371?K@q\247=B\271\277\031\321\273\265\266\347\256\2775\271\332\034x\203\276?\212\300\241G\253\004\000\300S\005\355\026\351\026\256\277\212$\226zBv\353\277)\3441H\330\210\300\277,\345\233\215IA\334\277.\250\367\244Zm\343?-\0224\322>v\341\277s\200\346\013\3141\311\277Yh\\>\262\343\346\277V\375Q\272\301\242\340?X\270\001\235q\330\321?\267P\331\"N\211\332?\350\306\2277\202\243\274\277\014=\306\323\315@\342?\334ty\350\202P\326?q{\242\201\250E\305?\363\344\207\3517\316\274\277\207\026H\323\262\033\002@cEa-\r\352\373\277ag(^$\226\361?b\247.\275\231P\377?4\234\356\006a$\t@\017c\307\320\365\004\353\277\325\217f\323\217\225\354\277\371V\304\254\362\230\311?\215\232\365?\242\341\355?\334\3309\350\3353\360\277\377\361\274Im\321\366\277\223+R\313\301\332\326\277\245)\002Ij\265\243\277\014\304,\277li\257\277%\204\326\242rK\332\277\204=\315\205\2034\350?^l\212\344\331\342\347?\016</]\004\320\250\277\217B[\357\216\211\317\277\346\221\313\305\323\000\334\277\213Br\003o\031\343\277\313\177<\222\215\310\347?\233v\240\313E\326\345?\223\266Kk\252\273\331?F\236\3306\350\021\324?zM5\255y\221\324\277\322\007\223\214\233\027\354\277\025\301\177\235#G\352\277\000\351\264\221\360\007\366\277V\354\235\315\343\342\351\277\374<Vx\303q\365\2773=\372\353W\252\244?b\021\215&\330<\333?\233\003:\252\212 \371\2777\263\013\267u\354\325?\352\250\205t\377)\373?i\327@2\342\354\341\277\003\3611\361\235\217\361?\210\013\275\031i\225\343\277\037p\371\217H\030\360\277\376\212d\035-&\315\277\351\307\375.\035\035\260\2773\372\310\375\245.\377\277\t\300\005}\377E\356\277\333;\203\020u1\340?_\341d\t\031%\361\277\207\271\213\366Q5\345?S\022gW\007\226\005@\226\300\351\234i\274\333\277\034^FWF\360\350\277<\020*Y\314&\000@1\327S\213q\016\343?E\317\355\226\246\313\363?*\357\210\260\262\322\350?\361\336a\216\003\254\363?\320\355\246e\231\320\346?\253\224h\211\362\004\334?%3\247e[\345\322? \333\031\265\250v\337\277m\031\302u\206\246\334\277\212w\020\032\341\035\322\277cC\350b#\332\235\277\3351\013\337\317\213\266\277\215\244\254\254\254\221\357?\035\254\275\316\221\325\337\277\263\005.\353\322\"\361\277\266t\260ENB\320?\207\273h\314\267\362\360?\033\226\'B\300\211\345?\037W\215O\'\247\317?\245\237\005XQ\344\302\277%\202gY.\022\322?~.T\031s\017\362?\236L\351b\032\032\341\277e?\035\326Fg\360\277kK\3555IX\320\277\027\374\3562\365E\321\277\307L\210\352\332\014\341\277\246:jh\220=\344?\233j\215\034\213x\336?\2013\244E\210\037\351\277~\337E\256m\"\361\277\256q\301\247.\344\356\277%\367<\304-\001\367\277\034\200@\244\340\353\362\277\024\215*\0039\212\343?\343Y*\023F\253\277?\270\004\356oZ\017\327\277\362\361\213\245\320\027\363?\335\265\366\036\274\360\335\277\250\235Q\237\360|\325?^\271\354n\221B\345?\345\335\266x\307z\337?\026\003FP\344.\312\277\027\004\027A\314\370\370\277A\365\033I\036=\331?}\240\006\314`\213\351?\356\000\361\350W\265\340?\033q\322_J\032\367\277\271\363\365\206\320\223\365?L6EIo\246\324\277\315\367qL\250~\365?N\244\222\241g|\350\277\206\226\0160\0020\336\277\371(\230\007\030\220\342?\332n_\2540\351\320?Q\374y\3575\304\357\277\206\t\246F\325\025\323\277\233F\030\344\272\037\351\277+\223\316{\315`\332\277u\277\0265\033|\366\277o5\371\376\017/\341\277S\217\025B\3628\303\277\325\001\265m\3333\331\277=WP\213(\023\276?\357i\270^\334\231\362?\310\"a\311\353f\215\277\366\021u\206\n6\304\277\362/\332\004\026\212\271?Q\341_\240TH\321\277\310D/\347\353)\341\277\205\271Q\371#s\360\2777w\322\n`8\322\277\321\261\233\024\300\272\264\277\000\353\221gV\305\341\277\375\026\330.\265~\360\277\331\032G8-\307\357\277,\257N\302IV\354\2771\354\324*\257\324\343\277B\243\030\201C{\354\277u\237b\220\310n\347?\264y\202\374\200\311\266\277\302\367=\01603\333\277\355\206\317\034\n\214\275\277\213c\244g7\335\352\277<r\245\307\230Z\334\277w\21070\241\334\360\277X\234\257\2611\201\301\277\337\261\344\374?\274\316?h\237\315\332\2205\307?\374\366\235<m\016\367\2771\260\242fK\361\376?\303\347\213\007Rm\333\277E\3742\252)\355\362\277\302f\004\310\025\240\000\300\204\327E\315:\274\254?W\031\343\340f\004\331\277\021\367\"\270h\314\265\277:\314\216\340\205{}?"
      }
    }
  }
}
node {
  name: "tensors/component_3"
  op: "Const"
  device: "/device:CPU:0"
  attr {
    key: "_output_shapes"
    value {
      list {
        shape {
          dim {
            size: 750
          }
        }
      }
    }
  }
  attr {
    key: "dtype"
    value {
      type: DT_DOUBLE
    }
  }
  attr {
    key: "value"
    value {
      tensor {
        dtype: DT_DOUBLE
        tensor_shape {
          dim {
            size: 750
          }
        }
        tensor_content: "\025\220\255\232\366\333\243\277P\t\246.m\342\320?\233\343e\306TW\372?\2243\373k\375\325\347\277\360\324x\2475\023\343?\203\233\215\343G\361\360?\353\265\244\267\230\016\374\277\363W\312\325\262\363\307\277-.\322\211\307\241\347?\371\206\316z\264\216\345\277S\237\030\344Y\337\346?\007\221J\364 4\336\277\364C\226\306\341M\352\277\264\200\335\001Z\327\362?w\263l\247m`\306?\236M\325\002\354,\336?\215\002*\\Pn\340\277jz\276 \342\004\371\277\t4vk\036\245\364?\313\227\306\306=\250\356?\231l\231\230\347C\364?W\017I\213g\243\272\277y.\021r\370\306\201?Q\320\007\002\203t\364?\rx\206\020\267V\303?\371\216}\211ug\344?amQ\325j\331\325\277\375\223;\306+\272\370??\330\246\266\242_\362\277\203\265W \225Z\366?*t\315\247\207M\346?{\312c ,q\347?\260\'\266\323r\277\254?K\tx\306O\307\371\277Fs\327\250E\257\334\277\013\261\351\245\005\254\246?\200\r\234\324\376\261\342?\261\362\353\362\020\230\344?\341\010+/L\023\364?wS\227\362\276]\341?\255Wo\212\324\377\374?|\324\375\247\024D\366\277\003\206\241\224V\n\225??\242\333MGJ\352?\343\2507l!\343\330\277+\311\0200E1\307\277G\254u\325/\035\371\277Z\354\352\037\025\363\360\277 \344\000z\270\001\271?f\266\202\024\361\032j\277\306\332\034\211\214\026\360?\363|4\363\313\273\366?\343\2507l!\343\330\277S\3429\344\235\222\006\300\37469\325\013\020\370?\311\256\275?\374\270\337\277 \344\000z\270\001\271?\200\r\234\324\376\261\342?\376\242\261\230F\r\322\277\253\271M\306&*\370\277S\237\030\344Y\337\346?\363|4\363\313\273\366?7\261#\270D\202\314\277~\2723k\307\332\360\277\224\213? g-\364\277P\t\246.m\342\320?\003r\331.\254\005\000\300\204\204h\002l\305\350?\366,\237M#=\331?\022\356zM^\371\365?;\031\306\2110\213\366?~XU/u\260\365?\245\326\010\325~\031\330?\201\356\365L\177\310\322?y.\021r\370\306\201?;\2035\306\307`\332?\247\257\263>>W\351?\266\367\251/\307\352\370?_\315D\230\225\t\361?\303f\365\266\220@\347?@#`\021\031^\345\277J\345\023\002\032\213\345?\033\250\177/\236M\367?y\007z\310c\357\251\277\373\243k{\220P\337?\211\37340\331\330\356?\313\227\306\306=\250\356?\203\265W \225Z\366?\'\232\271\240\226\255\202\277\242\014\324=\332.\360?Z\320\351\363\006G\356?\247\203\240kGB\366?\027\255[z\320\315\361\27758l\021\260t\366\277\\Y\035\306\2313\350?\213\334\216\250Y\357\336?xX\'\307W\225\336\277\201\336\227/\375\026\325\277\236\311\233\211\007\356\364?\361\245t\0024x\325\277\227\311m!\352\322\335\277q\207+lY0\354?\237v3 \320\026\343\277\215\223\260li\375\312\277`\234Uzlt\343?w\263l\247m`\306?\234B`_\032\371\254\277\036\327e\306#\273\316?Z\212\014\344\302\310\365?\330\224\003]P=\353?\306V\305\001,\252\360\277O\371G\021\3530\323\277\272\254\360\324P\354\345?\312Q\351\266\371)\366?^I\355\0205\235\361\277\375\311\006/\207\317\340\277\024\275\213/5d\350?qAN\\\025\262\363?\215>m\344\253\031\352?\016\221x\\>O\365?\316\225\371[\222\333\304?T[\315\247%\025\277?6\350\326k\007\366\350?l\344Kk\365\007\363?\327\273X\363\220\377\331?S\237\030\344Y\337\346?\360\324x\2475\023\343?\376\035\252\315\322\355\215?J\345\023\002\032\213\345?\336X\300\324\364\221\341\277\033\216\265\362P\344\361?&1\225\363\264\014\353?\237v3 \320\026\343\277\254\330\n\0025\241\003\300\341\010+/L\023\364?\224\213? g-\364\27758l\021\260t\366\277 \005\202 \276\367\367?\352\302/\021\214g\365?l\020_>\354\034\346?H-\274\326B(\274\277\215\002*\\Pn\340\277\367\277l\247\236\374\361?\327\273X\363\220\377\331?HT1!\306\305\354\277\2610\032\364\223=\376\277Y\367>\212G\t\335?6\350\326k\007\366\350?\006:\035x\230\230\240?\000\214\272\037\210\374\340?\226\274.>\220\302\341\277J\215\317M\2603\371?HT1!\306\305\354\277\270\335\337\362y\201\363?\"\213\304 F^\327\277\323\014\306\211\377\356\312?\334\317\214\002b\245\347\277B\\\376=\003\314\361?X\006\265\\b\\\366\277\312[\203>\342\374\344\2772:W\212\327n\306\277\251i\326.\372\330\360?\235+z\305Y\030\360\277\271\354\tO\373\213\317\277*l\036\231\306t\347\277\362\265\322\037\266)\323?\221\215*\231\216\'\304\277\363W\312\325\262\363\307\277>\362p\363\357\310\367\277~\2723k\307\332\360\277\323\361#\\\354\024\362?\356\005h\305^\250\360?\337\236\235\3448\020\372\277\337\204\323\247\353\246\364\277Ef\230\305\353\236\340\277\005\003\207M\365\017\347?\036\024\370\362\330J\321\277\200\r\234\324\376\261\342?\264\374\205z\371j\363\277\273\266\212\\9\277\364\277\211\307\240\266>\006\344?&\277\206\002\376K\371?r\010\260/+D\347\277\311\256\275?\374\270\337\277*u\003\017O\242\243?\211\307\240\266>\006\344?B\374\n{\330\233\326\2771\301\237\343Ba\360\277\370\316\226\003 \007\316\277\016RD\002\330\035\301\277e7\206l\017\304\375\277\022\370\024\325F\314\344\277\007\341\375\247E\340\301\277\215\223\260li\375\312\277\'\232\271\240\226\255\202\277]pB\247u_\360?\032\025\262\325\"\216\336?_\023\"\250\331\207\351?1i[/\331\t\344\277\3371k>\264\317\322\277\217U\222\305\207E\362?1\230_\324\332\244\321?y\007z\310c\357\251\277T[\315\247%\025\277?/\267\005\\Z\216\341?\362\265\322\037\266)\323?\337\236\235\3448\020\372\277\332\273\365\253\245}\225\277\t4vk\036\245\364?\342\032]\021g1\006\300\262\303\347M\017\375\326\277*t\315\247\207M\346?\236\311\233\211\007\356\364?\005\003\207M\365\017\347?\374@\323\\\364\342\346\277\003\206\241\224V\n\225?1i[/\331\t\344\277\230\331\313>l\204\333?1`\231\230\266\247\310?\360\324x\2475\023\343?S\237\030\344Y\337\346?\236\365\256\\\376\002\350?B\\\376=\003\314\361?\236M\325\002\354,\336?\370\336\003(`\317\006\300jz\276 \342\004\371\2771`\231\230\266\247\310?\\Y\035\306\2313\350?\227$\263\001\000\236\305?\225;\252z\276\256\346?\343\327;\021#~\346?\365\034A0\241\213\333\277\261\362\353\362\020\230\344?\374\034o\230\276\246\362?\245\306\252\267\374g\332\277\371\216}\211ug\344?1i[/\331\t\344\277>\362p\363\357\310\367\277\221z\t\022\037\013\263\277cVZ\\\254\310\344?\237v3 \320\026\343\277V\"j\022\327\277\313\277C\335d\363X\262\346\277\022\370\024\325F\314\344\277\332\273\365\253\245}\225\277\215\223\260li\375\312\277\364C\226\306\341M\352\2775\214\335\234\227\222\017\300:\206\370/\265\313\335?\320\\\226\306C\206\261\277P\t\246.m\342\320?\336\"\365k\231|\371?\345\211\221\344\241\371\350\277h\231\222\020\177\t\340?{\312c ,q\347?\305GO/\021W\327?\223b\377\020\377p\325?6\274\303\230\020\341\365?\265u=!\216x\311\277\316\225\371[\222\333\304?\330h\360\211Y(\370?\036\327e\306#\273\316?W\026\345\021\307\362\354?\302\335\301\344\375S\355?\216\333\324\305\017\254\321\277\332\273\365\253\245}\225\277\301\371\302\020\014\000\360\277*\252\211\t%L\003\300;\2035\306\307`\332?cD\021\306\002\035\367?&1\225\363\264\014\353?o\275\366\324\264E\364\277\342\373\237\325X\272\372\277mh\205\344\331F\334?\2243\373k\375\325\347\277\360\324x\2475\023\343?\036\327e\306#\273\316?\3371k>\264\317\322\277kkHN\307\261\337?&1\225\363\264\014\353?\3127\037z\254\300\360?\264\374\205z\371j\363\2776\350\326k\007\366\350?*t\315\247\207M\346?\007\317\333\037\314\257\000\300\231\252\307\231j\351\355\277\267:\264{|\020\335\277[Qn\267\330Z\351\277\232_\016?\364\352\372\277\225;\252z\276\256\346?\352$\016M\336\221\360\277\261\362\353\362\020\230\344?/\267\005\\Z\216\341?\375\223;\306+\272\370?\003S\034\363\235\216\364\277\347\032t\305\365\276\341?y9\201?\330\253\356\277\306 \372\230\320\224\350?S\237\030\344Y\337\346?!\370\366\306\312\236\376\277\025\351\314jI\224\302?/\267\005\\Z\216\341?y.\021r\370\306\201?\021j#\306\375\214\366\277\236\365\256\\\376\002\350?\036\327e\306#\273\316?\233\233\177/m\261\313?G\254u\325/\035\371\277Z\320\351\363\006G\356?]pB\247u_\360?\257#\333\020:-\362?\25008\002\020k\344\277 \353\267\343p\216\362?\313\227\306\306=\250\356?y\007z\310c\357\251\277\207\370\217\324g\233\361?2q\n>\232\342\342?6\350\326k\007\366\350?j\214\026\276I\307\001\300\\Y\035\306\2313\350?d<yk\320\321\003\300\016\265\334 t\213\351\27758l\021\260t\366\277W\342P\230, \342?\361\370\334kkO\367\2776\350\326k\007\366\350?\215\223\260li\375\312\277\rx\206\020\267V\303?0\333i \220\312\365\277\033\n^k\360w\362\277vK\350\343\375\204\342\277!2\302\331\022\221\233\277\007\221J\364 4\336\277\032\025\262\325\"\216\336?\000\214\272\037\210\374\340?_\300\271>\242\260\367\277:\206\370/\265\313\335?\016\363V\230\220y\360\277\310\251-kc\201\342?X\347\340l\305W\337\277\306\030K\212\017\274\351\277\225;\252z\276\256\346?vK\350\343\375\204\342\277cVZ\\\254\310\344?2\245\236\2674\265\355?\264\374\205z\371j\363\277\211\37340\331\330\356?%\365QkYa\341\277\326\253\372\325\016N\334\277W\332\241\211kG\343\277Y\367>\212G\t\335?}\033\n\225U\255\014\300c\212\356\325F\233\357?\276\347yzbT\342\277\263\323Ek\221\256\324?\004\324b\364\260\231\267\277h\315&\212\031\334\352?\"\360\204\'\345\367\001\300\331J/\"\036\255\275\277X\347\340l\305W\337\277kkHN\307\261\337?n[\030\231b\033\371?\0316\200E\245\243\000\300\242d\314{\252=\357\277\371\216}\211ug\344?\310\251-kc\201\342?\376e\037l\221}\317?C5\251\247\302\t\363\277=H\254 \266\370\315?\334\317\214\002b\245\347\277\025\351\314jI\224\302?\306 \372\230\320\224\350?\340A\311[6\201\320?\022\324\260\020\021\220\360?T[\315\247%\025\277?\322\207\226\021\331\021\370\277?\330\246\266\242_\362\277\205\216\002\212T\230\367\277\013\'\353\021+L\373\277Q\0166\003\006\032\356\277\331J/\"\036\255\275\277 \353\267\343p\216\362?\303f\365\266\220@\347?\024\275\213/5d\350?\316\225\371[\222\333\304?\344\270\225\211\243\224\326?\237\274\0200\024\225\373\277\223b\377\020\377p\325?\2428\347\020\321C\343?\215>m\344\253\031\352?7\261#\270D\202\314\277\317\256\353\247\031\324\366?k\313Y\037n\017\301?c\246\357\001UG\362\2772\235\357\250s\334\356\277~|\271\363\252\354\351\277\326\253\372\325\016N\334\277\006N@\250k\016\372?D\323\312kp\337\367?\236\250\032\343\001\370\265?0\210R\374p\324\216\277\270\335\337\362y\201\363?\376\035\252\315\322\355\215?\207\022Z\021\265\004\367?\345e- l\275\364?\324\0357/\343)\345?\341FY0\317\270\355\277\372\356R>$j\311?\370\316\226\003 \007\316\277`\234Uzlt\343??\242\333MGJ\352?\223b\377\020\377p\325?wS\227\362\276]\341?\276\347yzbT\342\277Tp\024?XD\331\277\216\306\215.\335|\267?\026\236\345\247\265z\330?\242\037\347\020o\013\274?\336X\300\324\364\221\341\277{\312c ,q\347?\360\n5\t\323\021\000\300W\017I\213g\243\272\277!\356\\?\342\313\357?N(L\266\354\313\340?W\017I\213g\243\272\277\205Ud]j*\333\277\004\324b\364\260\231\267\277A\271\000/#v\362?*l\036\231\306t\347\277&\375\000z\032:\340?\025\216\207\2123\311\332\277\276\347yzbT\342\277\235+z\305Y\030\360\277\3047\361\021\217\245\331\277\022\370\024\325F\314\344\277\211\37340\331\330\356?s\341Z\231\352\201\330\277i\376\025\250Bq\370?\374Hk\267&.\n\300\231\262v\250+\302\354?*t\315\247\207M\346?s<\240y\000M\300?\340A\311[6\201\320?\257#\333\020:-\362?\271\354\tO\373\213\317\277V-\n\363\242\036\365?\024\266\357\250\325\024\266\277??#{h\001\260\277;+\017 \3326\344?!\356\\?\342\313\357?W\244\326 \0202\373??\330\246\266\242_\362\2771\230_\324\332\244\321?\245\326\010\325~\031\330?8\2578?\035\210\374\277\213\334\216\250Y\357\336?cVZ\\\254\310\344?U\217\350.\365H\360\277\317\256\353\247\031\324\366?\340A\311[6\201\320?h\315&\212\031\334\352?\324\346\203{ \266\310\277m\221\343\001\2760\341\277\204\250\314\306\241\001\375\277\247\257\263>>W\351?L\227i\325\230\006\350\277\242\210|\266y\302\360\277\267J\022\231\376\301\332?\240\242F\363\306+\366\277~|\271\363\252\354\351\277Km4LK\356\262?oj\216k}n\322\277f\344\035\003\330\354\333\277\300\320\202\001\244C\321?\264\232\247>\247@\370?\336`o\343\265j\340?^\013s\231\030\257\352\277\'!e>Pv\364\277\251i\326.\372\330\360?`\371@\267\375\220\010\300\324\346\203{ \266\310\2776\340\']F\035\352\277\237\316h\315{W\004\300.\354\317<\274\265\251?\265u=!\216x\311\277\243\355\377M=*\351\277\302\335\301\344\375S\355?\224*9\325\332s\314?\330h\360\211Y(\370?0\210R\374p\324\216\277\306\364\346\305\331\177\365?w\025\035{\242o\372?\354\221@\363b\322\347?\022\356zM^\371\365?\257#\333\020:-\362?\000\366\031\002~\344\363\277\306 \372\230\320\224\350?^I\355\0205\235\361\277\336D\214\305#\354\323?\323\361#\\\354\024\362?\216H\007l\224\354\370\277`\234Uzlt\343?oj\216k}n\322\277\227$\263\001\000\236\305?r\010\260/+D\347\277\310\251-kc\201\342??\232,?\206q\353\277\222\201\245\230~Z\345?\345e- l\275\364?\212\375\\\030\334\004\001\300\266\367\251/\307\352\370?\177K\312\325\201W\374\277\240\242F\363\306+\366\277\221\215*\231\216\'\304\277K\tx\306O\307\371\277\310k\263\363F\223\373?\375\311\006/\207\317\340\277\226\361\325?\214\036\271\277\336X\300\324\364\221\341\277\211\307\240\266>\006\344?y9\201?\330\253\356\277!2\302\331\022\221\233\277?\330\246\266\242_\362\277\302\335\301\344\375S\355?\222\201\245\230~Z\345?6\036\242\324b\013\361\277\256\007\341Yx\200f?\223\245\t]\264\226\371\277\032\025\262\325\"\216\336?\247\257\263>>W\351?\367;\025 >\220\362\277\030>\362\344\212J\375\277wS\227\362\276]\341?{\312c ,q\347?;\377\373L\343!\361?\035\240\347\324k\002\004\300\020*\334\3435\322\325?\033\250\177/\236M\367?<\021./\376?\003\300q\207+lY0\354?s<\240y\000M\300?\'\232\271\240\226\255\202\277\257-u\230\"\000\341\277@#`\021\031^\345\277\016\265\334 t\213\351\277\004\324b\364\260\231\267\277\253B\201\230\271\026\362\277\347X\242\306xd\373\277HT1!\306\305\354\277\231\262v\250+\302\354?\262\303\347M\017\375\326\277??#{h\001\260\277\236M\325\002\354,\336?&\375\000z\032:\340?-\002\277\266\320\214\364?\255_<\247\021\006\322?L\227i\325\230\006\350\277\320o\267M\263\242\302\277r\236PM5\\\364?\371\216}\211ug\344?\242\037\347\020o\013\274?cVZ\\\254\310\344?\020*\334\3435\322\325?]\271\362zH6\315?\354\221@\363b\322\347?l\344Kk\365\007\363?\3371k>\264\317\322\277=H\254 \266\370\315?\013\373\327>47\350\277\207\022Z\021\265\004\367?\007\317\333\037\314\257\000\300\257-u\230\"\000\341\277\352\000^\022\017\r\357\277\021j#\306\375\214\366\277\265u=!\216x\311\277\205\216\002\212T\230\367\277\320\241`N&{\375\277c\212\356\325F\233\357?\377\017\344>\313M\371\2771`\231\230\266\247\310?*u\003\017O\242\243?\024eG{\313\014\374?\222\201\245\230~Z\345?Q\320\007\002\203t\364?Fs\327\250E\257\334\277p\177|]\230W\355\277\203\233\215\343G\361\360?@#`\021\031^\345\277f\266\202\024\361\032j\277\332}\014\344\221,\312?\317\256\353\247\031\324\366?\340A\311[6\201\320?`\354\333\030W\334\005\3006\340\']F\035\352\277B\\\376=\003\314\361?\313\227\306\306=\250\356?\257a\t\022\275\322\353\277\226\034\326\212!\252\377\277\371\206\316z\264\216\345\277\202\230|]\372\217\264\277\277#\275\002\276\377\353?\220\370q\306\353m\353?\\\217\331\'72\005\300\371\216}\211ug\344?\227\313\2231\255\345\246\277W\017I\213g\243\272\277\024\275\213/5d\350?\312\217\027\270|\317\357\277B\374\n{\330\233\326\277C\335d\363X\262\346\277Z\212\014\344\302\310\365?\2428\347\020\321C\343?\2156\276\325\352@\353\277\372\262\341M\253\243\370\277\024\266\357\250\325\024\266\277\303f\365\266\220@\347?\006\204\013\021\307#\342\277\276\347yzbT\342\277y.\021r\370\306\201?\345e- l\275\364?\366,\237M#=\331?\000\214\272\037\210\374\340?\324\346\203{ \266\310\277\256\007\341Yx\200f?qAN\\\025\262\363?\267:\264{|\020\335\277\212\375\\\030\334\004\001\300\030C\345\343KX\003\300cVC\250\035;\t\300\301\227\344\324\271\325\364?\332\273\365\253\245}\225\277\236\365\256\\\376\002\350?\202\230|]\372\217\264\277n\361\212NO\030\377\277%\365QkYa\341\277$\304bM0\314\363\277\210\005\317\267\301\253\375\277&\245\274\305\260\342\363?!\356\\?\342\313\357?Z\212\014\344\302\310\365?\263\323Ek\221\256\324?\2428\347\020\321C\343?&)\346\344\3633\354\277\000\366\031\002~\344\363\277\201\356\365L\177\310\322?l\344Kk\365\007\363?\222c\234j)\311\257?\371\216}\211ug\344?An0 \036\352\003\300\374H\202k\265\273\345?]\271\362zH6\315?\006\204\013\021\307#\342\277\324\346\203{ \266\310\277\371\216}\211ug\344?W\342P\230, \342?8\2578?\035\210\374\277!2\302\331\022\221\233\277H\026\003 C \363?\303^F\250\317g\350\277\016\221x\\>O\365?b}\257\362\354\212\323?V-\n\363\242\036\365?\351/b\267\020\250\334?\344\270\225\211\243\224\326?f\344\035\003\330\354\333\277\362T\307\003@\322\240\277\374H\202k\265\273\345?{z\354\210\377\037\320?\341FY0\317\270\355\2779\321\337\362H\345\307?\271\354\tO\373\213\317\277\255L\033 \242\351\320\277\230\331\313>l\204\333?\013\373\327>47\350\277V-\n\363\242\036\365?\207\370\217\324g\233\361?.\303\212\\j[\300\277\231l\231\230\347C\364?\343\2507l!\343\330\277\017F\277\001\310P\342?W\342P\230, \342?HT1!\306\305\354\277\343\2507l!\343\330\277 \005\202 \276\367\367?Aa\313\201w5\001\300)\353\231\325\364`\354?\245\306\252\267\374g\332\277\233\233\177/m\261\313?T\251\262kB\262\365\277\330\214TN\217d\354\277\312[\203>\342\374\344\277\374\034o\230\276\246\362?8\264+>\336\225\002\300\343\2507l!\343\330\277\276\347yzbT\342\277_\023\"\250\331\207\351?Km4LK\356\262?1i[/\331\t\344\277b}\257\362\354\212\323?\'!e>Pv\364\277\305GO/\021W\327?\330h\360\211Y(\370?{\312c ,q\347?\374\034o\230\276\246\362?\242&\236z\'\230\365?\215\223\260li\375\312\277\226\304\335LQ\233\340?H-\274\326B(\274\277amQ\325j\331\325\277\272\254\360\324P\354\345?\016\265\334 t\213\351\277Ms\005\021c\312\363?\326\006@\266$\031\304?\306 \372\230\320\224\350?2\245\236\2674\265\355?cVZ\\\254\310\344?\024\266\357\250\325\024\266\277\253\352<\344O\277\345\277\256\007\341Yx\200f?\316\225\371[\222\333\304?W\026\345\021\307\362\354?\234ED\002\247\201\365\277\030\000\304\343\007\245\343?y\007z\310c\357\251\277\312[\203>\342\374\344\277\025\216\207\2123\311\332\277\277\357(\211#-\341?\006\204\013\021\307#\342\277\005\327sz\376\372\363?;_\243\231t\t\357?\242l{\212k\026\356?\236\250\032\343\001\370\265?\"\213\304 F^\327\277\335\212\247\227&s\264?u\302\264\021k\230\350\277\366U\337\\\213\371\367\277\251\\K\325\006\200\367\277\236\365\256\\\376\002\350?\251i\326.\372\330\360?\206e\302z\354\333\330?&\245\274\305\260\342\363?J\345\023\002\032\213\345?\022,\251N\341\236\357\277&1\225\363\264\014\353?\227\350A\021\207\327\364\277\262\303\347M\017\375\326\277\347\334\371M\331\320\372?\025\216\207\2123\311\332\277\265u=!\216x\311\277\320\\\226\306C\206\261\277"
      }
    }
  }
}
node {
  name: "tensors/component_4"
  op: "Const"
  device: "/device:CPU:0"
  attr {
    key: "_output_shapes"
    value {
      list {
        shape {
          dim {
            size: 750
          }
        }
      }
    }
  }
  attr {
    key: "dtype"
    value {
      type: DT_DOUBLE
    }
  }
  attr {
    key: "value"
    value {
      tensor {
        dtype: DT_DOUBLE
        tensor_shape {
          dim {
            size: 750
          }
        }
        tensor_content: "1\343\301{b\340\276\2771\343\301{b\340\276\2771\343\301{b\340\276\2771\343\301{b\340\276\2771\343\301{b\340\276\2771\343\301{b\340\276\2771\343\301{b\340\276\2771\343\301{b\340\276\277^F\004\360f\236\271\277U2\350\001\267\336\276\277L\274\177M\033x\275\2771\343\301{b\340\276\2771\343\301{b\340\276\2771\343\301{b\340\276\2771\343\301{b\340\276\277MR\262\211\231\334\276\277 \330\244\374\373\334\276\277S\225\263\231\363*\267\2771\343\301{b\340\276\2771\343\301{b\340\276\2771\343\301{b\340\276\2771\343\301{b\340\276\277\272\223f\231\330\263\207?1\343\301{b\340\276\2771\343\301{b\340\276\2771\343\301{b\340\276\277\315\246rmT3\276\2771\343\301{b\340\276\2771\343\301{b\340\276\277\264\216\231\010\224\326\276\277\347b\237\245\034\262\375?*\242R\020\244\327\276\2771\343\301{b\340\276\277\024\021\304=\310\\\275\2771\343\301{b\340\276\2771\343\301{b\340\276\2771\343\301{b\340\276\277\303\023\027\256^\351\363?\357\261d7\301\263\276\277rL\235\247\204\301\276\277\016\000\365?\201\332\276\2771\343\301{b\340\276\2771\343\301{b\340\276\277\221\253\314\314\262\320\276\2771\343\301{b\340\276\277^Fip%\335\276\277x\241\016\335F\261\025@1\343\301{b\340\276\2771\343\301{b\340\276\2771\343\301{b\340\276\2771\343\301{b\340\276\2771\343\301{b\340\276\2771\343\301{b\340\276\277\351$\236\356\225O\274\277\357\252\017B\013\307\275\2771\343\301{b\340\276\2771\343\301{b\340\276\2771\343\301{b\340\276\2771\343\301{b\340\276\277\"]\213\345|\366\272\277L\274\177M\033x\275\2771\343\301{b\340\276\2771\343\301{b\340\276\277\346\201$U\022\333\276\277\240\026E\013U\337\276\277\2504\240\r\035!\276\277\271\263\333\021=P\257\2771\343\301{b\340\276\2771\343\301{b\340\276\2771\343\301{b\340\276\2771\343\301{b\340\276\2771\343\301{b\340\276\2771\343\301{b\340\276\2771\343\301{b\340\276\2771\343\301{b\340\276\2771\343\301{b\340\276\277\361b\360J\304\264\276\2771\343\301{b\340\276\2771\343\301{b\340\276\2771\343\301{b\340\276\2771\343\301{b\340\276\2771\343\301{b\340\276\277g\350\311\030\264\310\276\2771\343\301{b\340\276\277\361g\271\271\210D\276\2771\343\301{b\340\276\2771\343\301{b\340\276\277H\211\232\363\205\271\276\277\232\347\232\246:\336\276\277\236e\271\367Q\336\276\2771\343\301{b\340\276\277K\r\200\300\t\324\276\2771\343\301{b\340\276\2771\343\301{b\340\276\277\215\377\266\323\024\306\360?\305\342C\037H/\276\277\255zPF}\017+@#\352!M\317\300\276\277\036\306\227?\207\261\276\2771\343\301{b\340\276\2771\343\301{b\340\276\277\371\334\223\364\332\330\276\277Q+\373\233\024\245\276\2771\343\301{b\340\276\277,\256P\233\333\304\276\2771\343\301{b\340\276\277g\"o\006h\233\272\277\376\350\016\324f\013q?\270\260\337E\273\254\275\277\271\310\033\016\260\245\276\2771\343\301{b\340\276\2771\343\301{b\340\276\2771\343\301{b\340\276\2771\343\301{b\340\276\2771\343\301{b\340\276\277U2\350\001\267\336\276\2771\343\301{b\340\276\2771\343\301{b\340\276\2771\343\301{b\340\276\277\373v\271o\003\327\276\2771\343\301{b\340\276\2771\343\301{b\340\276\277\274F\362\250\366\201\276\277Q #\373\022\327\276\2771\343\301{b\340\276\277\376U\201G\032\226\276\2771\343\301{b\340\276\2771\343\301{b\340\276\277~aD\000)\337\276\2771\343\301{b\340\276\2771\343\301{b\340\276\277\212\257gSQ\022\347?\377[\220yW\324\276\277\315\275hr\320}\276\2771\343\301{b\340\276\277\240\026E\013U\337\276\2771\343\301{b\340\276\2771\343\301{b\340\276\2771\343\301{b\340\276\2779\262\310jp\262\276\2771\343\301{b\340\276\2771\343\301{b\340\276\2771\343\301{b\340\276\277b\250\200\227+\337\276\2771\343\301{b\340\276\2771\343\301{b\340\276\2771\343\301{b\340\276\277\305\314#J\346\332\276\2771\343\301{b\340\276\2771\343\301{b\340\276\277Cq\236\335\026\337\276\2771\343\301{b\340\276\2771\343\301{b\340\276\2771\343\301{b\340\276\2771\343\301{b\340\276\2771\343\301{b\340\276\277\300\027\032?vp\253\277s\225#3\334\237\203\2771\343\301{b\340\276\277\353\245\261q\257^\272\2771\343\301{b\340\276\277b\242qe\356\240\276\277\377[\220yW\324\276\2771\343\301{b\340\276\277\205\3049[\224\334\276\2771\343\301{b\340\276\2771\343\301{b\340\276\277\361\303q\3645\337\276\277\006S,\212O\331\276\277\346\201$U\022\333\276\2771\343\301{b\340\276\277-\201\252T\\\336\276\2771\343\301{b\340\276\2771\343\301{b\340\276\2771\343\301{b\340\276\277\372\321\017\030_\353\377?\255D\014~\375\331\266\2771\343\301{b\340\276\277\312\305n\311g@\274\277\271\007\027\310t\333\276\277f\004\211\214\364\242\276\277(\003\346\345t\247\366?1\343\301{b\340\276\2771\343\301{b\340\276\2771\343\301{b\340\276\2771\343\301{b\340\276\277\323Y\"x5\336\276\2771\343\301{b\340\276\277>B\364x\374\335\276\2771\343\301{b\340\276\277\334\211bZ\344\266\276\2777\030\353\245\030\330\276\2771\343\301{b\340\276\277\267\230\243}\306\263\274\2771\343\301{b\340\276\277\276\333\276H\271\250\276\2771\343\301{b\340\276\2771\343\301{b\340\276\277\217\330r\0232\267\276\2771\343\301{b\340\276\2771\343\301{b\340\276\2771\343\301{b\340\276\277BT)\023\377\235\276\277VO\205\251\\\264\276\2771\343\301{b\340\276\277\222\331\230\375g\326\276\277\000K\251\246\030\310\276\277U\265\247\344\004\332\276\2771\343\301{b\340\276\277s\037\367`\005\333\276\2771\343\301{b\340\276\277\022s\253\203\365\304\276\277\307\223\3172K0\276\2771\343\301{b\340\276\2771\343\301{b\340\276\2771\343\301{b\340\276\2771\343\301{b\340\276\2771\343\301{b\340\276\2771\343\301{b\340\276\277t\354A\350H\266\276\2771\343\301{b\340\276\277\216ylC\241$\037@1\343\301{b\340\276\277\266\211\370v]\333\276\277\273\312B\024\343\303\272\277S\225\263\231\363*\267\277\003\241\242i\244M\276\277\031oX\271\202}\276\277\312\027\304\034\331{\372?1\343\301{b\340\276\2771\343\301{b\340\276\277VO\315_-\330\276\2771\343\301{b\340\276\2771\343\301{b\340\276\277\226\270\360A \335\276\2771\343\301{b\340\276\2771\343\301{b\340\276\277\356\3232\335>\314\276\2772\260\014\003\246\273\276\2771\343\301{b\340\276\277\337\353\3017\273\334\276\277\305\326%\273\315\262\275\277\312\335\252\221\\9\275\2771\343\301{b\340\276\2771\343\301{b\340\276\2771\343\301{b\340\276\277j\264\020{\000\007\357?\212c\316\303\344\230*@1\343\301{b\340\276\2771\343\301{b\340\276\277-{\233\"\037\240\276\27764\362\317)\326\276\277\361\204\276\360A\315\276\277\342\276\323:k\322\276\277\330\210\314\334O\337\276\2771\343\301{b\340\276\277%\267l\324\022\234\276\2771\343\301{b\340\276\2771\343\301{b\340\276\2771\343\301{b\340\276\277\010\201\370\272\004\337\276\2771\343\301{b\340\276\2771\343\301{b\340\276\277\352T\026\177\177A\276\277\017\307\350\336\266S\276\277\332rDx\332\327\276\2771\343\301{b\340\276\2771\343\301{b\340\276\2771\343\301{b\340\276\2771\343\301{b\340\276\277\036\242\030\240s\252\003@1\343\301{b\340\276\277\244\323\316\251\217\315\276\2771\343\301{b\340\276\2771\343\301{b\340\276\2771\343\301{b\340\276\277\376\350\016\324f\013q?1\343\301{b\340\276\2771\343\301{b\340\276\277y2\232\233\016\336\276\2771\343\301{b\340\276\2771\343\301{b\340\276\2771\343\301{b\340\276\2771\343\301{b\340\276\2771\343\301{b\340\276\2771\343\301{b\340\276\2771\343\301{b\340\276\2771\343\301{b\340\276\277\267\014\270Y\253\326\276\2771\343\301{b\340\276\2771\343\301{b\340\276\277\014O!v\255\265\276\2771\343\301{b\340\276\2771\343\301{b\340\276\277\355aZ\315/\335\276\2771\343\301{b\340\276\2771\343\301{b\340\276\277\364A\220EM\337\276\2771\343\301{b\340\276\277\342\315\334\356\327\343\232\2771\343\301{b\340\276\277]\254C\365\374\336\276\2771\343\301{b\340\276\277\021\217j\3675\237\276\2771\343\301{b\340\276\2771\343\301{b\340\276\2771\343\301{b\340\276\277\336Q\234\274\222\336\276\2771\343\301{b\340\276\2771\343\301{b\340\276\2771\343\301{b\340\276\2771\343\301{b\340\276\277J\013\3649\030w\275\2771\343\301{b\340\276\277\334\376Wy\203I\274\277\350\350\334\rO\330\276\2771\343\301{b\340\276\2771\343\301{b\340\276\2771\343\301{b\340\276\277\364\245v\264\037\321\274\2771\343\301{b\340\276\277\274\022\367l\301\256\275\277\234jZ\211\210\331\276\277\345+\303\002s\242\276\277\026\346\251}:\323\276\2771\343\301{b\340\276\2771\343\301{b\340\276\2771\343\301{b\340\276\277\340\rH\'h\321\276\2771\343\301{b\340\276\2771\343\301{b\340\276\277\322g|\256\340d\351?1\343\301{b\340\276\2771\343\301{b\340\276\277\350-\205\210\347\201\265\2771\343\301{b\340\276\277\033H\301\244@\325\276\277\250]3<\257\336\276\2771\343\301{b\340\276\2771\343\301{b\340\276\277\250(\202\251\242\244\275\2771\343\301{b\340\276\277\261\327\216/\365\336\276\2771\343\301{b\340\276\2771\343\301{b\340\276\2771\343\301{b\340\276\277\200.G\321\233\226\276\2771\343\301{b\340\276\2771\343\301{b\340\276\277\326\327@\311L\336\276\277\273\'\374j\215]\267\277@\230\305^\372\316\276\2771\343\301{b\340\276\2771\343\301{b\340\276\2771\343\301{b\340\276\2771\343\301{b\340\276\2771\343\301{b\340\276\2771\343\301{b\340\276\2771\343\301{b\340\276\2771\343\301{b\340\276\277/\033\320\317\204\334\276\2771\343\301{b\340\276\277O\014\223\262\201\377\020@\233\016Z\230\n\033\276\277F\357\274..\337\276\2771\343\301{b\340\276\2771\343\301{b\340\276\2771\343\301{b\340\276\277\263\205\\\354\272\246\210?t\353\373$\320\007\276\277\362\t\265\240A\330\240\277\273]\350\255r\314\276\277b\250\200\227+\337\276\2771\343\301{b\340\276\2771\343\301{b\340\276\277{\356\375O\023\255\276\2771\343\301{b\340\276\2771\343\301{b\340\276\2771\343\301{b\340\276\277\200\022\210][\274\276\2771\343\301{b\340\276\277ul\017\250\351\026\274\277cB\246\022T\335\276\2771\343\301{b\340\276\277\014\2360\342\353u\271\277\277\032\272\002~\336\276\277\221\002w\361\037,\273\277%\267l\324\022\234\276\2771\343\301{b\340\276\2771\343\301{b\340\276\2771\343\301{b\340\276\277\024F\005=v\336\276\2771\343\301{b\340\276\277|\252a\004\030|\276\2771\343\301{b\340\276\277\312\n\354W\035\341\267\2771\343\301{b\340\276\2771\343\301{b\340\276\2771\343\301{b\340\276\2771\343\301{b\340\276\2771\343\301{b\340\276\2771\343\301{b\340\276\2771\343\301{b\340\276\277\310D[FN1\276\277\244\236\345/|\022*@1\343\301{b\340\276\2771\343\301{b\340\276\2771\343\301{b\340\276\277\227\234\351\027\017\337\276\2771\343\301{b\340\276\277\302\230\330S\225\336\276\2771\343\301{b\340\276\277\030^I\t\266\334\276\2771\343\301{b\340\276\277\343\354\237k \330\276\2771\343\301{b\340\276\2771\343\301{b\340\276\2771\343\301{b\340\276\277\177\344\003\343v\332\276\277\361\303q\3645\337\276\277m#\272\276\326\332\276\2771\343\301{b\340\276\277L\310\235\261\225\364\275\2777\352FR\361f\276\277\222\211\376&5\270\276\277\353_$\037\004\222\263\2771\343\301{b\340\276\2771\343\301{b\340\276\2771\343\301{b\340\276\2771\343\301{b\340\276\277\247y:f\300\334\276\2771\343\301{b\340\276\2771\343\301{b\340\276\277g\321\323\0238~\276\277h\275\316\323S\n\325?\315\220R\230\362\336\276\2771\343\301{b\340\276\2771\343\301{b\340\276\2771\343\301{b\340\276\277\324\230\215\305X\314\276\2771\343\301{b\340\276\277\t\203\275O\3162\261\277\375\364\327\300\032\327\276\2771\343\301{b\340\276\2771\343\301{b\340\276\2771\343\301{b\340\276\277\226\270\360A \335\276\277T\230\352c\034u\276\277\222\032\263\271\024%\274\277\307\260\324i\004\271\276\2771\343\301{b\340\276\2771\343\301{b\340\276\2771\343\301{b\340\276\2771\343\301{b\340\276\2771\343\301{b\340\276\277\227\375\335c46\272\2771\343\301{b\340\276\277\230\255\2104}\307\276\2771\343\301{b\340\276\2771\343\301{b\340\276\277\010\201\370\272\004\337\276\277\304!\027\374~\320\276\277\221\260\313:\372\342\263\2771\343\301{b\340\276\277\361b\360J\304\264\276\2771\343\301{b\340\276\2779F\267\326\315\335\276\277Vj^\333\276\372\242\2771\343\301{b\340\276\2771\343\301{b\340\276\277\210BX\254\253\334\276\277f\271\227KC\205\275\2772X\267\232\001s\274\2771\343\301{b\340\276\277Y\372\001\213\"w\276\277\220r\340D+\331\276\277\"r\312w$\333\276\2771\343\301{b\340\276\2771\343\301{b\340\276\277\213\327\332\n\221Q\001@n\206\2553\241\273\266\277\000K\251\246\030\310\276\2774\203f\274&\325\276\277\217\3641\207r\221\276\2771\343\301{b\340\276\2777\336(\356v\352\275\277\005^L\341!\313\276\277\336Q\234\274\222\336\276\2771\343\301{b\340\276\2774}W\212\351\226\276\2771\343\301{b\340\276\277\261\327\216/\365\336\276\277\017\027[\330[\335\276\2771\343\301{b\340\276\277 OF{\317[\276\2771\343\301{b\340\276\277\nkpV\217\327\276\277z\020\314\365\220\305\276\2771\343\301{b\340\276\2771\343\301{b\340\276\2771\343\301{b\340\276\2771\343\301{b\340\276\2771\343\301{b\340\276\277\226\345\006\034\376{\276\277\272\241<C\235\331\276\2771\343\301{b\340\276\277\325\030\366\004;\356\266\2771\343\301{b\340\276\277\317\366s\230\334q\272?1\343\301{b\340\276\277[\316\327\006\237\301\264\2771\343\301{b\340\276\277\016\021\224\\\357\302\276\2771\343\301{b\340\276\2771\343\301{b\340\276\277\"9\2269\314\277\276\277U2\350\001\267\336\276\2771\343\301{b\340\276\277\177\344\003\343v\332\276\277~\203\312\357\325\323\276\2771\343\301{b\340\276\2771\343\301{b\340\276\2771\343\301{b\340\276\2771\343\301{b\340\276\277\205\205\206W\240\312\276\2771\343\301{b\340\276\2771\343\301{b\340\276\2771\343\301{b\340\276\2771\343\301{b\340\276\2771\343\301{b\340\276\2775\373\005H\242\336\276\2771\343\301{b\340\276\2771\343\301{b\340\276\2771\343\301{b\340\276\2771\343\301{b\340\276\277\243\013\350\020RC\271\2771\343\301{b\340\276\277g\350\311\030\264\310\276\277+\177HP\202\031\255\277xNY\017O\270\276\277Rj\366U\331\332\276\2771\343\301{b\340\276\2771\343\301{b\340\276\277\'j1\253\3612\355?\274\022\367l\301\256\275\2771\343\301{b\340\276\2771\343\301{b\340\276\277\317*x\023\033\335\276\2771\343\301{b\340\276\277dl\341^\'\217\302?\226\374\374 z\306\276\277\333\232I-#\303\276\2771\343\301{b\340\276\2771\343\301{b\340\276\277._\334\256\336\305\276\2771\343\301{b\340\276\277\224\327\\1\222\242\274\277\350e\035+\001\335\276\2771\343\301{b\340\276\2771\343\301{b\340\276\277-u\214\360\341a\276\277\377[\220yW\324\276\2771\343\301{b\340\276\2771\343\301{b\340\276\2771\343\301{b\340\276\2771\343\301{b\340\276\2771\343\301{b\340\276\2771\343\301{b\340\276\277W\006*\256\000\221I\2771\343\301{b\340\276\277`\004\203-3\241\257\277xN\241\305\037\334\276\2771\343\301{b\340\276\2771\343\301{b\340\276\2771\343\301{b\340\276\2771\343\301{b\340\276\2771\343\301{b\340\276\2771\343\301{b\340\276\2771\343\301{b\340\276\2771\343\301{b\340\276\277\006\320l\247\001\336\276\2771\343\301{b\340\276\277\342\255\354g,\306\276\2771\343\301{b\340\276\2771\343\301{b\340\276\277\n\340\'\241m\300\256?1\343\301{b\340\276\2771\343\301{b\340\276\2771\343\301{b\340\276\2771\343\301{b\340\276\277m\373lS\275\313\276\277\262\'\341OW\331\276\2771\343\301{b\340\276\277\351\377B\246)\333\276\2771\343\301{b\340\276\2771\343\301{b\340\276\277#\000\322\216\322\\\276\2771\343\301{b\340\276\277\342\276\323:k\322\276\277l(\023\232<\262\276\277\276\354\245\033\370\264\276\277\260\370\316[)%\276\2775-\235\332s\351\275\277\353\245\261q\257^\272\2771\343\301{b\340\276\277\330\'K3\336\264\276\2771\343\301{b\340\276\2771\343\301{b\340\276\2771\343\301{b\340\276\2771\343\301{b\340\276\277\325:)+wE\274\2771\343\301{b\340\276\2771\343\301{b\340\276\2771\343\301{b\340\276\277\375\252\004fT\323\276\277\352H\370\032\005\305\275\2771\343\301{b\340\276\2771\343\301{b\340\276\2776\310\230\205\266\335\276\2771\343\301{b\340\276\2771\343\301{b\340\276\2771\343\301{b\340\276\277\304!\027\374~\320\276\2771\343\301{b\340\276\2771\343\301{b\340\276\2771\343\301{b\340\276\2771\343\301{b\340\276\277\220r\340D+\331\276\277\325\n\256\2138\337\276\2771\343\301{b\340\276\277/!O\225 \323\276\2771\343\301{b\340\276\2771\343\301{b\340\276\277\345\347\376\331\351\334\276\277\035\327~\022\306\275\276\2771\343\301{b\340\276\277\2343\023\216z\310\231\2771\343\301{b\340\276\2771\343\301{b\340\276\277\224(\370#\302\277\270\2771\343\301{b\340\276\2771\343\301{b\340\276\2771\343\301{b\340\276\2771\343\301{b\340\276\2771\343\301{b\340\276\2771\343\301{b\340\276\277\001\007\r[\035\227\276\2771\343\301{b\340\276\277)\003\301\3217a\254?\336E\306\016\351\205\276\277\nkpV\217\327\276\2771\343\301{b\340\276\277\230\255\2104}\307\276\277y7\376\211\024/\271\277\345+\303\002s\242\276\2771\343\301{b\340\276\277\322g|\256\340d\351?\'\270\332t\031\337\276\2771\343\301{b\340\276\277\016}5]3\337\276\277T+\211 2\356 @1\343\301{b\340\276\2771\343\301{b\340\276\277\236e\271\367Q\336\276\277\257\334/\301+\332\276\2771\343\301{b\340\276\2771\343\301{b\340\276\277xe\007^\372\336\276\2771\343\301{b\340\276\277\024\036(e\273\207\276\2771\343\301{b\340\276\277\226\353\025N;\272\276\2771\343\301{b\340\276\277\211\032\356v\244\262\271\2771\343\301{b\340\276\2771\343\301{b\340\276\2771\343\301{b\340\276\2771\343\301{b\340\276\277\n\257|5\351\300\276\277~aD\000)\337\276\2771\343\301{b\340\276\2771\343\301{b\340\276\2771\343\301{b\340\276\2771\343\301{b\340\276\2771\343\301{b\340\276\2771\343\301{b\340\276\2771\343\301{b\340\276\2771\343\301{b\340\276\2771\343\301{b\340\276\277\r\n?g9\326\275\2771\343\301{b\340\276\2771\343\301{b\340\276\2771\343\301{b\340\276\2771\343\301{b\340\276\277\200\310\374\270e\334\276\2771\343\301{b\340\276\2771\343\301{b\340\276\2771\343\301{b\340\276\2771\343\301{b\340\276\277\326\327@\311L\336\276\2771\343\301{b\340\276\2771\343\301{b\340\276\277\0270}\330\000\327\276\2771\343\301{b\340\276\2774r\177\351\347\310\276\2771\343\301{b\340\276\277\376E\003O\371\031\242?E\372\334\205\000\321\276\2771\343\301{b\340\276\2771\343\301{b\340\276\2771\343\301{b\340\276\277\024F\005=v\336\276\277U\r\245\204\024a\246\277\n\264E\244\255P\276\277\'\270\332t\031\337\276\277OX\241\342\223\213\276\277\275i.\357z\335\276\2771\343\301{b\340\276\2771\343\301{b\340\276\277\212n\3003\375\031\275\2771\343\301{b\340\276\2771\343\301{b\340\276\277\007\367\233,0\323\275\2771\343\301{b\340\276\277\353\245\261q\257^\272\277{\335\026}\324\240\276\277\210\347\235~\246\314\276\2771\343\301{b\340\276\2771\343\301{b\340\276\2771\343\301{b\340\276\2771\343\301{b\340\276\277cW\200$=\203\275\2771\343\301{b\340\276\2771\343\301{b\340\276\2771\343\301{b\340\276\2771\343\301{b\340\276\277\203M4\313d\331\313?\307\000o@7\327\276\2771\343\301{b\340\276\2771\343\301{b\340\276\277\005R.}\247N\276\277F\301\030\333\006n\276\2771\343\301{b\340\276\2771\343\301{b\340\276\2771\343\301{b\340\276\2771\343\301{b\340\276\277K\007q\216\314\225\276\277\241\025\337n\231\241\275\2771\343\301{b\340\276\2771\343\301{b\340\276\277"
      }
    }
  }
}
node {
  name: "tensors/component_5"
  op: "Const"
  device: "/device:CPU:0"
  attr {
    key: "_output_shapes"
    value {
      list {
        shape {
          dim {
            size: 750
          }
        }
      }
    }
  }
  attr {
    key: "dtype"
    value {
      type: DT_DOUBLE
    }
  }
  attr {
    key: "value"
    value {
      tensor {
        dtype: DT_DOUBLE
        tensor_shape {
          dim {
            size: 750
          }
        }
