node {
  name: "global_step/Initializer/zeros"
  op: "Const"
  attr {
    key: "_class"
    value {
      list {
        s: "loc:@global_step"
      }
    }
  }
  attr {
    key: "_output_shapes"
    value {
      list {
        shape {
        }
      }
    }
  }
  attr {
    key: "dtype"
    value {
      type: DT_INT64
    }
  }
  attr {
    key: "value"
    value {
      tensor {
        dtype: DT_INT64
        tensor_shape {
        }
        int64_val: 0
      }
    }
  }
}
node {
  name: "global_step"
  op: "VariableV2"
  attr {
    key: "_class"
    value {
      list {
        s: "loc:@global_step"
      }
    }
  }
  attr {
    key: "_output_shapes"
    value {
      list {
        shape {
        }
      }
    }
  }
  attr {
    key: "container"
    value {
      s: ""
    }
  }
  attr {
    key: "dtype"
    value {
      type: DT_INT64
    }
  }
  attr {
    key: "shape"
    value {
      shape {
      }
    }
  }
  attr {
    key: "shared_name"
    value {
      s: ""
    }
  }
}
node {
  name: "global_step/Assign"
  op: "Assign"
  input: "global_step"
  input: "global_step/Initializer/zeros"
  attr {
    key: "T"
    value {
      type: DT_INT64
    }
  }
  attr {
    key: "_class"
    value {
      list {
        s: "loc:@global_step"
      }
    }
  }
  attr {
    key: "_output_shapes"
    value {
      list {
        shape {
        }
      }
    }
  }
  attr {
    key: "use_locking"
    value {
      b: true
    }
  }
  attr {
    key: "validate_shape"
    value {
      b: true
    }
  }
}
node {
  name: "global_step/read"
  op: "Identity"
  input: "global_step"
  attr {
    key: "T"
    value {
      type: DT_INT64
    }
  }
  attr {
    key: "_class"
    value {
      list {
        s: "loc:@global_step"
      }
    }
  }
  attr {
    key: "_output_shapes"
    value {
      list {
        shape {
        }
      }
    }
  }
}
node {
  name: "global_step/IsVariableInitialized"
  op: "IsVariableInitialized"
  input: "global_step"
  attr {
    key: "_class"
    value {
      list {
        s: "loc:@global_step"
      }
    }
  }
  attr {
    key: "_output_shapes"
    value {
      list {
        shape {
        }
      }
    }
  }
  attr {
    key: "dtype"
    value {
      type: DT_INT64
    }
  }
}
node {
  name: "global_step/cond/Switch"
  op: "Switch"
  input: "global_step/IsVariableInitialized"
  input: "global_step/IsVariableInitialized"
  attr {
    key: "T"
    value {
      type: DT_BOOL
    }
  }
  attr {
    key: "_output_shapes"
    value {
      list {
        shape {
        }
        shape {
        }
      }
    }
  }
}
node {
  name: "global_step/cond/switch_t"
  op: "Identity"
  input: "global_step/cond/Switch:1"
  attr {
    key: "T"
    value {
      type: DT_BOOL
    }
  }
  attr {
    key: "_output_shapes"
    value {
      list {
        shape {
        }
      }
    }
  }
}
node {
  name: "global_step/cond/switch_f"
  op: "Identity"
  input: "global_step/cond/Switch"
  attr {
    key: "T"
    value {
      type: DT_BOOL
    }
  }
  attr {
    key: "_output_shapes"
    value {
      list {
        shape {
        }
      }
    }
  }
}
node {
  name: "global_step/cond/pred_id"
  op: "Identity"
  input: "global_step/IsVariableInitialized"
  attr {
    key: "T"
    value {
      type: DT_BOOL
    }
  }
  attr {
    key: "_output_shapes"
    value {
      list {
        shape {
        }
      }
    }
  }
}
node {
  name: "global_step/cond/read"
  op: "Identity"
  input: "global_step/cond/read/Switch:1"
  attr {
    key: "T"
    value {
      type: DT_INT64
    }
  }
  attr {
    key: "_output_shapes"
    value {
      list {
        shape {
        }
      }
    }
  }
}
node {
  name: "global_step/cond/read/Switch"
  op: "RefSwitch"
  input: "global_step"
  input: "global_step/cond/pred_id"
  attr {
    key: "T"
    value {
      type: DT_INT64
    }
  }
  attr {
    key: "_class"
    value {
      list {
        s: "loc:@global_step"
      }
    }
  }
  attr {
    key: "_output_shapes"
    value {
      list {
        shape {
        }
        shape {
        }
      }
    }
  }
}
node {
  name: "global_step/cond/Switch_1"
  op: "Switch"
  input: "global_step/Initializer/zeros"
  input: "global_step/cond/pred_id"
  attr {
    key: "T"
    value {
      type: DT_INT64
    }
  }
  attr {
    key: "_class"
    value {
      list {
        s: "loc:@global_step"
      }
    }
  }
  attr {
    key: "_output_shapes"
    value {
      list {
        shape {
        }
        shape {
        }
      }
    }
  }
}
node {
  name: "global_step/cond/Merge"
  op: "Merge"
  input: "global_step/cond/Switch_1"
  input: "global_step/cond/read"
  attr {
    key: "N"
    value {
      i: 2
    }
  }
  attr {
    key: "T"
    value {
      type: DT_INT64
    }
  }
  attr {
    key: "_output_shapes"
    value {
      list {
        shape {
        }
        shape {
        }
      }
    }
  }
}
node {
  name: "global_step/add/y"
  op: "Const"
  attr {
    key: "_output_shapes"
    value {
      list {
        shape {
        }
      }
    }
  }
  attr {
    key: "dtype"
    value {
      type: DT_INT64
    }
  }
  attr {
    key: "value"
    value {
      tensor {
        dtype: DT_INT64
        tensor_shape {
        }
        int64_val: 0
      }
    }
  }
}
node {
  name: "global_step/add"
  op: "Add"
  input: "global_step/cond/Merge"
  input: "global_step/add/y"
  attr {
    key: "T"
    value {
      type: DT_INT64
    }
  }
  attr {
    key: "_output_shapes"
    value {
      list {
        shape {
        }
      }
    }
  }
}
node {
  name: "tensors/component_0"
  op: "Const"
  device: "/device:CPU:0"
  attr {
    key: "_output_shapes"
    value {
      list {
        shape {
          dim {
            size: 750
          }
        }
      }
    }
  }
  attr {
    key: "dtype"
    value {
      type: DT_DOUBLE
    }
  }
  attr {
    key: "value"
    value {
      tensor {
        dtype: DT_DOUBLE
        tensor_shape {
          dim {
            size: 750
          }
        }
        tensor_content: "\225\320\375D\332\220\354?\371\205\354q\272?\332\277\022\375^\373a\364\351\277t\\4\375:\332\372?Q\211\002\254\317&\343\277\234\312\r\377%\244\311\277\240K\344h\307\026\334?\272\366\255\307\374\335\347\277g\373\310\033F \327\277\271\200\310\303\253\341\347?\234_Q\254\215G\363?\265\310\027\037\221\205\301\277\373\360\370\243\037\036\251\277\032\006H{\257\r\352\277za[\371\363\212\340?\310\365\262W\262\316\343\277\360q\035R.\306\002@>p\220!\3328\320?\231\006\361|\332\217\361?\3330\223B}2\343?\247B\254 \3541\317?4/&]Rc\351\277\355z\313\343\240\030\325\277\t\202Qo/y\010@\000\355\205\t\345e\350\277\205Z|o\317p\215?f@\326\231\035\"\347\277\026s\201q\271f\334?\256\353\2149\343\266\342\277\370\260\236d\235F\344\277\254\254\207\225$\372\346\277\312y\335\r\255\345\300\277\t\177\312o\226+\006@\227\205\350\354\351I\350\277\231\006\361|\332\217\361?\177\374\312^\013x\360?3C\3251\265\036\370?d&{\016)\'\341\277\325m\0053\221I\006@\217\004\3336#\277\010@r\372d\220\232\350r?\221\030;1t2\345\277\357I\377\247Y\312\345\277\332\361{/ss\306?vP\030\377\326\243\361?\227@\325I\371\361\347\277\327\016\023s\\\272\345\277\027\340N\3442O\365?#X=\345\305^\343\277\350-\207\262Q\227\334\277QX0Ko\202\343?\324p\245\305\321\000\324\277\307,\231\334]d\310\277\177\266\316+\001\017\352\2773\242u\206\351D\305\277\263\261\036\266[\302\001@\335@m4\005\332\243?\005\266\267\030\236(\325\277A\325\014O\361&\333?a\033\330\200k\323\350\277\334\335^\313y\304\307\277\275\277\337\326\265\240\324\277@\000\313\213\006\332\345?\362]L4\034*\347\277\177-et\003\363\310?\275\313\373\324\031\327\335\2774t9\000C\273\351\277e\376I\366\305\027\351\277\271N\274\362u\206\204\277s\372\307\206\342\272\342\277\025\217\333\255C\353\263?\265\310\027\037\221\205\301\277V\215\325\226\234@\231\277jT#&\340\201\350\277r\204\334]xh\322?\\\n\375\363\007\236\347\277\177\005\351\024\374\341\347\277\247\010\006\304NO\340\277\177\303\\q\244\327\351\277\207z\251\245Rt\301?\032\244kf~c\315\277\t\2318i\031:\347\277\2775\362ki\004\352\277\203\023(\242\214\246\344\277\332\222+\272\013\317\341\277\3171\216\262\307A\347?>p\220!\3328\320?rbB\374lu\377?>\351y\222\267W\362?\243\000\3255\360%\350\277\236hu\207\227\007\333\277\231\014\377{\014+\366?\234\312\r\377%\244\311\277kbVi>\232\344?v\265\224,\356\221\374?\004\363\245wb\003\316\277\215\004\356\244\261\322\343\277V\334T\334PC\340\277j\017\026\250\010\200\330\277\006@\3309f\202\345\277\275\277\337\326\265\240\324\2775\336\316M5\236\002@\363W>5\352\216\342\277\222\256\203\232\322n\337\277\221\323-\263\2340\325\277\252\217\360Q;\263\307?\374QZ9hN\260\277\007\304\360\200\025\227\341\277\277\025**\2213\363?\355z\305\276\207\302\344\277\232|Vy\225Y\246?\240\354\207\251-\306\346\2775@\327\351AR\346\277\\F\362\340\007\214\360?\257[E\206AX\002@\363\347rz\375\331\347\277Y\203]\255\277;\351\277\373\360\370\243\037\036\251\277\214\001\336\355\362\003\361?^\004\001d!\005\304\277\305q\232\020\003\272\347\277\220\033\365\343L)\277?,/\225\356g|\001@\360\216\022KJ\"\346\277\321+\214\375\307R\343\277\242@\377L\251L\272\277\370\260\236d\235F\344\277\"\353orLv\372?$\002\301k\233\370\355?\024\317\021\017/\276\346\277~{\302\316\0322\347\277J\034U\360Y\017\340\277\213\305\350\000\363\025\350\277\363\001\244\005~\216\351\277\035\361\257\227\315\344\305\277\026Y8U\020n\347\277\360t\244Q\307\023\005@\335gy\307(\310\327\277\"\324*\303/\240\327\277Z\200\326\255&\356\346\277/\323).\314:\343\277<\226\235\253\315\250\n@\213\rn\243B\230\350\277\305q\232\020\003\272\347\277\035P\000\r5\211\352?\261\332#c\251\250\355?\262\3344\203\2124\300?\316\027?q\005\363\341\277\370|\310\226\260\177\362?aw\225\257C\222\350\277f@\326\231\035\"\347\277S\240M\200\005S\366?\357I\377\247Y\312\345\277\247B\254 \3541\317?\222\234Sx#G\341\277\003\017\000\264\354\207\325?a\256\204\352\366\236\336\277\317y\253\347]\022\372?\244,\342\350\257\235\253\277\240K\314\327\236\322\350\277E\376\362\307T\005\352\277\370\202\326\225\342\032\367?\262\211\000\014\207\306\344\277y\335N\374v\"\345\277Nh\313-@\035\256\277\3545\262\033\227j\344\277\267\334R<\010\343\341\277\242bN\365\275\002\013@I\262\213\352lI\351?\304n\212YD\353\364?\233T\"\326\273Q\351\277FgX\331\376S\303?\253\034SP\021\257\341\277\222]N\324d\212\345\277\352\360\236x\246\022\344\277a\237R\020\273C\362?\327\0325\226\331F\337\277R\246[\1777\356\372?\212\253\223\232\027q\322\277|\254\216\nb\200\326\277\346\342_\353\025N\347\277\335\254\233E:\355\351\277\271\261\232$\014\206\347\277\304&m$\256\032\342?\305\022\031t\217S\006@>\247v\246\205\316\344\277\257[E\206AX\002@A\325\014O\361&\333?\265\'h\224\370)\346?\025\204\366\221%!\322\277k\330;m\217\226\344\277\327\311\377\317kb\345\277\374\017\023\270\233\357\332\277\372\223\031\220\377\001\346?n\304-\341z\240\351\277G\"Q\200@\250\323?\"\0318A\007\242\347\2774\213\343\213*\"\351\277\n\341IT}^\371?\003\026\003\r|A\224\277q7\260\300\215?\333\277\362\216$\272\225$\307\2770]Pt\255\352\343\277\375\\?U\206\030\322?i7Nny>1\277\362\216$\272\225$\307\277\262\211\000\014\207\306\344\277@\361f\213{\253\262?(iN\271\223r\313?\027\340N\3442O\365?\376==\325n\237\241\277\261\377\331\305\245\026\344\277\366:\271`LJ\344?G\"Q\200@\250\323?\004\363\245wb\003\316\277W\363\237\260\206o\363?z.\204\302\344\006\337\277\203\023(\242\214\246\344\277ph\202!\356\343\312\277\311\017\016\343\246\311\351\277h\241(\326\346\365\351\277\301\337T\253\016\343\317\2773\242u\206\351D\305\2770\270?\276%\331\250?\303\025\240s(\241\010@\252\217\360Q;\263\307?\207\036\347\331\205\021\352\277\254\230d\t\326\340\351\277\026\236K\370\000\306\347\277\000\242dg\302r\343\277t\024\027\310\244\t\350?\021\325\n\016\'6\351\277(\374\304\333\264_\332\277%r\230p\272Y\351\277\023E\353\310M\016\346\2777\2345ah\326\371?S\232?\201\323\267\361?\231\247\370\227\214\252\000@\233\035Bv)\022\345?b\347ujjj\345\277[_%\3344\014\352\277\344\243EG\035n\351\277\346\342_\353\025N\347\277\026\032]\264\001\014\276\277C\346h\334\265w\005@K\016Ucw\264\351\277\031\021\310\262\372\016\351\277\273}\200\301\204\351\275?\'\337\311\275\177\255\006@_\337J\001%\227\335\277\255g\211\362m\305\350\277x\257\206-\274\366\367?\025\204\366\221%!\322\277\210\261\233t0\266\346\277C\247V\357\201\375\376?\263G\211hi\337\350\277\\\363\025\372\035\335\010@Q\265\017_\217\236\246\277K\254\217Z\206\260\325\277\305\242u\'k\325\350\277\224,\210\2756\222\346\277\331\3272\023\312z\341?\021B\227|\364i\273?\343\211\377\273b\226\345\277v\336soq\214\273\277\0204:<^\037\351\277}\016\365[\241I\376?\374\017\023\270\233\357\332\277\224]x\324\330\320\351\277\235\346g;\260(\321?.\2328\256Xo\334\277\226\260\240\004\346\246\342\277\345*\243\374\310E\300\277\213\200\325]\002\276\347\277\345\r\030\003\022\253\341\277\356w+Q`a\007@\360\216\022KJ\"\346\277\026\032]\264\001\014\276\277\273\034\t\247\031\370\351\2773&|^MW\340\277e\242\214\307\355X\351\2774\007\346i\316\206\337\2778\312\375/#\002\347\277\234\330:\035kf\345\277\007\205\361\001p0\326\277\352-\235\270\016\374\351\277UD.\t\2158\351\277\377\3220\243\t\301\322\277\203\0316\241\276A\351\277r\372d\220\232\350r?\021B\227|\364i\273?\341xN/s\247\350\277\200\377\332\025\312F\343\277\033B\323\356\357\306\336\277\315\273D\324*\332\002@p1\234\234BN\346\277\352,P\320\013+\265?\224\263\236LYs\364?\"^K\344\367\371\347\277\2205\363\273\2154\351\277\036{\312\223|\350\325\277\203\324(#\347?\331\277\347\'s\216\006\246\347\277\252\002\345V\216\240\000@Z>J\n\317\343\350\277\230n>a\002\343\350\277\356\363(\003\266X\253?\272;\301j\3555\350\277\260\272\306\"\265\276\343\277\020|\277\336\255\241\351\277\265\'h\224\370)\346?,O\021\347\034&\347\277\321+\214\375\307R\343\277\344\324&\203\236\337\332\277\246\270\'%\330l\n@\322\372\263wNX\323?\347\'s\216\006\246\347\277\241+\215M\354\202\342\277>NUw\200\200\351\277\213p\271\355)\020\352\277q\276I\342\274K\351\277\227\205\350\354\351I\350\277\367F\325^\260\200\355?\352!k\264\355`\323\277`8\223\234s\366\335?\364\234Q\330\332\346\342\277\035P\000\r5\211\352?\234_Q\254\215G\363?>p\220!\3328\320?9\t\003\324\341\276\342\277Z\200\326\255&\356\346\277t\265\306R=e\303\277\352,P\320\013+\265?\240\255\210*\210_\333\277FgX\331\376S\303?nbb\263pF\345\277\374#E\037\013\326\351\277,I\003\350\352\212\342\277f@\326\231\035\"\347\277\315\032=\271x\277\363?\315\304\026A\370\034\351\277\275\004\355T\215\242\344\277\226\260\240\004\346\246\342\277?\362\227H\250\301\351\277\266\374\251W\343v\333?~{\302\316\0322\347\277\357A\340\210F\243\316\277FgX\331\376S\303?\"r\206\001oW\330?y6\235\274\336\327\325?\304\347s\312!\n\347\277\253gt\3623\242\346\277\254\306\270 \245\256\350\277\356\363(\003\266X\253?\302W?\205\016\277\341\277|\"\214\237\333\300\351\277\tT%\306(\342\346\277\324y!1\365\177\017@\026Y8U\020n\347\277\226\244\220A\210\267\223?\201\002\331]=\023\365?\262\3344\203\2124\300?\261\332#c\251\250\355?\236\035N\300[\276\345\277\243\265\263\223\3152\343\2773I\3430\347\271\374?p\255\211z\254\217\332\277\352\360\236x\246\022\344\277\003\026\003\r|A\224\277_I\010\275\337\260\323\277Mg\240\222\360H\351\277Kah\223Jg\340\277:\263\206Z\267X\355?\336\010Yt\022\254\351\277q\273\302\342#\376\346\277\372\177\330MoN\345\277\376\223:\332k\321\350\277DH^\n4\030\016@\327\220\032\232*C\317\277`Fh*\237\371\005@\243\000\3255\360%\350\277x\244]|\003W\336\277\265\026\303Q;\347\351\277\363\242_\327\014\202\347\277\0204:<^\037\351\277\335@m4\005\332\243?K\254\217Z\206\260\325\277\r\247w\366\251\376\343\277\247B\254 \3541\317?\347\036U\330\025<\360?\245\215C~\370\315\262\277\006\376`\226H\233\351\277\357A\340\210F\243\316\277E\006\367C\266#\314\277I\204.\035\226\004\351\277D\244.\247\232\352\350\277\276\312\304\362\323j\266?\000\302\273\202\235\006\335?\017\362\236\275\345G\331\277\273\200\324\r\336\215\350\277\255\201\3033\366\360\353?\261\303H\263\361\223\017@\317\\R\024\366J\342\277\367F\325^\260\200\355?\324p\245\305\321\000\324\277\212\305\334\266\300i\347?\242p\240\360\334\332\342\277\324.=\375\324\346\351\277\217\3315\215\265u\351\277E\311\002\300\330\362\342\277w\021\261\022x\213\350\277L\353\216\331+\027\341\277\276\0338)\303\316\367?X\366\257gE>\346\277#\243^\207\350Q\350\277\255\201\3033\366\360\353?\377\354y\277\262\271\347?\360I\005\315r \326\277:\017&\323M}\351\277g\373\310\033F \327\277$\214w\215\376\220\t@\027p\367\3401\370\350\277>\247v\246\205\316\344\277\363\001\244\005~\216\351\277\235\375\321\307\246\024\000@\037J\376W5\232\346\277\363\242_\327\014\202\347\277H\351qo\030\337\335\277\343G\210\030E\257\351\277u\212\374\313\365\005\350\277\233H\006\330W\033\340\277+$G`\325\306\333?\201J\374\267\3549\350\277\267\342`;:~\346\277\330\254t\326\264\307\326?\356\004\354\004ir\345\277\357A\340\210F\243\316\2773Qe \277\356\351\277\314\177\003\236\007\305\350\277+\020\022hw\277\333\277\224q\233`\'\352\346\277\007\326 \243\304\276\337\2770\224\021\034\177j\014@u\317\017o\346]\350\277\364\307\366\201H0\002@\022\276`\202?\317\351\277\225\025\3631\211N\351\277\022\372\311&+\033\341\277\233=xJ\324\352\351\277\032\244kf~c\315\277*z\311\376\030\203\341\277`z\007\257\242\274\350\277\241y5\357\247\303\351\277\212\253\223\232\027q\322\277\226\266\264(1\230\327\277\336\031\270\222\305\035\005@+\305\352\240;v\346\277\267\334R<\010\343\341\277(\267\2618\304\007\332\277\020\215\374\263\2612\370?_I\010\275\337\260\323\277\007\250\270\221>\017\352\277;\223)\032\303n\343\277 \361}q~\021\377?{d\374\027]\020\352\277\214\001\336\355\362\003\361?8\312\375/#\002\347\277\210A\273\271\t\336\351\2772\347v\272\216\232\344\277\223\277\272J\275\251\375?2\347|\337\247\360\324\277\037J\376W5\232\346\277\026\032]\264\001\014\276\277q\273\302\342#\376\346\277\234\330:\035kf\345\277i\370e\367\007\303\350\277\320\357\rY\242\343\351\277\177\303\\q\244\327\351\277\326\317\r\317\235\375\351\277M\324\021\337\246\027\327?\327\016\023s\\\272\345\277\242@\377L\251L\272\277G\"Q\200@\250\323?\217\325.q?\n\352\277\304,\207m\022b\347\277r\204\334]xh\322?\264\031;v\263g\332\277\211\253\215u\376\032\342\277\341^55\0337\332?\\\030\036\310\032\264\302?\367F\325^\260\200\355?/\366\220\000f\235\377?\300\210\005\234<\267\340\277\241v\256\357\016v\347\277\177\303\\q\244\327\351\277\t\263i\364\231\356\350\277\377\3220\243\t\301\322\277\362\216$\272\225$\307\277\210\235x\350\341\234\351\277;k\343\001&<\351\277\342D\354\030r>\345\277\265\310\027\037\221\205\301\277\027\332@\345\000\264\360?\326\204\354,{\n\345\2775q\243%\211\240\325\277\346\243`lp\347\333\277\352!k\264\355`\323\2779T$v\004\262\347\277\010\237:\036\031)\353?\247h9\025\234\252\267?#g\241\345P\215\266\277\275\277\337\326\265\240\324\277h\006\2567d\352\270?\356f\2672s\314\351\277=#d\204\357\017\331\277\360\242A\036\217\323\305?\236\035N\300[\276\345\277\347U\375\354?R\315?\035\361\257\227\315\344\305\277#g\241\345P\215\266\277\313\276\344fk\221\320\277\206\272\247\273\325\035\375?+\277\334\241\t\333\341\277f@\326\231\035\"\347\277<\365\tH\007\354\351\2777\205\352\2142\252\346\277?\346{JD\213\340\277O\377\317\033\274\312\341?z+\270\240\300\r\264\277\256=a\006\267\204\216\277%\'w\316\227f\344\277\r\247w\366\251\376\343\277e\321g?\246\023\352\277u\351X\213\217V\335?\3714\267\253L[\340\277H\021\307b\326\336\351\2771\266\222\352\342\363\303?\236\304\315\331\2445\376?\005:\276\360\001;\340?\006\221\r\000\324f\337\277@\231}D?\013\352\277\252\2103\231\303\017\352\277+\323hd\347-\020@z\"b\237gz\345\277\362\216$\272\225$\307\277X\366\257gE>\346\277\364\341X1\231\222\342?\332<\257@\341h\354?E\006\367C\266#\314\277\217Z>\035\246\273\362?0U1U\232\303\314\277\003\026\003\r|A\224\277\034\353\217)PG\340\277j\017\026\250\010\200\330\2771\266\222\352\342\363\303?}\353\215\211\007\347\341\277\254u\2475\222\272\342?*5\266[(+\341\277\315\322+\316\024\233\341\277\322\024\245\003\336\221\004@\206\342a\213^\256\345\277/\250e\314\2351\350?a\245`\017\355\336\366?6\365\265G\037_\341\277\347U\375\354?R\315?u\317\017o\346]\350\277\245\262\031&\246\321\005@\222]N\324d\212\345\277\004\363\245wb\003\316\277\005:\276\360\001;\340??\255\212\312\320\277\331\277\346\337\013\237\274\251\274?\357\210\370\001\346\332\340?a\256\204\352\366\236\336\277\277\256j\266I\346\336?;\223)\032\303n\343\277J\034U\360Y\017\340\277\252dd;u\323\363?\\\323\026o\\\010\323?\265D\027i\n\265\350\277GS)\006\272\242\343\277o\241gW/\003\341\277\254\257\016\225\275G\351\277\250(c\004C9\352?`8\223\234s\366\335?\347\345\346\352\256\233\351\277\276\331(\363^\231\351?\027\343^\233\361\035\350\277\373\360\370\243\037\036\251\277g\312\374\337\376\321\347\277\360\216\022KJ\"\346\277(\277\3122\276\330\320?Q\211\002\254\317&\343\277\007\312\376\177G2\346\277\254\254\207\225$\372\346\277\251mm\361+\032\351\277\032\241\003#\252\361\351\277\010@\352\250\261\204\306\277\234_Q\254\215G\363?^\224#:\351M\350\2779\220\031c\004\240\360?+\277\334\241\t\333\341\277]\2327^4?\335\277#\211\360\215eC\007@\327\311\377\317kb\345\277kS\362h\263k\261?\372\223\031\220\377\001\346?\ny\274pd\220\001@\0346\261\313r:\345\277\327\220\032\232*C\317\277\245\204\355|\237:\344\277\0177\254;\275I\351\277\302io\247\275\346\337\277M\324\021\337\246\027\327?9T$v\004\262\347\277\265\r\037xO1\321\277\254gz\027M\370\326\2773\242u\206\351D\305\277\304\014\013u]\270\001@\030.\206b-g\335\277*O\005\235\352y\346?\356\200\300O+J\016@\323\301\324f&\217\335\2770\030=\321\274\222\343\277\266\374\251W\343v\333?\246\013\004\014\302\033\362?5Z&+\004\241\353?\330\016\031\230u\020\326\2775q\243%\211\240\325\277?h\024\030l\022\352\277\014hrR\353A\350\277\237v\242\245\334\311\346?-\363h\270~\212\351\277\273}\200\301\204\351\275?\265\r\037xO1\321\277\026\016\027\263\355z\342\277\t\263i\364\231\356\350\277z\251x.\212[\363?\271\261\232$\014\206\347\277^\004\001d!\005\304\277j=y\232\370\032\351\277\356\376\335\0057\327\340\277z\034T\2405\337\340\277J\356\214!\237\343\362?1\242c\027\236B\344\2775Z&+\004\241\353?\035\361\257\227\315\344\305\277\212\023\010\353\210\325\376?3\001\306\373P\351\351?qv\257?3\246\346\277nbb\263pF\345\277\362\004\026\005\335\270\351\277\026\016\027\263\355z\342\277\241v\256\357\016v\347\277h\006\2567d\352\270?\320\255\207\332c/\334\277\035\361\257\227\315\344\305\277\\\277\333Q\345\252\342\277\234\215\031{Hs\340\277\332\327>]\374&\342\277J\207\315\255W\226\336?\333\335a\\h\345\350\277v\336soq\214\273\277\2105\242L\224\310\321?\226q\260`a\r\351\277\"\353orLv\372?3\001\306\373P\351\351?\245\262\031&\246\321\005@\264\310\005\260E\203\340\277G_K)7/\335\277\317\\R\024\366J\342\277\251\010\363U\300;\005@\374#E\037\013\326\351\277\036X\032\217S\014\352\277E\311\002\300\330\362\342\277\373\360\370\243\037\036\251\277\003\026\003\r|A\224\277\267-\210\002v\307\333\277\304,\207m\022b\347\277\t\2318i\031:\347\277\331\2309\271=j\346\277\004\302\323\026\002_\336\277$\214w\215\376\220\t@\367\373\277\006\3009\351\277\327\303\361\3209\307\340\277IS;u\005\245\304\277Jgv\222|\002\345\277kS\362h\263k\261?E\006\367C\266#\314\277\352!k\264\355`\323\277\347U\375\354?R\315?4\242\215\027\022\211\350\277e\373\302\366,\312\346\277@\000\313\213\006\332\345?v\336soq\214\273\277F\233:\361\035\307\365?\373\360\370\243\037\036\251\277\"^K\344\367\371\347\277\023\212\376k>f\346\277i7Nny>1\277\313\276\344fk\221\320\277\000\302\273\202\235\006\335?r\372d\220\232\350r?;\223)\032\303n\343\277Js\230\265\371\216\336\277\017v\261\337{\006\345\277nbb\263pF\345\277\324s\0232\303\344\n@\371\205\354q\272?\332\277\221\030;1t2\345\277\304\242fLJ\010\327\277DY+\273\271\221\347?\016\205F\010\333\376\351\277\003w\254O\306\025\351\277\250\230:\tb\232\345\277V\'v~s6\345\277\003\026\003\r|A\224\277,/\225\356g|\001@_\337J\001%\227\335\277\227\231#\na\247\330?@v\260\217W\326\345\277+$G`\325\306\333?\370\202\326\225\342\032\367?\230\266\233\225\211.\014@\364\271\036c.\014\351\277\270l\207\201\033.\347\277\005\365\266\227C\217\340\277\223\363\226=\303\306\337\277\026\016\027\263\355z\342\277\0333\241\024\264k\362?v\336soq\214\273\277\331\3272\023\312z\341?\023v\333\337\357L\351\277\371@\331\316\311\347\331\2773C\3251\265\036\370?\332\222+\272\013\317\341\277\263\261\036\266[\302\001@\315\273D\324*\332\002@\376==\325n\237\241\277\025\2235U\311\265\235?u\204\356\314\303j\343\277\343J\000=\275/\332\277#\211\360\215eC\007@\224,\216\342O\350\326\277\324\265\262C\251\002\344\277\250y&\032\377\036\244\277\331\303\336b\253\263\005@\016.\216\205\314\337\361?\034\300\305\242\010\350\324?\351l\2061\367\375\347\277"
      }
    }
  }
}
node {
  name: "tensors/component_1"
  op: "Const"
  device: "/device:CPU:0"
  attr {
    key: "_output_shapes"
    value {
      list {
        shape {
          dim {
            size: 750
          }
        }
      }
    }
  }
  attr {
    key: "dtype"
    value {
      type: DT_DOUBLE
    }
  }
  attr {
    key: "value"
    value {
      tensor {
        dtype: DT_DOUBLE
        tensor_shape {
          dim {
            size: 750
          }
        }
        tensor_content: "\357\340(f\232>\274\277\216+\326\324\262\024\360\277_L\320\350\304\253\000@\0015\252e\314%\337\277\033\320\n%\017\203\333\277\233\316\325\262\270j\304?\322 \035D\230\276\277?\320\312^\307\233)\364?i\223x\006\371\017\276\277\225\202Z\305mT\335\277\265b\334C\214\202\347?J>\357I\027u\367?R\256R5\333\035\356\277\t\010\t!_\353\374\2771\n\317,\010&\332\277\264j\272\234\310i\360?,\201\214F;\024\372\277\3768\344\220\034 \001@\0015\252e\314%\337\2773onm\305\310\335\277\311\002]\303\353\221\325?\377`\304p\364\243\360?I\004\2225B\252\314\277s\212\321*\206c\322?f\352P\253&T\344?[\225p+Z\232\363\277\"\217\247\226=w\340?;\260\214\243-\261\345?i\223x\006\371\017\276\277u\177ts\2435\343\277\245\317Y\335\205\014\364?\214d\232D\301\'\263\277\366\300C\361\224\224\362\277\371\275\205Xu_\353?\357\340(f\232>\274\277Z\353m\342\317\035\320?cb\222\357&\344\343\277i\223x\006\371\017\276\277\346\"%\2312\002\357?\261\240\352\315\360\311\000\300}8\327\374\203\310\373\277&\211j\237w\373\342\277\325\235\275\202.\357\321? \034\206\022Z\231\302?\365,\244S\345T\323\277\221\354\026\267\317\216\361\2771\n\317,\010&\332\277:\232V\307Jg\253\277\240\035\273\204\260\261\331\277\270S|\0036l\322\277\213-8\374\257\221\332?\301*\336G<\032\366\277\316\001@\214B\310\351?\264\r\262\211\253\270\231\277\203$\025\263\037\367\342?Gx\216\247\335H\364\277/\374\213#[\331\300\277\361\232f\3352\222\356\277\364)\346\272\305\037\374\277J9\317\211\372\302\365\277\013Y\346\027\270\274\347?6\227\255\250$H\354?\371\357F]\377K\377?\000\220\t&Pd\317\277(\261\251\332\326z\321?\212\027\027\232\306]\370?\224\240Y\200\223o\350\277/\374\213#[\331\300\277\036$\214$Aj\316?4d;\020\034\035\003@\366\225F\035\026\340\334\277\\[\321\315\223\306\366?XE\260k\252\222\344\277#a+d\030|\304\277\256!\276\r$\232\337\277\3571\304\023\002\007\345\277\331\234\240K\205%\346?\336\273}\003\333\033\274?\000\215\237A\2433\261?K,\321p\241)\353\277\261V\336\302\035y\270?\206\335\271\205\361\222\315\277\200\3119\205~\312\266\277\260I\375H\203\031\356?$z\313$\250\366\354?\227\310\230\273\362\356\326?M\273PN4\267\370\277\357\340(f\232>\274\277\351\221C\224\242\367\326\277\025\201%S\027<\306?+\\\311Z\n\301\360?\\\277S\327\247\237\376\277\233\"\333D\315c\353\277\361\232f\3352\222\356\277^I\263\364\035{\352\277/\377\365\007\010\n\257\277\264j\272\234\310i\360?\355\345\304\223\324\336\311?\361C\342\354wR\361?\3457\001\013\310\202\342?\262X\234\303R\036\344\277 \034\206\022Z\231\302?\363\271\202\317\001w\345?\"\021)[wk\343?\353\327\201\212\'\222\320?;\342M\250\267\235\371?\353\254\204\266\250\335\372?P\300p\016Qi\372?Xh\317\346\354_\341?\214d\232D\301\'\263\277\033\305\327\307e\327\000@\006\027\352\344\037\371\264\277\321\206\177\351\233\361\363\277\223\031\270\373<\311\323\277\260\307\017\371qE\205?bH\226\275t\261\336\277\222\326H\332\363\351j?\004\213\247\034B\251\373?,\201\214F;\024\372\277\316\305>\007\177w\362\277f\236\223t\3524\373?\376Jd\324\221\201\315?\037n\315\2439\355\275?F\277\354\343\203\307\312?\367\206\244\223\316\300\365?g\363s\364\266\356\333?\301{\273>\225\353\340?\332\354\242T&6\307\277&\007\351\332=\007\340\277\226\262wY\t\273\364?\343E\310\246W\341\277\277\312r\300\256\257:\374?\256!\276\r$\232\337\277\216\036\330\273Y{\345\277V@\220\253\215\340\322\277P\300p\016Qi\372?v\361\245)\217\346\n\300pf\225x\232\314\351\277\320\362\337K\354\261\324\277\331\234\240K\205%\346?\251\307{\204I%\353?\353\270\321;\2038\000\300Z\321q\260\035\353\352?:\232V\307Jg\253\277\250^\331\272\030\232\341?\320\362\337K\354\261\324\277s\212\321*\206c\322?u\375\362\256iA\340\277\343B^\302\252\260\301?\0021\247\334X=\331\277\305W\177\214\251T\330\277\230\304\2252\177\006\321?\342\241\300\013\242\327\327?\203\230\02443\260\313?\270S|\0036l\322\277\377\361h\016m[\206\277u\3724\026J\014\371?rx\263Q\020\030\366?\302f\337\314\377j\355?\357\340(f\232>\274\277\373@$TX\035\332?q\0073/\243\245\343?.\336J\037D\265\363?3onm\305\310\335\277\004w\345\322\335\327\322?\r\314\007\234\233\232\325\277>\366\014\343\243T\361\277\314\014\235C%\366\310?)\223\252\037\261_\346?\3745\307\234u\357\352\277\345\250\201-5\365\364?\343E\310\246W\341\277\277Q\271\257\354\275K\335?\354\353C\324\213c\371?J\245/\354J\203\326\277s3u\363u\r\310?3onm\305\310\335\277\032\373\007\371\2157\361\277\277\\\237L\306\006\352\277\366\300C\361\224\224\362\277\314\014\235C%\366\310?\216\234V\367\037\207\342\277\335\366\342\324_\232\332\277b\335R\222\315\272\371?E\267M\305\300\316\362\277>d\317l\361\221\374?\036$\214$Aj\316?\255?\275\310I\265\352\277\376Jd\324\221\201\315?\301\375<\003\317\337\343?v\350\026=\324\300\354\277c\r\021\313\341%\002@\363\271\202\317\001w\345?\303\266\341\325\240{\316\277u\177ts\2435\343\277\272\255|C\037\330\364?\0015\252e\314%\337\277/\377\365\007\010\n\257\277x\375\263t\360R\317?\206MG\313\356\275\010\300\367\352&\235\342\231\375\277zR\323.6\373\360?)\300Kd\036\232\370\277\215\231\230^\000R\373?\265b\334C\214\202\347?\256!\276\r$\232\337\277 \034\206\022Z\231\302?\335\316aP\017\022\372?>\236n\312\267e\371\277\227\252\231\000\315\323\353?&\211j\237w\373\342\277\tr\305\022\301%\341?\006\027\352\344\037\371\264\277\317\213\237\251\270\243\365?W\324/I= \362\277\364\305c\261\261F\364?\340\342 \213\373\310\361\277\260I\375H\203\031\356?\241M\330\030L\030\361?\253L\273\341\242N\365\277\212i6r\373\307\300?s\212\321*\206c\322?\006\334\204\023\233z\326?M/\356dHZ\001@\247;\272?\326\314\344\277/\374\213#[\331\300\277_\027\362\357\223\216\366\277\376\326dS~\310\344?(\025,\344\352S\351?!p\213\244n\222\351\277~)5s<\251\324?:\232V\307Jg\253\277\236,\033\305\006\310\356?:\232V\307Jg\253\277d\t.c|J\272?\376\326dS~\310\344?\210~W<\372k\327\277\343B^\302\252\260\301?K,\321p\241)\353\277iX\0235t\221\337?\212\246\226wY\353\345?\331\234\240K\205%\346?\314\014\235C%\366\310?\032\356\t\3404\236\346\277\2461\331\032$d\000\300`:S\264\307d\305\277\260\307\017\371qE\205?\313\004\376$b\375\360\277\306\336 \021\000\373\354\277bH\226\275t\261\336\277\346\207\003\024i\223\303\277\346\"%\2312\002\357?\335!\340\250\336N\360\277\252\213z\377\205\324\363\277\2140\366\224\317\306\361?x\266U8J\324\370\277\\\277S\327\247\237\376\277\343\226cT\277\251\350\2778\205\217\317\256\374\377\277\020&\010\334\204\006\370?\251\307{\204I%\353?\253\220\232\277\242\206\365?\376G\345u\353:\367?\003\270Ha\257\343\355\277`:S\264\307d\305\277Y\357pkC\006\326?\022\262J\244bV\261\277\241\016\031\373h\222\362?\345d\242O5\275\364\277u.\331\305;m\272\277T\023\357f \246\360\277\020\364F\327\372\031\344?4\304N\355\221\202\376\277\032l\210\033\373\251\343\277\326\222`\313K\301\342\277\240\030\372\037\033\373\006\300M\315n\'\252\002\345?\\\277S\327\247\237\376\277\260I\375H\203\031\356?\"C\352_\001X\367?,\030\352|\n\211\360\277cb\222\357&\344\343\277\275k\377\214\034\035\337?\223\3616w\354@\363?\2468\374\246\266\227\375?u.\331\305;m\272\277\346\207\003\024i\223\303\277\222\266\346\205\247.\001@\241\016\031\373h\222\362?\203\230\02443\260\313?\256\340Z\177R\216\344?\206\335\271\205\361\222\315\277\342\241\300\013\242\327\327?\317QB\225\343\330\312\277\216\234V\367\037\207\342\277\0021\247\334X=\331\277\371\275\205Xu_\353?\264\301>\215\203\251\355\277\3571\304\023\002\007\345\277\254\270\033D\363\016\326\277\302f\337\314\377j\355?Z\353m\342\317\035\320?\251\307{\204I%\353?c\340\020+\355\357\340\277\371\275\205Xu_\353?\275k\377\214\034\035\337?4\304N\355\221\202\376\277\377`\304p\364\243\360?\340\342 \213\373\310\361\277\001O\246\227~X\344\277>\236n\312\267e\371\277\000\215\237A\2433\261?Z\353m\342\317\035\320?\221\354\026\267\317\216\361\277\205\270U\365G;\003\300\310\006`L_z\333?\321\206\177\351\233\361\363\277\355<!\313\3444\324?\376\010&X\010\265\370?\311\002]\303\353\221\325?\"\021)[wk\343?\255?\275\310I\265\352\277I\004\2225B\252\314\277\205\215\267|P\202\354?\256\340Z\177R\216\344?\326\222`\313K\301\342\277r4\324s\020\340\365\277\326\010\001\256\325\345\366\277\366\300C\361\224\224\362\277\377\361h\016m[\206\277\233\"\333D\315c\353\277\3163\001\221\314\264\375?\332\354\242T&6\307\277+S:nO\233\002\300\307\177\276\307\010\324\346?\365,\244S\345T\323\277\350Bs\0101s\222\277\332\354\242T&6\307\277\254\270\033D\363\016\326\277\177\222\327<m4\336?SO\360\353\343\366\347?\361C\342\354wR\361?\020\364F\327\372\031\344?\300\332\035\210\214\022\347\277\265&\333\276\3101\360\2778\032L\244\007\006\333?\314\014\235C%\366\310?\376\326dS~\310\344?\030kk\344Q\340\327\277u\177ts\2435\343\277g\363s\364\266\356\333?\334\215@\013/\017\321\277\357\340(f\232>\274\277\032l\210\033\373\251\343\277\0021\247\334X=\331\277b\335R\222\315\272\371?W\30710\344\206\347\277:\232V\307Jg\253\277)\223\252\037\261_\346?1\n\317,\010&\332\277\034\026I\033\224\035\325?\020&\010\334\204\006\370?\373@$TX\035\332?J\303.\247p\236\341\277\303\266\341\325\240{\316\277\362;\004\224;k\350?MK\355bp\016\342?&\211j\237w\373\342\277\252\213z\377\205\324\363\277\034\026I\033\224\035\325?\314`\242\3259\357\357\277\343\226cT\277\251\350\277\274\250\\\203\002&\363\277\301\375<\003\317\337\343?\023\340\207\234\016c\334?\334\215@\013/\017\321\277*\374L\351\341\352\357?\341\336\261^]U\005\300m\262R\257\326\353\362\277?\246L#\364L\342\277\234\303x\373\325<\345?\206\335\271\205\361\222\315\277\026v\310\2334\016\347?\340\342 \213\373\310\361\277Y\357pkC\006\326?\251\307{\204I%\353?8\205\217\317\256\374\377\277\355\345\304\223\324\336\311?\363\271\202\317\001w\345?{?\357\341\001\005\263?\317QB\225\343\330\312\277,\177\353\344\304\250\336?\224\240Y\200\223o\350\277\306H\335\002b5\361?\301{\273>\225\353\340?\226\262wY\t\273\364?\333e\277\206\336\206\360?\240\035\273\204\260\261\331\277\\[\321\315\223\306\366?\037{\350[Q\300\330?\010\336%u\021\346\361\277\2461\331\032$d\000\300\314\014\235C%\366\310?\233\"\333D\315c\353\277\"\202\251}\344\335\365?4.\013\337\363\274\342?WB\362\322\212]\375?\222x\032E4\360\311\277\320\357!\263\314|\375\277\016S\251 \362@\352\277\261V\336\302\035y\270?x\016\364P6\303\360\277\362m\305\230\305W\374?XE\260k\252\222\344\277\215x\005\377\255-\231?\377?\007\035\257S\356?&\007\351\332=\007\340\277\022V\306\024\231q\000@}\023\024\021Su\362?i\223x\006\371\017\276\277\003\270Ha\257\343\355\277\274\026\037\rPc\376?\r\265\237B\211\304\256?\247;\272?\326\314\344\277\274\250\\\203\002&\363\277\373@$TX\035\332?\333&\000i\373\000\362?Z\321q\260\035\353\352?\030\306\312\244\325\036\310\277\301{\273>\225\353\340?\030P\000\002\314!\253?\376\326dS~\310\344?\200\3119\205~\312\266\277\355<!\313\3444\324?\212:\327\271\201/\006\300\216\234V\367\037\207\342\277?\246L#\364L\342\277\023\340\207\234\016c\334?\306H\335\002b5\361?\345\250\201-5\365\364?U\237\362\364\204\007\311\277\"\217\247\226=w\340?\322 \035D\230\276\277?r\216\324\263\371K\330?\371\275\205Xu_\353?g\363s\364\266\356\333?\177\222\327<m4\336?8\034\355\005~q\366\277.\336J\037D\265\363?AP\r#\215\300\323??\246L#\364L\342\277\346\240\243\324\370\r\354?F5\267\206\215\304\247\277\007\347\264a\314\013\000@SO\360\353\343\366\347?\202\203w\374\026\036\351\277T\201\261\360m\343\373?>d\317l\361\221\374?\006\"\005S\021\036\362?,\177\353\344\304\250\336?\034\026I\033\224\035\325?\233\316\325\262\270j\304?)\223\252\037\261_\346?7!\r\306\232#\370?\215\231\230^\000R\373?K,\321p\241)\353\277\2453\334\346\231\345\373\277I\004\2225B\252\314\277\226\327:E:\016\376\277\034\026I\033\224\035\325?\311\002]\303\353\221\325?F5\267\206\215\304\247\277\032\356\t\3404\236\346\277;\260\214\243-\261\345?A\365\255b\t\202\303?u\177ts\2435\343\277;!\"@\2249\240?i\344\023\264`\330\346\277\1776\3240\016G\000\300\r\265\237B\211\304\256?\224\240Y\200\223o\350\277\260I\375H\203\031\356?,\030\352|\n\211\360\277\305W\177\214\251T\330\277Z\0033\265\247\327\376?k\205\261ji\261\340?\031gh[\336\367\321\277\"\217\247\226=w\340?\303\266\341\325\240{\316\277\216+\326\324\262\024\360\2771\003\016\013u\010\375\277\005\206\207\\%\367\371\277\203\230\02443\260\313?\334\215@\013/\017\321\277\367T\343\216D\324\341?{\001\3667\335)\346\277\033\320\n%\017\203\333\277\362;\004\224;k\350?WB\362\322\212]\375?l\356S4\232<\352?\361\232f\3352\222\356\277\\[\321\315\223\306\366?\336\273}\003\333\033\274?q\0073/\243\245\343?\361\232f\3352\222\356\277u\375\362\256iA\340\277\203\230\02443\260\313?\226n\230{\t\203\364\277ZS\363tW\337\355?!p\213\244n\222\351\2771\237\213\001a/\365?\000\220\t&Pd\317\277\336\273}\003\333\033\274?\303\266\341\325\240{\316\277\243r\233\004}k\372\277%\305k$;L\372?\304/\376\007Y\314\367?A\365\255b\t\202\303?\335\366\342\324_\232\332\277\237\264\030\273\177&\320\277\361\232f\3352\222\356\277\314`\242\3259\357\357\277d\3134\271Wo\355\277\226n\230{\t\203\364\277H\346P1+\206\377?i_\324V\007\257\374?\203\230\02443\260\313?o\244\216\"\277\247\266?\212\246\226wY\353\345?E\267M\305\300\316\362\277\">\312\237\344\245\365\277W\324/I= \362\277\">\312\237\344\245\365\277\203\230\02443\260\313?+\\\311Z\n\301\360?\254\270\033D\363\016\326\277)\223\252\037\261_\346?J9\317\211\372\302\365\277\351\221C\224\242\367\326\277W\324/I= \362\277~=\367\274\240z\375?\302f\337\314\377j\355?\357\016\004\364F5\007\300\366\225F\035\026\340\334\277\254\270\033D\363\016\326\277\346\207\003\024i\223\303\277\014+j\345\222\301\313\277i\223x\006\371\017\276\277\344\024\342\217\205\265\345\277\277\\\237L\306\006\352\277\020\364F\327\372\031\344?}8\327\374\203\310\373\277\344\024\342\217\205\265\345\277\212i6r\373\307\300?u.\331\305;m\272\277i\223x\006\371\017\276\277\371\275\205Xu_\353?fl\322o`H\347?l\325\263s\n\302\301\277|\343\366|\267\016\333\277\256!\276\r$\232\337\277\235\023{\004wM\306\277\262X\234\303R\036\344\277\352\030\345\030\371\235\353\277F5\267\206\215\304\247\277\010\336%u\021\346\361\277%\004+B\036\322\370?\0021\247\334X=\331\277\236,\033\305\006\310\356?>\236n\312\267e\371\277\"\217\247\226=w\340?\256\340Z\177R\216\344?\237\264\030\273\177&\320\277\320\362\337K\354\261\324\277\022V\306\024\231q\000@zR\323.6\373\360?\301\353\036*Y\224\367\277J>\357I\027u\367?\307\177\276\307\010\324\346?I\004\2225B\252\314\277XE\260k\252\222\344\277\265b\334C\214\202\347?\353\254\204\266\250\335\372?+\\\311Z\n\301\360?\376Jd\324\221\201\315?\342\241\300\013\242\327\327?<\031/m^<\357?XE\260k\252\222\344\277\366\225F\035\026\340\334\277\314\230\235\302\021=\340?\336\273}\003\333\033\274?;\342M\250\267\235\371?\033\320\n%\017\203\333\277~)5s<\251\324?\221(\030<\223\337\350?\257g\374\003\2514\331?\334\215@\013/\017\321\277\332\032\037\207K1\343?\033\320\n%\017\203\333\277\200\3119\205~\312\266\277\235\023{\004wM\306\277Z\353m\342\317\035\320?\377`\304p\364\243\360?\023\340\207\234\016c\334?\211\005\371\300P\022\354\277\r\314\007\234\233\232\325\277 \034\206\022Z\231\302?\213-8\374\257\221\332?\265x\255/\340Ao\277\333&\000i\373\000\362?\213-8\374\257\221\332?m\262R\257\326\353\362\277\212i6r\373\307\300?Q\320\027F\320!\244\277?\246L#\364L\342\277\312r\300\256\257:\374?\321\206\177\351\233\361\363\277\334\215@\013/\017\321\277\203$\025\263\037\367\342?\362h\245\330\250\245\372\277M\273PN4\267\370\277\300\332\035\210\214\022\347\277\032l\210\033\373\251\343\277\2140\366\224\317\306\361?\0015\252e\314%\337\2771\n\317,\010&\332\277\255?\275\310I\265\352\277\030kk\344Q\340\327\277\010L\350\376^#\375?g\363s\364\266\356\333?\021]\351\240+\245\355?\216\234V\367\037\207\342\277_\034\022\260\260@\370?\251\256\333\303\271\252\302\277\206\335\271\205\361\222\315\277\216+\326\324\262\024\360\277\365\'\343\356O\236\000\300\022\262J\244bV\261\2773\215m(\353\343\350\277\001\312f:%/\372?A\264\217,\241\231\353?\271\347\033\241\345\253\361\277\314`\242\3259\357\357\277\243r\233\004}k\372\277/\206\301\200Q\334\243?\255?\275\310I\265\352\277\021]\351\240+\245\355?\320\312^\307\233)\364?u\365\024V-Z\367\277l \0259$)\376?\352\030\345\030\371\235\353\277\212i6r\373\307\300?\364\004#\317\224\314\362?\334\215@\013/\017\321\277\247\3129\035iZ\362\277Y\357pkC\006\326?\321\364As\351.\377?\000\215\237A\2433\261?\351\221C\224\242\367\326\277\033\320\n%\017\203\333\277\340\342 \213\373\310\361\277\332\032\037\207K1\343?-\024{Pl\025\004\300\206\335\271\205\361\222\315\277\372{\211%\335\233\270\277\332\354\242T&6\307\277u\365\024V-Z\367\277\261\240\352\315\360\311\000\300V\335\2765\370E\000@J>\357I\027u\367?\314\014\235C%\366\310?~)5s<\251\324?ns\223\221\363e\364\277f\231s\264\315\202\371\277\016S\251 \362@\352\277\032i\312\202\333t\374?\206MG\313\356\275\010\300\216+\326\324\262\024\360\277\243r\233\004}k\372\277\307\177\276\307\010\324\346?\363\271\202\317\001w\345?\335\316aP\017\022\372?*\274\3347\200&\014\300\376\326dS~\310\344?\247;\272?\326\314\344\277\314\230\235\302\021=\340?Q\320\027F\320!\244\277\212\246\226wY\353\345?\013\333g\334\361\260\352?\261V\336\302\035y\270?A\365\255b\t\202\303?1\n\317,\010&\332\277\357\340(f\232>\274\277\377\361h\016m[\206\277\020\364F\327\372\031\344?,\177\353\344\304\250\336?!p\213\244n\222\351\277\216\036\330\273Y{\345\277s3u\363u\r\310?zzT\263\206\203\321\277\031gh[\336\367\321\277l\325\263s\n\302\301\277OW\316D \336\360?\203\230\02443\260\313?\274\026\037\rPc\376?\362;\004\224;k\350?\331\234\240K\205%\346?\334\215@\013/\017\321\277)\300Kd\036\232\370\277&\211j\237w\373\342\277g\3661\215\326#\363?/\374\213#[\331\300\277\251\256\333\303\271\252\302\277\260c\371z5L\323?I\004\2225B\252\314\277\261\224\235H\026o\373?s3u\363u\r\310?\037n\315\2439\355\275?\366\212\023\300l4\002@\321\206\177\351\233\361\363\277\203V\326\267\251\343\366?\330\373\002\225|L\354\277q\0073/\243\245\343?\330y\201\320BX\351\277\022\262J\244bV\261\277u.\331\305;m\272\277\241M\330\030L\030\361?>\236n\312\267e\371\277\216+\326\324\262\024\360\277A2\016hg\245\350?\377\361h\016m[\206\277>\243\216\212\324\027\373?>(\316\347-A\345\277\301\375<\003\317\337\343?cb\222\357&\344\343\277\346\240\243\324\370\r\354?Gx\216\247\335H\364\277\364)\346\272\305\037\374\277\004w\345\322\335\327\322?u.\331\305;m\272\277\346\313AM\360\306\002\300:\232V\307Jg\253\277\023\340\207\234\016c\334?\025?\347\326\215o\361?\3457\001\013\310\202\342?\223\031\270\373<\311\323\277iX\0235t\221\337?\336}\204Y\266@\357\277&\007\351\332=\007\340\277}\023\024\021Su\362?"
      }
    }
  }
}
node {
  name: "tensors/component_2"
  op: "Const"
  device: "/device:CPU:0"
  attr {
    key: "_output_shapes"
    value {
      list {
        shape {
          dim {
            size: 750
          }
        }
      }
    }
  }
  attr {
    key: "dtype"
    value {
      type: DT_DOUBLE
    }
  }
  attr {
    key: "value"
    value {
      tensor {
        dtype: DT_DOUBLE
        tensor_shape {
          dim {
            size: 750
          }
        }
        tensor_content: "\264a\346\360\244\346\336?\357=\210\020{k\356\277\265\324\2248/\247\370\277\026\255\233F\247\370\344\277V\035u\267\355\256\313\277tIQ\037\326M\343\277\362\264q\024\253\206\207\277]\\\312\257J1\342\277\352\363\252\263\346\221\344\277\022\030\303kB\n\266\277\221\236\016\001B>\340?\3775\240\237\257K\002\300\264\177\340\216^\201\001@f\354\337\255\227\026\362\277~\273@%u\303\302\277\215\225W\232\352\210\344?M\237\340\367\211~\361\277\274p\271\327\375\316\341?\245\202\220\224.\305\367?V\333\2247E6\351\277(b\341.\201\362\364\277qU\033\376-\223\320?\376\301\221\036\225\312\317?\007\325\017\322eu\367\277\275QA_z\362\000\300R\024\002\311p\306\372?V)\243\253\2663\335\277o\271\032\270C\036\366\277\013b\313\260\350\350\322\277M\261\003*J_\006@)7\370\33514\361?\034\231\024kR\216\221?yj\344\215\347b\005@]$fj\005\020\270?\244\23634\307Q\333?A\372$P\252g\337\2772\243\314\255\036\247\272\277V\270\334\334\261\031\377?\337\301\212d\266\230\320?\232\357-%\323=\361\277\212!\233\301\214<\366?\320*=\234\331\240\354\277q\321\322\r(\010\346\277rXZ\266\201\341\336?CZ\331f\350P\342\277\221\375\227\t8p\343\277\367\200Q\314\340\006\346?!$\327\242\262\355\360\277j4\2324\250\360\010@U\352\321\366\215\330\360\277\302O$\372\374\356\342\277H\305\233\274\024#\271?A\214M\356\336\244\344\277\276\255+N\245M\331?\355\3564\002\3078\362\277\353g\211?\331X\261\277\035\343Ox\326$\366?|\326\235\037\314\226\323\277\233`e\020\366)\t@\203[}\032\372#\340?\326\222\370\214p\376\351\277w\361\365\023\206\371\335?&\004\260pX\354\376?`i5\2267\214\324\277\201(zoJ\331\351\277\2216\033;\215_\353\277\332\315\343\2761{\342\277\246e\231\226\231+\351\277l/\215\367\207\n\371?P\023\006E\347=\002\3005\'o\266(^\326\277n\310\226(\032\311\350?4\236(\345\3753\275\277\326\010\277\221\350k\262\277\247\366\321\353B\233\347\277|\315\305O/\227\352\277\251QX\265\014\027\305?\360V\002\230\351\010\352\277\251\014=\2501\033\375?\017\223\327\036Y\265\372?\355\234\255\003\000^\335\277\276\252\325)y\310\340\277\2321$\006Ui\363?\240Q\244\204\004\277\322\277\203\343\2205\2767\362?\330\356\246\362\203!\303\277y\366\2755\213\037\352?\350\336\273[YD\344?\223(o!\353<\234\277\3655\260\350s\305\264?\240\322\365_\262\223\342\277\235d\275\311G,\353?\232\021l\262\207\222\354?&\273j)\353\230\361\277\212\306Ns0z\300?@\323\231\":c\366\277\354\306>\n\202\360\323\277]\307\201\254\t\350\346\277k\274\211\235\226\216\324\277\356\313\026|\304\324\316?\026\030SCf\257\351\277\214\350\"`\314|\001\300\326$\305\374\242\007\351\277\231\226\227|\255\307\326\277\310fG*Y\273\367\277\251\240?\0061\253\345?\363\027\002\301\300\017\350?:\322!kY\243\374?\230i\307\275\327\346\321\277p\2600C\033\254\342?4\243=2\373\t\326\277\010D\004\211\276\233\351?\227\350\006]\216\252\016@\2259\204\036\021\251\362?}5\361h\242O\264\277\342\267=\315\327A\317?%\277L\300\201X\343\277\343n\323`\327c\377\277\235\276\325\177\2548\n@\225\267\034\037\006\313\230?\337\023\341\331}I\266\277\223\333\200w\351\274\327?#`H6B\260\341\277U`;\203\264\341\321\277p\363\351\237v\273\301\277J\362\317{\306a\220\277!t\265\331\201*\325?q@\025:\310\016\346?\036\002\323\300\3560\352?\005\024}q\035\221\357\277m+0\337\247\324\350\277\rk\3403\037\334\210\277YdW\324\010\007\362?+\001\322m(\245\276?\220l_\264\216\000\345\277\302G\316\237]\026\360?\360\225kK\320\005\360\277\203E\236y\341\010\331?\243\002\246\307\007\364\327\277\276Q\232\244V\002\362\277\373\374\273\t\261\200:?\204Z\022P%\340\332\277^F\341\021\305\002\310?\323\363T\270\021\250\263\277D\025\211.\305K\001@Vm\355V^#\227?Lk\334i\302w\304\277\220lRE#\335\275\277U\272\362l8\332\345?\333\365B+v6\003@+\323\274S`;\330?#\370\346]\257~\325?\377\370\227\010q\313\353\277\273\312D\377\316a\306\277I\2750K\353\307\347\277\r\274k.\224\252\334\277\203:Ib\313\032\324\277\251\\\306\314\231\234\326\277\001\232FS9s\275\277\225_-}`\207\306?L,R\016F\204\332?\241\010\013\267\263\226\366\277=\311\024\371L\206\251?\217K\275\351\201\244\341?@\225\322B\227S\371\277\305\311\233\036\275\311\373\2775$\013\202\347\345\207?f}\262\230\201\222\260?y\020_\017\3643\360\277\354\020\370\r2\027\357\277\367\255\246\tmq\354\277\231\305\236s\237_\266\277\005\006ts:\211\311?\322F\371\304\301\260\013@\020\003Y\222kF\267\277Dj\343\335\307\226\240\277\036\343\206\201E\316\331\277\345\333\367\274\220\333\002@v\007Z3U\236\346\277%s\205\324i\320\350?\244<&\360\243\200\364?`=&\376\354\332\360\277\006B\202;\250<\327\277\222\306\3771:\302\356\277\265\255w\035\235\365\306\277G\247\237\037\032\215\376?\203\356\2675\323\013\314?\320\210W\257\331\303\361?\217\203?8\277\327\362\2774V0\241\241\310\370?v\020\267\201\250\'\301\277\334\304\225s\350u\301\277t\206\021\013\305\254\370?VJ\327c\345<\351?\246,\026eD<\341\277q\257\305xFh\335\277\356\220E\221\345\025\220\277\232uY\307\021\253\347\277\313\372c|\021Z\n@\235\005k\312\300\243\373?\355o\323G\275i\325?\203} \310\036<\372?n\342)I\310\211\346\277I\325Vt]X\350\277\272F\216\374\352\203\324\277\\\016\3068FG\301\277\020\363\342\234L\016\344\277Rn\233\251\374\254\307\277\342\003\317\371\317P\327\277\316\355\223\034\303x\361?\340%\211\023\315\237\373?\216\252\224g\277\266\362\277 \313 \234F\261\323\277\345\324\003\022\352\322\361\277?\004r\347\210\276\300\277o\3518\363&%\354\277|\224B\036\332\247\342\277\240Q\244\204\004\277\322\277_=F\\3\241\363\277\301:\243\264M\364\311\277oX{\037\307+\354?\021\347/*\315\377\340\277\212\276\031\301&\230\341\277F\032\363C\241\235\314\277l\274\250\360\335\320\354\277\323\343\336\302\362o\340\277\321\036\212)Z\222\351\277\314\247\005^\244-\306\277\303\032\357\034\316]\350?A^\022e4\200\312\277l\364)\365\313\323\314?^`\357\263\2749\304?\005(\320\307\2629\341\277B\237\017\013\275N\355\277xH\322Z\'\343\307?\230t\227V7K\305?U\360\350p\362\232\361?\'\242\202\316\356T\345\277\034\216\366\211J\036\371?B^\215\346}\366\330\277z\224\220\223!\210\360\277\177\353\007\371\242Z\322\277\244<&\360\243\200\364?_&\001\270\222\006\347?\3607\032/a9\367?!1\226\310\336\347\r@^\323a+\213\214\372?\001\344\002\311\347\251\314?H\315\263\257u#\342\277\237b\316\305S\202\240?\020\203\307\223\371p\347\277\366\376\331\2517?\366?n\037}l(\306\345\277\261\275\236\024\325p\364?\225\323\023\261q\255\372?\000\270\276||\003\361?Xt\374\000\275\276\234?\250\035T\'E\020\370?\337\252/_<K\364\277\247j*\257/\250\361?\\y\301\255\337\312\360?\n@h+@\336\235\277\247\020\340\215:\322\343\277\337\023\341\331}I\266\277(\331\276w\352\316\323\277\014\216\013p\320\367f\277n%^\'m\017\304\277\304\002\016\266\205\312\343\277\226|\030V\331-\277\277\010m\021\305\364R\276?\t\325\301\\\036\225\351\277;\263\"\226\370\234\357\277\363\035\343{\005Y\326\277 \025b\220\253q\264?\276A\3406]\375\323?}\213\034\331\365\307\373\277\026\177`\275\374\323\312\277\374\350\221;.\356\344\277\225\0255\nW\016\253?\2156\005\233c\000\365?\027\332k\005}\331\351\277\241\366\216?\027\246\340\277|\022F}zV\361?&FO\352$\250\312?\005E\376\316\266|\323\277\177D\260FTC\347\277\306\031D\226l\215\335\277\273@}\325Vl\277?\3336\301\373%\337\363\277\201\207\020\347\253.\304?/2%\363\020#\356?\013o\322\201d\004\321\277 \341EL\274\003\274?\204g\031!\241\373\330\277S\334h\016[\\\357\277L\362\355\311\007oV?Y\354T\216\363g\304\277\337r\177\371\375\375\367?\376k2\242\323\243L\277\357\35043\213Y\302\277f\303U\233\3114\323\277\364b\017#mC\336?6l\233]\220H\336?o\332,4\005\301\004@\210\035&\2644\363\263?~\372\020\220N\356\355?\3660\233\233v\357\333?z\210\375~\350?\360\277Q\2411\217\001\337\253?\324\376\315\351\273\234\360?\226\307`>\362\236\367?z\002\304#\357~\361\277\204>\206\034e\212\361\277h\347;\345v\243\364\277\027\006RM\0235\362?\331\225ap\364G\361?5U/\276\211\014\342\277\373\010\251\236\317\223\371\277\000\242\261\304b\316\356?\265\014\016\225\376J\341?\275\200[\217\317l\324?z\023g\276\330\330\332?5\322D)\355\241\265\277O\212o\37738\243\277\302\026{Y\305D\327?U\200\'n\362Q\250\277\336\372\376\222\001\004\277?\205\376\226\007\260G\363\277U!\261\'8\356\307?E\264\247\373\224,\367\277\344\234\201\303\254\237\340?\255A\332V\037,\321?\0319\353\020\006\370\351?-\273Vna\036\322?Mw)\261\322>\356\277\352Mb\235j\212\330?ob\023\314\237*\265?\r\342\"F\236\334\330?\227*\302\340\021}\331?\030H\215\360\276]\360\277-\025\001\351y\363\336\277\n\307&q\031\340\352\277;\263\"\226\370\234\357\277\355wcJi\320\250\277\352&M*\3677\336?\232\336N\272-v\304\277D0H`f\276\353\277L\351z\250\362b\364\277\252\260\253\376\342\317\325\277\230\215\277\254\020\310\355\277\rk\3403\037\334\210\277]\\\312\257J1\342\277#\277\2325\3118\361\277k\023\353b\356\001\320\277\350\357\204e%Y\361?\202\2167G21\365?}\363F\250\031P\344\277\354\324\315\032\363\361\004\300\214\323>\330\323^\344?#\025\025e\263\301\347?\320\364\017\217\2606\335?\004\207\"\3079\302\360\277\337\244\356!f\036\014\300i\324\357\202\225\253\332\277&\020\252\315\260\327\240?&\006+!Op\344\277\353\306\303\2108z\305\277\347\363\313\034,\334\321\277b6\214\003\214m\357\277\307-\266?Ix\347\277\233D\247q\245\n\361\277\374\345\025\250\037\256\350\277\017\234uF\351&\243?\2664\377\305\366\316\357\277\326wV\320\357-\355\277\276\266\003\036BM\342?\264QD9\323H\354?\316\273_QY\261\364?O\367\334t\212f\312?c&\340NM\274\331?\3752\220\001\010\022\334\277\275\275\327\002\344\376\356\277\256\273\267\246NN\363\277\276>\0279\006a\364?\014\216\013p\320\367f\277;w\370\242\271w\005\300\337\252/_<K\364\277\314\222\207\212\363B\301?74l\2127f\321?\254\310\360z\234\242\356\277T\275\315\017\033\351\337?\004\371\361 u\367\334?\006\216\372g)\264\322?]\323\257\240\322l\350?\220\236\223\177\370\307\341\277}5\361h\242O\264\277\335x\341I\014\274\251?\254\217\350\312\220)\345?|=\\\332\313\252\345?\3575`\315\334\254\346?\201\224\027\270\'J\302?\037\314\270\n_\372\007\300A\240z\325\221\222\322?\315\350}\205vr\347? \373S\356\263:\270?\216\350-0a\254\344\2776\003\270V\244%\000@d\324\242\331\374\242\320?\177\304\331\205\270p\273?|\224B\036\332\247\342\277\307\003\010\304\246C\003@_\024\205@\366\025\361?\2605\020x\307\346\343\277\215-d\3245\252\357\277\032\321\177;\006\263\272?9\201\0057g\014\335?\272\321\230,\007N\361\277R\356\001\003lx\360\2773\370C\245\242\277\376\277\352\363\252\263\346\221\344\277H\373\027\211\324\235\347\277\'\205\204H\317\301\233?\277,ML\"\220\360\277\264a\346\360\244\346\336?\374\226}\026\222*\307\277\304\210\013A\303\035\337\277\360[f\244}\357\341\277\311\273r\001\344\247\351\277\307\"\227\347R\003\345\277\210\003\030\022=\274\267?\201\003Mu\\-\353\277\270^\364\341\351\240\332\277\322/\316\264o\035\365?\0342\205>B\231\324\277\200\261\312=\342\026\346?\337<\356\025\264\000\353\277\363\377O\350g\233\230\277\331\304\220mK\005\333\277\031!X\037\005E\363\277\334\351\217\270\366\'\000@\000\227i\034\270\003\301?N\2724?\303n\340\277\023\326\223,\003\201\344?\357>*\344\276X\367\277\273\265\306+\036w\301?\214\332\215>\277\206\357?\026_\022Q\354\204\322\277u\242\007&B\212\360?5\nj\377\330p\317\277i{\353\006\342\216\317\277\320\205R\341\306\271\336\277\001\326\177\223\n\\\371?\206\342\355V{\306\356?\336.4\327g\t\324\277?\352cE\221\207\304\277\307\360b\034\351;\350\277\276VE\n\227P\314?h\242\nw\302\364\274\277\352Zin\346\245\326?TV5\304\375\217\301\277\307-\266?Ix\347\277\331\003\033\311\307\370\264\277\367{b\356\305\353\260\2772\243T\236\323@\340?))\346\304r\270\007@x\213\213\267\202\362\346\277\314\232\376\214(\022\310\277oLM+\376\246\352\277\254;q\253%I\315\277\014\236dJ\335\320\355?\307gH\rqw\356?\357w@M\205%\331\277_&\001\270\222\006\347?\0130H&\350\020\307?I`\233L\206\260\245\277\010\353%|\3559\302\277\251QX\265\014\027\305?#*\314i\2025\263?\027\241\350\323\'\352\341\277|\001\342\223\036\005\343\277L\336\310\030\213\020\350?\224\324h\032m>\360\277\252\346<\342,\315\362\277\212\262!\214}\214\342?\342\3245\025\274\013\357\277\261h_p\0172\245\277\342\346\240\362\313\r\345\277\231\214\002B\323\330\321?\257O\253@\224\006\371?\226TS\347\223\017\320?\3702l\250#_\355\277R>\312\330a\002\325\277a\347\030\227\221t\360\277H\255W\212\252\200\361?\204\276\377d\257\370\305\277\201g\265\0130\274\344\277\206\000Qi4\324\343\277\237/)\335D\314\322?\272\233\320?N\247\360?O,\266#\267\303\356?f#\356?\222v\325\277n\310\226(\032\311\350?\035\000\370\266\324\255\265?\267I\231\013\035a\265\277\356\3064\r\025\335\320?\373\231\322G\311\036\214\2776\226\247\345[Q\303?\334a\037\272>\025\241\277Z\331U\226Z\314\315\277\362\370@>\t\000\223\277\371_\023\027E\352\326?\006\027\271H\237D\346\277M\262\272\312\217\217\305\277\323\004j\342\326\350\362\277|\240p\022\243,\344?\334~\023\0316\312\362\277R>\312\330a\002\325\277\t\311<\001\240\240\361\277\253\335{\275\270\260\332\277i\'X\006.|\343?\225\216\271\362\010\251\307\277t5$8#`\305\277e\2717&\353{\367\277X\021=\306\267\026\327\277\023t\246F&v\360\277\314f\006c\315\252\367?\354\336\232\362\023\372\326?\0356t\203\224(\344\277B\326\247\342\272\374\341\277\020\211;/U\370\201?6~\320{\200\321\321\277\371\014\253\223\254\031\356\2775\035\006\265(\351\001@\211\301\214\244\373\376\257?\235&[\n\025\340\354\277H\305\233\274\024#\271?\270\013\205J\n\341\003@\276\'\322\224e\306\327?g\376i\336\356Z\360?\253\244\370\213c\301\322\277{\222\210\274U\033\362\277_oz\'\235h\360\277\177\021\026xb\374\364\277F\223\300\255\256\177\336\277\261*\267-<\244\010@\232\032\311\000\333\033\327\277%d\226\212h\016\357?k\002\2758\262)\364?\'\350\343\200\013\n\320?1\270J\201\317\221\257\277\253L\220\322W\235\377\277\0222\304\350V]\003@\373}\332>o7\340\277\224\360\364M-\224\331\277I`\233L\206\260\245\277\256VN-c\003\323\277Q\306A\312F\251\324??Q\"\000\221\233\346\277\317\375l\335\003\300\347\277>\016\356!\354\025\331?I\357d\026U\217\344\277D\367?\260ZE\342?\014)\230X\305 ^\277uU\355%}%\314\277\322 r\242\3378\345\277><\241\272\341\240\315\277y\261\014\020m\253\340\277A{\027\034\204m\321\277\02254\241\321\351\321?#s\305\220\366\\\356?\325\227\\\231\004\345\341\277\205\004\256\201\024\n\364?\277\031\001\352@\230\326\277\032\317\207rCN\340?\227\'l\274\345\367\340\277\005\366\026~\222\350\342?\223Z\302\323\254\305\361\277\236_(\305\340\220\360?\363(\263\024e\275\311?\367J$\277\267\234\306?0y_\202\340n\325?\214\032/\336,\351\377?d\324\242\331\374\242\320?\225l4N\334\242\304?X\205\225\211\244#\361\277\353\013>\245\347D\373?F\324\254\271\252_\361?\310x\215\342\3252\313\277\253r\247\001Q\030\240\277\rZ0\323o\277\312\277>]\325r\020\252\351\277\333\025\372\013\206\370\335\277V\035u\267\355\256\313\277\001\366\274e\216\274\321\277\367\225\014\220\341\304\232?\364\363Qu\203\306\337\277\237\n\207b\222\223|\277\357\361\315\223\316\006\273?\006={\314)\332\022@\034\234-\237.@\312\277p\217\374\212\354\242\326\2775Df\264\275\367\364\277\276`n\3061M\274\277%\346\316\373\203\315\363?\345\301\331\353uA\005@\335\314\351x9\232\330?\246nqf6+\322\277OVS\273D\312\252\2778_\347\007\371}\364?\236\026`\226?\036\270?\317K{Qu\275\333\277|\377\371\032\231^\347\277luE\021Z/\352?\276[\356\330T4\320?\212\216\366\276\366\314\313\277\210]{3\251)\362\277Y\221u\010&\310\344?\211\356\263\210R\231\360\277\\\001\277g\312+\303\277\236\300\360\255\021\331\305\277Q\325M\323\360L\244?\2626\271\350*\257\311?\323*j\250\3336\375?\3215j\255\212i\367\277\311\205\224\263QN\311\277\r\"\013\375\203\360\260\277W\235\255\371[`\351\277\220^\362\337\212e\361\277\177O\317\236J\270\351\277w\013\035\266\364\307\266\277%:M/6\235\t@\020b\327S\2454\366?\343d\273\374\224\237\324\277\264L\2574l\255\361?mq[\322\244\020\321\277\310#\353EO\020\340\2773\260\311\201-\257\305\277\356\364\347\245\nh\305\277T\210C \205\234\352\277\275\274\007\326jA\240\277N\2724?\303n\340\277(\r:\313\255\013\352\2777D\223\300\277\215\345?\035\255\336\362\322\355\353\277?W\321\272\347\265\253?W\235\255\371[`\351\277\301\313m\367\030\021\341?(\307\257\310\334\000\344\277atsAuC\357\277\257\203\347\342\311:\364?\3752\220\001\010\022\334\277v\243\361\234\201\017\355\277\024\n\202Y\361\324\361?H\255W\212\252\200\361?k\267tP\231\270\273\277\202\224\205\312\005\235\351\277n\346\354\313g\263\266\277\316\202\023)sk\320\277\227\256\375a\254\344\334\277\177\225\177\020\376}\303\277\n\013j\353\220u\327\277\243\264\227S\226\366\343\277J\220I =\260\310\277\352\336\244\357\200\r\332\277\276\371\274z\235\\\301\277q@\025:\310\016\346?atsAuC\357\277fD\"\370\300\177\341?|\241I\357U\303\340\277\305E\363\324\223?\322?A\240z\325\221\222\322?\206\003\"\017\252\317\312?\016\366B\276\345\246\337\277\025\271N\271&\007\350\277|\224B\036\332\247\342\277g\277{\254Q\324\330?\235\005k\312\300\243\373?\270\302\\x\275/\324\277\330\370\356K\356\237\003@\277\200D#\3675\352\277RA \375\215\207\355?\261\203\024\357\313\320\324?\017\223\327\036Y\265\372?\215q\366\rDP\273\277\365\033\242F|\216\270?\237\036\377\233\365\010\245\277&~u\236p&\226?\347\263\374e\275_\326\277\220WY\360(|\332\277\303\310_v\350#\314\277\t\311<\001\240\240\361\277\261\346\314\370\240\036\355?\310y\370\254\252v\340\277,\373Nu\204\360\350\277\351\3110\031=6\330?}(\321\227\257\234\331?Sx\241h\263\376\327\277\275C\203\355\270\246\303?\332x\365C\346\342\277?mi\222\236\332 \347?\007\232\036_\205%\261?\202[\002\231\260\255\341\277\351\341\007\203\030\266\271?d.MT\025x\335\277l\272\356\216YD\374\277\207T6\233}\007\343\277\013\270\367j\213\221\353\277\261\310\305\024\352D\316?z\336\334\316B\214\345\277\320*=\234\331\240\354\277p\202\365\271p\207\330\277J\362\317{\306a\220\277\315\205\356\313Uz\352\277\217W\336n\337\005\314\277\266S\025F\200\270\335\277}\300\254\331\'\t\362\277\313R\320\211\254-\361?#`H6B\260\341\277\347U&\313\227\t\354?^\307\374-S^\345?U\374\322\354\340R\330\277/\021[\"\237\241\360\277\241\010\013\267\263\226\366\277atsAuC\357\277\326\323\033\242\333\207\340\277;\263\"\226\370\234\357\277\325`\304\301\0067\355\277x\357\363MV\201\340\277\310#\353EO\020\340\277\254\nL|\216\221\337\277\207\260\206>\360\225\263?p\321 \203o\350\363\277\004\343\314p\377\244\264\277m]d\252\021\234\345\2772\243\314\255\036\247\272\277\361N\254=J0\367?\353g\211?\331X\261\277\202u\366\246Y\335\007@w\302\031*U\374\006@\204\301\320\n%\364\354?\034\327o\371T\200\342\277\211\337\304>Q\327\366\277%\346\316\373\203\315\363?\312\304$b\236\354\356?\232]a\265\2404\362\277w\007\325\264\236\024\345?\0202\345\007\024h\250\277\246\227\315a\003\363\345\277\226\252\212\r\267\033\031@\233\255H\336\335\000\357\277"
      }
    }
  }
}
node {
  name: "tensors/component_3"
  op: "Const"
  device: "/device:CPU:0"
  attr {
    key: "_output_shapes"
    value {
      list {
        shape {
          dim {
            size: 750
          }
        }
      }
    }
  }
  attr {
    key: "dtype"
    value {
      type: DT_DOUBLE
    }
  }
  attr {
    key: "value"
    value {
      tensor {
        dtype: DT_DOUBLE
        tensor_shape {
          dim {
            size: 750
          }
        }
        tensor_content: "\211\347~\035\020\251\364\277\357\252\034\301\030\342\352?\313s\255\302\271\\\351\277\273\255\272X\375\241\357?6U\010x{l\344?\274\244\177gs \330\277\267\320j\177\266\253\360\277#\250~)4\"\346?\'P\300\t\301\000\341\277\252#\325\250\345f\354\277\221vKZ\236\034\356\2772\356Y\375\305\022\271\277\240\257\211\355\207\020\376\277\032\376\030[b\234\365?\030y{\031\005\315\365?\310$6\034Z\267\361?\257\206\316\335CD\331\277rfs}>\274\313\277:\256\272\241\225\260\373\277<N\361t6\222\362?\n\373\364\332\354\327\347?\003\023^d1+\333?\242op1P\244\275?\n\252M\276\276\220\364\277O\r\236\257X\336\254\277#\367\365\317\223\307\375\277$7W\356K\220\345?\243h\035T\024h\332\277\266\017!e\370\217\267?\213\230\373\356&\t\367?8\332\245\271\330;\344?T>2\027\232\010\266\277\230U\305L\313\370\003\300X4\271Vg\320\340?<N\361t6\222\362?\363\3416f\275.\345\277\363\3416f\275.\345\277fH/]\334\r\340?\014\361\271W29\350?\360m\361n\244\325\001\3008D\266\361{\363\362?\211\023^\255\3119\367?y\004\3173\3134\336\2778D\266\361{\363\362?\247\323i\370\336\236\302?\037-\034k\221\361\345?k\216_\212(7\312\277\363\362\210\354\274\247\366\277\341\235\201\343\361\034\274\277Z*~\323\2541\341?8\332\245\271\330;\344?,\274\364/\251_\345?rfs}>\274\313\277\023\026F\n\260\215\267\277\212,\273@\265\257\334\277\316\274\305\225\204\350\257\277\211b\325S)\337\356\277!\215\361\037z\n\365?\300z\304\305\3766\373\277l\346\035\252\233X\337\277X\212S\210\225J\360?\257\206\316\335CD\331\277\021]v\311,\324\251\277\341\235\201\343\361\034\274\277\236\224\374\343\315\370\354\277\3667\rr\342\n\266?`\271V\230\304\237\340?\227\266\254xV\345\365?#\317j\244\355\177\314?Wo\272\366Q8\371\277S\005\266F8{\360?\376zJ\256\217;\344\277\304\270\365m\350]\327\277B\335\3119N\000\362?\305F\316\240\317\256\356?\254\350\323\010\373\376\363?\230\347\337\376S\334\301?\003\023^d1+\333?Il\242\376en\361?k9\202\371\3453\202\277\227\266\254xV\345\365?\217\2426r\341\247\366?8\332\245\271\330;\344?\252c6\307\235/\364?\023\026F\n\260\215\267\277r\333_\225\242B\225\277\3168\254\"\317\364\360?\366f\324\247\032\376\344\2772\004a[M%\361\277\324\307\204\347\346b\360?\237^\342\320Y\311\332\277\277\344\324\375\241\356\351\277\352\326\373P\322r\335?u\372\223\260\020\226\336\277\302\377a\007\\\006\373\277\244\324]\002\206\301\364?{\266K\227\022\262\310\277#\022\217a\327\331\364?\321\326\246\367\027:\326\277b>\364\331!o\340?\301\032\373\230\237\030\362?\035h\035\013|Y\376\277C\002\222\306\302\266\342?5f\036$\204\203\264\277X\245\340\221Ob\341?\010%\260|a\301\364\277Vo\300\272\2265\004\300X\212S\210\225J\360?\371C0\t\353\356\351?D\037C\276\301u\311?\372\201gu\031\023\001\300\330\321\277j\241\001\360?\2547K\257Z\244\353\277\3660\272\224\246\316\322\277f\022\t\302\336\343\367\277\376zJ\256\217;\344\2775f\036$\204\203\264\277{\266K\227\022\262\310\277k9\202\371\3453\202\277\230\347\337\376S\334\301?\212}b]\343\366\377\277(\260\321\230\240{\261?\'\0011SNf\375\2774_C\3735\013\344?\314\002\206\207\321\312\350\277\336 7\021\001\247\347\277\206\266\366=Xy\261\277vM\377\026\251\265\240\277\357\252\034\301\030\342\352?N\251\323\024\037x\325?\303\237\230\332\374\347\361?)mq\001\300\277\327?#F\205\206\006b\341\277x\r\"5h\253\321?V CP\362\222\341?v\227\007\345\177\346\304?\274*;\250\374\275\000\300\301\313k\342,~\356?\016\340g\3212\300\366?\341\302\205J]5\336?(\260\321\230\240{\261?\r\305\324\0034\253\n\300\324\026\374\215F\010\350\277\301\313k\342,~\356?\375\213\242\370\323\261\000\300\267\320^\367,\261\352\2778\2239 e\223\360\277\2672X\232Zq\357?%|\223\021\361\226\375\277\304\270\365m\350]\327\277\260\362\016\214\265\235\363?\247\323i\370\336\236\302?\024;Jq\033\246\331?\265\374I\017p<\363?\347%\177\177\273\022\353?\350\207\345\213\266\000\263?_\357p\2538\317\322?\014\361\271W29\350?\325\244\324\300-Y\337?\037-\034k\221\361\345?\267\201\347P\315\013\363?\217\361\271\240\312G\364\277\025\224\010#\277\344\346?\014\217\300\264\004y\343\277\372\322\010\316\002]\351?\322B\347\245\211\223\360?\n\252M\276\276\220\364\277\211b\325S)\337\356\277\363\3416f\275.\345\277\211b\325S)\337\356\277\212,\273@\265\257\334\277\010\347~\324w\232\350?\377D0\233\033\014\322\277\332\314\300\315\027\324\335?\353/\272\002v\261\352?\263\220\ta\376\342\330\277\373:\365\027am\322\277A*\021j\337\003\316\277h\227\246\003<\263\367\2776U\010x{l\344?F\263\016\230\331\026\325?\\\257\033\025\n\001\341?\211\023^\255\3119\367?d\303\221\033\177>\340?\2424\'/\345\337\375\277~\311\301\013W\322\357\277\246Y\373C\343\220\364?\300M\251\311\035\'\277\277*\325]K\036\320\340\277\307jr\321/\333\301\277\312.q\237\024V\361?\322\221^L\3518\350\277\257\206\316\335CD\331\277<\344\340<\223\332\343?)\360\352T\330\347\361\277\223\254q\365\233F\366?\023\200\222\034J\247\347?\320n\272\255\271)\355?E|\342\r\303\023\000\300\3301\211\227\000 \371\277<\235t\243\0372\360\277rfs}>\274\313\277s\242\325\220\235t\311\277\031\236C\246y\203\346?t!\230;\335\350\320?\250-\020,\240\005\354\277|5\016BR&\320?\230\347\337\376S\334\301?\301ir?\377\275\351\277\371C0\t\353\356\351?\322\221^L\3518\350\277.\320j6\036\235\344?O\r\236\257X\336\254\277\357\376\347]\274\355\333?#F\205\206\006b\341\277Y\364W8\257\007\371\277\227\253}\353\364#\304?\252c6\307\235/\364?T>2\027\232\010\266\277\246Y\373C\343\220\364?M3\271\3046\263\310??\370VC\010\030\343?}o\033\330\225k\306?\322\242\260\322\350\261\371\277\236\344\235\021\343f\003\300:\311S3\331\302\362?%\227,\2434\251\364?\004l\034\026\325i\350?\267\320j\177\266\253\360\277.A\222q\006/\345?\304\270\365m\350]\327\277\253mqJX\316\363?\372\201a\261\324\025\366\277>\"\022\345|\001\360\2778D\266\361{\363\362?,\274\364/\251_\345?<3X\343\362\177\373\277\246\250~r\3140\362\277\234\017k*\372#\363\277\340\245\324R^v\347\277#a\022\220\300y\362\277h\334\342&\341\271\337\277F\263\016\230\331\026\325?s\242\325\220\235t\311\277\270 \000%B\037\001\300#\026\355\336\344uh?\377D0\233\033\014\322\277\024wW+\300%\320\277\365w&.\032w\366\277\027\212\315\237\004F\347?\310$6\034Z\267\361?t\265W\215k\217\366\277\207\3357\022\314\017\357\2776U\010x{l\344?\277U\3748\212\200\352\277\253|\223Z\211\245\331\277]\376\222\273i\246\370\277\362\243\005\276\323\007\371?\035\031\246d\034\264\346?\222@1G*\355\333\277\014/\353\377\033`\364\277M\014\315I}U\342?\016\024^\366aH\343\277\021]v\311,\324\251\277\363R^\241\245\300\345\277\363\264WD\323\200\352?VP,\177\275\330\251?\326\233\231\317\243\327\347\277Q\026\374D\256\371\373?\374W\246\017`,\351?\333\354@\354\321\036\373?\037<J\003L\303\341\277\327_\371~\314\205\264?O\r\236\257X\336\254\277<N\361t6\222\362?2\351\323Q\223\r\340\277\362\352qWG\260\334?\000q\017+\325\234\344\277\266B\206\304E`\303\277\275_CD\316\031\360\277\'\262\271\254\356\300\345?\263\375&\375\324\277\243\277\'\034\312\344\221x\364?\000b\341\222\032\313\350?G}\364\204e\347\342?%\227,\2434\251\364?\014\361\271W29\350?4_C\3735\013\344?\016\024^\366aH\343\277,Z\373\214{\237\340\277\030\310\376G\356l\363\277\2672X\232Zq\357?\000\000\350\357\354\n\344\277\362&\177\021\354/\323\277\207b\341\333\262\331\364\277\326V\374\312\272\235\302\277\217\361\255\030AM\356\2776U\010x{l\344?\332x\3650t\310\354?\223\373\364#\205\346\363\277\331\352\034\376\214w\325\277\273\255\272X\375\241\357?O\r\236\257X\336\254\277\346\010\316\207\274S\324\277\325\244\324\300-Y\337?\225\200\206\335X\273\355\277\n\223\010\221\216\307\316?\031\255q>4U\342\277\2251\0177\371\025\366?\325\341\215\203\331,h\277M\326\246\256\177+\372\277$7W\356K\220\345?q\3416\035% \371?:\311S3\331\302\362?\177\031c9l@\006\300\017\0050^\247v\347?\177\006Z\320(F\202?\332\314\300\315\027\324\335?\2166\366\303oN\334\277\326\375\222r\321\227\354?\223\373\364#\205\346\363\277\366\255@A\216\246\370?\023\026F\n\260\215\267\277\353\315\300_H\361\345\277\037W\327\014\006\333\362\277y\365\254#\232]\370?!\301\347D\251\222\341\277\332\007\316\365\2136\354?\024;Jq\033\246\331??\370VC\010\030\343?\'\262\271\254\356\300\345?\363\362\210\354\274\247\366\277\260A\2062\025C\353\277#\026\355\336\344uh?\214\3367\244\374,\307\277\364(\243\3770\327\370?\353/\272\002v\261\352?\260\362\016\214\265\235\363?\314d\177*\377\212\355?\300M\251\311\035\'\277\277K\207/\010 \206\342?&\241g&\357G\364?\037<J\003L\303\341\277\000b\341\222\032\313\350?9i~~\360\251\343?\323\275Id,\304\360?\014\361\271W29\350?\017\0050^\247v\347?\025\2436\273y\266\342\277\275\020\300\025\345y\362?\030y{\031\005\315\365?\016\340g\3212\300\366?\n\373\364\332\354\327\347?B\335\3119N\000\362?c\371\253.\363m\322?1\201\347\0075\375\326?\231;J\272\263\264\365?\345\0322\205^\240\010\300O\373z\303}\334\360?n\203\221\336\n\251\305?\376\213\2344\217\264\365\277\362&\177\021\354/\323\277\004l\034\026\325i\350?\314d\177*\377\212\355?\337\366{o\214\275\372?\265K\315=Y\334\360\277B\335\3119N\000\362?U\352\034\265\364h\371\277W\017\361\311\362\031\360?N\307\204\236NT\324?\231;J\272\263\264\365?\032\273\364\235xB\315?\3667\rr\342\n\266?\024;Jq\033\246\331?\232T\247M\237*\333\277s\242\325\220\235t\311\277\366f\324\247\032\376\344\277\3344\006\037U\275\014\300\365\327\373\342\002\220\345\277\224\221\330cX4\377\277Dbg{\253\317\361?c\371\253.\363m\322?\331\256\017D\350\367\336?\013\'\324j\246h\332?\363\264WD\323\200\352?n\203\221\336\n\251\305?\035\031\246d\034\264\346?\362\352qWG\260\334?\324\207#\311.\232\350\277G}\364\204e\347\342?[\3455(~0\323?\326L\")D2\360?\205X\232\320n@\357\277\275_CD\316\031\360\277\257\206\316\335CD\331\277\3579\365\2050P\352?\027(\324\374\326\205\342\2778\026\233cj\306\316\277\032\273\364\235xB\315?\327_\371~\314\205\264?T>2\027\232\010\266\277\230 \267\354\264\237\t\300\201\030E:@r\335\277\031\255q>4U\342\277~\311\301\013W\322\357\277h\334\342&\341\271\337\277\344\324\327b\215\313\367\277Mv\335\201 \r\361?Il\242\376en\361?\253mqJX\316\363?\037\313\"\310c1\341\277\244#\3410oa\362\277\310\370J\004\027,\351\277\273\255\272X\375\241\357?\035\203\266\234\277k\365?\301ir?\377\275\351\277)mq\001\300\277\327?(\260\321\230\240{\261?\263w\254\315\022m\363?\'P\300\t\301\000\341\277C\3026lO\353\005\300I>\207pTA\315\277\231;J\272\263\264\365?\377<\031\006\246\024\370?\325\341\215\203\331,h\277\377D0\233\033\014\322\2774\211\376\234\252\364\360\2772\351\323Q\223\r\340\277T\013\315\267L8\312?\031\017k\341a\025\347?\323\275Id,\304\360?C\343\340\252b\275\313?t!\230;\335\350\320?.\320j6\036\235\344?\263\220\ta\376\342\330\277\263w\254\315\022m\363?\362\352qWG\260\334?\014[\312\217\325\360\366?\226Jl\312\344\213\333\277\037-\034k\221\361\345?\300\256\272\352-\277\327\277\270\232D\344\270\201\330\277\250\370\023\030X\244\002\300\343\000\267\362F\\\372?\273@\265\3149\272\240?\301\313k\342,~\356?\224\277HK$\232\272?\037\313\"\310c1\341\277#\250~)4\"\346?v\"\033\315\033`\233?mG/\313\253\360\307?\242O\300\300(\362\364?\014[\312\217\325\360\366?#a\022\220\300y\362\277CX,\370\3600\362?\374W\246\017`,\351?\3660\272\224\246\316\322\277\316\274\305\225\204\350\257\2771:{n\301T\363?\335\270J\307\242\226\336?N\307\204\236NT\324?\227\005$\037\266\212\355\277/0@\353\006\266\363?\202\323\374\216\021q\357\277\227\0050\247?\205\363\277\371\305\370h\330n\216?<\344\340<\223\332\343?CX,\370\3600\362?\244#\3410oa\362\277#\026\355\336\344uh?\016vW\231\217\010\350?\325\3474X\016\025\271?s\242\325\220\235t\311\277$c6~\005!\330?<N\361t6\222\362?\377<\031\006\246\024\370?\374W\246\017`,\351?\035\031\246d\034\264\346?\207\277\363\361ia\303?\254\350\323\010\373\376\363?Q\026\010\3157\364\341?\000v\225\326\007\242\275\277g\003\347\261\255\014\322?\200\377\347\246T\374\367?\363\3416f\275.\345\277\031\236C\246y\203\346?*\306/\263c\376\344?\013@1\376\221\336\377\277\273@\265\3149\272\240?\314d\177*\377\212\355?7)#$}\336\006\300Z*~\323\2541\341?N\307\204\236NT\324?\037<J\003L\303\341\277\357\252\034\301\030\342\352?\031\017k\341a\025\347?X4\271Vg\320\340?\271U\010\301\023{\360\277\304\270\365m\350]\327\277,Z\373\214{\237\340\277 Y\373\372J\202\330?\376zJ\256\217;\344\2772\232D\233 s\374\277.A\222q\006/\345?s\242\325\220\235t\311\277\277U\3748\212\200\352\277\341\226\246\272\243\244\353?\000b\341\222\032\313\350?\300\256\272\352-\277\327\277\257\206\316\335CD\331\277\362\305m\360\333\227\272\277\361\276\222\307\215\037\352?#\317j\244\355\177\314?\360\036h|v8\371?\274\244\177gs \330\277\207\3357\022\314\017\357\277\341\235\201\343\361\034\274\277vM\377\026\251\265\240\277\362&\177\021\354/\323\277O\221j\213\332$\342?\240\312\"\177\313\"\365?\0229&\203\326\376\363\277\010\347~\324w\232\350?sf\324^\202\357\370?\016\024^\366aH\343\2778\026\233cj\306\316\277\275\365&\204\241g\373\277mG/\313\253\360\307?\003\023^d1+\333?h\227\246\003<\263\367\277\317~\350\327\244\030\301\277\204\227\\>:\037\274?\345\240\341=^C\353?\275_7\274D\037\352\277g\003\347\261\255\014\322?\334\214k7\351\005\354?\031^\342\207\301\272\376\277+u\210\2265\267\361\277x\r\"5h\253\321?\332x\3650t\310\354?\232T\247M\237*\333\277f\022\t\302\336\343\367\277|\010d\366\006\243\017\300`\271J\020;\245\372?\263\306/\374\373\014\361\2772\351\323Q\223\r\340\277\313s\255\302\271\\\351\277|5\016BR&\320?\0041\017\356`\007\332?\334;\304\032\273\276\370\277\355;\257a\372V\233\277\336 7\021\001\247\347\277\027\212\315\237\004F\347?\236\224\374\343\315\370\354\277\010Q\217\014\033R\367?M3\271\3046\263\310?\223\373\364#\205\346\363\277QR\375v\311~\314\277\376zJ\256\217;\344\277\356\350S-G\006\002\300\275\3010_r\337\356?#\250~)4\"\346?\245\032\232\267[\345\304\277|5\016BR&\320?\373:\365\027am\322\277;\323\216\266\223a\362?\037W\327\014\006\333\362\277\233\312\301\235\207\357\307\277mG/\313\253\360\307?\3660\272\224\246\316\322\277\177Nk\325=\234\365\277\320\035\023\221\213\342\371\277\000b\341\222\032\313\350?\025\224\010#\277\344\346?\037-\034k\221\361\345?\004l\034\026\325i\350?\305F\316\240\317\256\356?\223\373\350\233\373\353\355\277\320\035\023\221\213\342\371\277\310\3020\361\242\374\326\277\331\256\017D\350\367\336?\031\255q>4U\342\277\326V\374\312\272\235\302\277\n\373\364\332\354\327\347?\324\026\374\215F\010\350\277\217\2426r\341\247\366?\353\336\022\346Gj\367\277d\303\221\033\177>\340?fH/]\334\r\340?\327\342\005i\027\200\373?#\317j\244\355\177\314?#a\022\220\300y\362\2776U\010x{l\344?\236E\205=nS\365?\202\204\205\350\261\313\367?\350\207\345\213\266\000\263?\305\325\246e\347\034\356?\357\376\347]\274\355\333?t\265W\215k\217\366\277\204\227\\>:\037\274?\331\256\017D\350\367\336?1\265\335,d\205\363?M\014\315I}U\342?\227\253}\353\364#\304?\325\340\341z\322\330\325\2771\201\347\0075\375\326?<\344\340<\223\332\343?\366\364\254\332\001O\334?N\251\323\024\037x\325?.\320j6\036\235\344?\327_\371~\314\205\264?\207\216\300klj\367?mG/\313\253\360\307?\307jr\321/\333\301\277\004l\034\026\325i\350?rfs}>\274\313\277][\245\321 .\307?\002\366\254l2l\344\277\351\271JY\323\263\346\277\007Y\246\241\220I\321\277\177\006Z\320(F\202?R0w\327\305=\n\300.A\222q\006/\345?,\274\364/\251_\345?x+\323\276\227\207\320?\340\245\324R^v\347\277#\022\217a\327\331\364?d\303\205\223\365C\372?)\273\342\270\006\214\002\300\305\325\246e\347\034\356?\366f\324\247\032\376\344\277\022\247~\227\003\005\316?\362\305m\360\333\227\272\277\326\014\301\n\214i\350\277\307ZD\247D\354\355?\301\313k\342,~\356?\301\313k\342,~\356?rfs}>\274\313\277\355;\257a\372V\233\277O\r\236\257X\336\254\277\301\032\373\230\237\030\362?H\002%]\365\210\317\277\010\347~\324w\232\350?\201\323\010\027\233k\365\277p\027]\270\"J\321?#\022\217a\327\331\364?C\343\340\252b\275\313?\273\332\231z\347O\352\277\035\031\246d\034\264\346?\363\362\210\354\274\247\366\277\341\302\205J]5\336?-\253\242\251\251\346\363?\032\273\364\235xB\315?\037<J\003L\303\341\277k\216_\212(7\312\2778\332\245\271\330;\344?6\016\234\336\007\304\360\277N\251\323\024\037x\325?\357\252\034\301\030\342\352?\365\327\373\342\002\220\345\277\007Y\246\241\220I\321\277X4\271Vg\320\340?\304\204\377H\271\325\372\277.\320j6\036\235\344?\344\021\tyF\325\353?vM\377\026\251\265\240\277\035\031\246d\034\264\346?\215\002\000\237@\306\377\277U\352\034\265\364h\371\277\227\253}\353\364#\304?\201\030E:@r\335\277M\326\246\256\177+\372\277\234\300\347\373\020\204\365?\333\354@\354\321\036\373?\253mqJX\316\363?k9\202\371\3453\202\277\3301\211\227\000 \371\277\031\236C\246y\203\346?\311\356\017\201\\\215\351\277mG/\313\253\360\307?|5\016BR&\320?\363R^\241\245\300\345\277{\017(\266\261\241\006\300y\365\254#\232]\370?\250\336\230\205@`\364?\314d\177*\377\212\355?\273<\223\035\025\020\357?x+\323\276\227\207\320?\232T\247M\237*\333\277\035\267\254\301\356\363\341\277vM\377\026\251\265\240\277\3414\255\027v\344\346\277\037\010T\336\034;\365?\305\232\231=s\272\337?v\227\007\345\177\346\304?:\030\327a\302b\360\277\310$6\034Z\267\361?M\014\315I}U\342?.\337\230\316\330n\340\277\027(\324\374\326\205\342\277\310\3020\361\242\374\326\277\365\327\373\342\002\220\345\2773\367V\261\327\372\312?\034O\300w\220\343\330?\312\023\336\321\025A\005\300V CP\362\222\341?Cs\271\001\253H\343?\253H\2355Z\035\375\277K\207/\010 \206\342?\211\023^\255\3119\367?}\311\315\223\340\314\365\277F\216\n1n\376\262\277O\r\236\257X\336\254\277\242op1P\244\275?k9\202\371\3453\202\277_\010\316>$E\370\277\273\255\272X\375\241\357?\'\0011SNf\375\277\222@1G*\355\333\277\257\206\316\335CD\331\277\264\274\350\360\267s\353\277\332\314\300\315\027\324\335?\217\361\271\240\312G\364\277}\224\305\367\016q\006\300%\227,\2434\251\364?\001\302\266G\003\344\367?\217\361\255\030AM\356\277\301\032\373\230\237\030\362?\301\313k\342,~\356?\031\236C\246y\203\346?\227\253}\353\364#\304?\010%\260|a\301\364\277\320n\272\255\271)\355?\300z\304\305\3766\373\277\363\3416f\275.\345\277\023\200\222\034J\247\347?\316\274\305\225\204\350\257\277\027\223\366\253\034\021\004\300*\306/\263c\376\344?\266\017!e\370\217\267?\232T\247M\237*\333\277/0@\353\006\266\363?\227\253}\353\364#\304?\300\017\314\013>W\300?\212,\273@\265\257\334\277\325\341\215\203\331,h\277\003\033{\275\353\037\000\300\027\212\315\237\004F\347?<\235t\243\0372\360\277\024o@\226J.\366?"
      }
    }
  }
}
node {
  name: "tensors/component_4"
  op: "Const"
  device: "/device:CPU:0"
  attr {
    key: "_output_shapes"
    value {
      list {
        shape {
          dim {
            size: 750
          }
        }
      }
    }
  }
  attr {
    key: "dtype"
    value {
      type: DT_DOUBLE
    }
  }
  attr {
    key: "value"
    value {
      tensor {
        dtype: DT_DOUBLE
        tensor_shape {
          dim {
            size: 750
          }
        }
        tensor_content: "@\263b\312\330\246\273\277\262.;N\312\252\273\277\030\000\326\340\213{\272\277{\016B\014?z\273\277\350\030\271\316 v\273\277\262.;N\312\252\273\277\262.;N\312\252\273\277}\037\201\301\370\210\273\277\352\263v/\273\250\273\277\262.;N\312\252\273\277\262.;N\312\252\273\277\262.;N\312\252\273\277\252\373}.\235~\273\277\262.;N\312\252\273\277\262.;N\312\252\273\277\262.;N\312\252\273\277\262.;N\312\252\273\277\262.;N\312\252\273\277\030\270\375\356}\031\267\277\262.;N\312\252\273\277\034\0314\211UH#@\262.;N\312\252\273\277\262.;N\312\252\273\277\034\005;48\250\273\277\262.;N\312\252\273\277\315Na\035\263\252\203?\334\324\274\3719;\273\277}{I\306\023\021\243\277\207\200\273\317D\262\264\277\262.;N\312\252\273\277\220\373i-*\034\266\277\262.;N\312\252\273\277\234\320\360\371v\347\273?\304\207\001\n:\035\260\277\262.;N\312\252\273\277\262.;N\312\252\273\277\220\373i-*\034\266\277\262.;N\312\252\273\277\262.;N\312\252\273\277\262.;N\312\252\273\277\262.;N\312\252\273\277I\004p\310\226\215\273\277\221$%#\260&\272\277\262.;N\312\252\273\277\262.;N\312\252\273\277\262.;N\312\252\273\277\262.;N\312\252\273\277\274\223X\004\372\243\273\277x:\355;!u\273\277\370\206$\244B\246\273\277\262.;N\312\252\273\277\262.;N\312\252\273\277\262.;N\312\252\273\277\3055`\237\305\246\273\277\262.;N\312\252\273\277\255&$/\ng\266\277\262.;N\312\252\273\277\262.;N\312\252\273\277\262.;N\312\252\273\277\262.;N\312\252\273\277\262.;N\312\252\273\277\262.;N\312\252\273\277\262.;N\312\252\273\277T\304\020\264\370?\216\277\262.;N\312\252\273\277\262.;N\312\252\273\277y\330\306J\n\025\273\277\262.;N\312\252\273\277\020_\315\302\243\243\273\277y\214\226\315]\351\032@\262.;N\312\252\273\277\262.;N\312\252\273\277\222`\277\364\327\212\273\277\262.;N\312\252\273\277\262.;N\312\252\273\277\262.;N\312\252\273\277b\247_\310\377\203\025?\262.;N\312\252\273\277a\220\006\223\023\244\273\277\262.;N\312\252\273\277\262.;N\312\252\273\277\262.;N\312\252\273\277\001$\307$\312\245\264\277\262.;N\312\252\273\277\026g\231o5\247\273\277\262.;N\312\252\273\277\262.;N\312\252\273\277\262.;N\312\252\273\277\262.;N\312\252\273\277\262.;N\312\252\273\277\\\217q\277\002\246\273\277\204N\246\253p%\272\277!\374\307+\020\235\273\277\262.;N\312\252\273\277f\301\254l\317\236\273\277\262.;N\312\252\273\277\262.;N\312\252\273\277\254\261\005\026\247\321\272\277\262.;N\312\252\273\277-\325\331),\221\265?\347\245S(P\007\273\277\262.;N\312\252\273\277\262.;N\312\252\273\277i\241X\251}}\273\277\262.;N\312\252\273\277\262.;N\312\252\273\277\262.;N\312\252\273\277\3301\373\241\'f\273\277\262.;N\312\252\273\277\262.;N\312\252\273\277\262.;N\312\252\273\277\262.;N\312\252\273\277q\212^\024z\336\261\277\262.;N\312\252\273\277\352\023\231;\021\242\273\277\262.;N\312\252\273\277\036O\201&\252\360\264\277\262.;N\312\252\273\277\262.;N\312\252\273\277\267\337\014\205\377\177\266\277\003VlB\001\242\273\277\262.;N\312\252\273\277\262.;N\312\252\273\277E\204\346\227>\250\273\277\262.;N\312\252\273\277\262.;N\312\252\273\277\030\307\273{\213\240\273\277\377\004Jp\236N\360?\262.;N\312\252\273\277\362\033e\350\242\245\273\277\262.;N\312\252\273\277\262.;N\312\252\273\277\262.;N\312\252\273\277\262.;N\312\252\273\277\262.;N\312\252\273\277\262.;N\312\252\273\277\'\372\032\301s0\242\277\262.;N\312\252\273\277\262.;N\312\252\273\277\262.;N\312\252\273\277\246\210\315\3345\246\273\277-\020\201\233_M\272\277\262.;N\312\252\273\277\262.;N\312\252\273\277\341\241\274\000w\037\025@\262.;N\312\252\273\277\262.;N\312\252\273\277\262.;N\312\252\273\277\262.;N\312\252\273\277\301\230\365\332\364\230\266\277\262.;N\312\252\273\277\000s\343^\342 \240?\262.;N\312\252\273\277\262.;N\312\252\273\277\260\257~;ib\273\277\262.;N\312\252\273\277\262.;N\312\252\273\277\262.;N\312\252\273\277\262.;N\312\252\273\277M\274\303J{\250\273\277\370#1\2254\251\273\277SZe\017~\251\273\277\262.;N\312\252\273\277\034\005;48\250\273\277\262.;N\312\252\273\277\262.;N\312\252\273\277\262.;N\312\252\273\277\262.;N\312\252\273\277\262.;N\312\252\273\277\262.;N\312\252\273\277\262.;N\312\252\273\277\262.;N\312\252\273\277|\365\\lT\375\272\277\316:[I\237\246\273\277T\'\203\006\033\251\273\277\262.;N\312\252\273\277\262.;N\312\252\273\277\327%\2445\227\214\273\277\262.;N\312\252\273\277\262.;N\312\252\273\2772\276IL\216V\273\277\257\340\021\264t\222\273\277f^\271]\301\241\273\277\210^\225M\266\216\273\277\222\346\352*\240w\273\277\262.;N\312\252\273\277\262.;N\312\252\273\277\262.;N\312\252\273\277\262.;N\312\252\273\277\262.;N\312\252\273\277\262.;N\312\252\273\277J\027O\2448\347\270\277\262.;N\312\252\273\277\3326\343\352P\233\273\277\262.;N\312\252\273\277\201y\001\310\336z\273\277\262.;N\312\252\273\277\216\350q\005\336\346\272\277\001\026xi\236\314\241\277\216\265\030\026Z)\262\277\342\241\242\246\360\233\273\277\262.;N\312\252\273\277\262.;N\312\252\273\277\352\263v/\273\250\273\277\262.;N\312\252\273\277\364{\322\237\217\010\273\277\\\357\223\313X\237\273\277\262.;N\312\252\273\277\262.;N\312\252\273\277\262.;N\312\252\273\277\262.;N\312\252\273\277\262.;N\312\252\273\277\262.;N\312\252\273\277\262.;N\312\252\273\277\001m\275Q);\254\277\262.;N\312\252\273\277\262.;N\312\252\273\277\262.;N\312\252\273\277\262.;N\312\252\273\277\262.;N\312\252\273\277\262.;N\312\252\273\277\262.;N\312\252\273\277\262.;N\312\252\273\277\262.;N\312\252\273\277\311\231\350\201\344\241\273\277\262.;N\312\252\273\277\205\307*b4\223\273\277Us\340\005\226\371\272\277\262.;N\312\252\273\277\236s(Q\263\225\273\277qI\002J\271\207\273\277:\307\342\026\027\367\272\277\262.;N\312\252\273\277\262.;N\312\252\273\277\237\260\0226O\237\273\277u\2413\300G\251\273\277\234\266\264;\277\246\273\277\262.;N\312\252\273\277\262.;N\312\252\273\277\262.;N\312\252\273\277\262.;N\312\252\273\277\221\332\223\276\017\236\273\2772\276IL\216V\273\277IAZ\2552\227\273\277\262.;N\312\252\273\277\231Z\264\245\302\036\254?\262.;N\312\252\273\277\262.;N\312\252\273\277\262.;N\312\252\273\277!\231\324\034\002\240\273\277\262.;N\312\252\273\277\262.;N\312\252\273\277\262.;N\312\252\273\277\262.;N\312\252\273\277\262.;N\312\252\273\277\376\204\350t\233\240\273\277\262.;N\312\252\273\277\262.;N\312\252\273\277;\204\331!\210\356\271\277x\tZ\303\025E\273\277\262.;N\312\252\273\277\262.;N\312\252\273\277!\006\320\007I\246\273\277\207\344\300\203~{\273\277\352\263v/\273\250\273\277\3119\306u\216\250\273\277\262.;N\312\252\273\277\231?4j\274\237\272\277\262.;N\312\252\273\277\262.;N\312\252\273\277\262.;N\312\252\273\277\030d\310l}\243\273\277\262.;N\312\252\273\277\271\202\265\220gy\270\277\262.;N\312\252\273\277\262.;N\312\252\273\277&\204\336l\277g\262\277\262.;N\312\252\273\277\316:[I\237\246\273\277\026c\032\r\364\016\257\277\262.;N\312\252\273\277\262.;N\312\252\273\277\275y\246F\030\212\273\277u\370\032\016\\6\273\277\262.;N\312\252\273\2771L\200\225\216\0350@\006\0377\304\205j\273\277\333h\337\302zL\270\277\342\241\242\246\360\233\273\277\244\273\257\345\230\246\273\277\272\226)\007\262\247\273\277\262.;N\312\252\273\277\262.;N\312\252\273\277\262.;N\312\252\273\277\374\272\233\200\266\244\273\277\262.;N\312\252\273\277\r\004\313I]~\273\277\262.;N\312\252\273\277\262.;N\312\252\273\277\317\244\2051.\251\273\277zK,\361\332\203\273\277\364{\322\237\217\010\273\277\177\356\355H\355X\273\277\245w\331\322\022\001\273\277\360NG\361\005\246\273\277\006o\3478\031\362\272\277\262.;N\312\252\273\277\262.;N\312\252\273\277\262.;N\312\252\273\277\262.;N\312\252\273\277\332\246\031\273\212\373\266\277\262.;N\312\252\273\277\257\035\374\230\020\234\273\277\262.;N\312\252\273\277\006\215\264!-\244\273\277\262.;N\312\252\273\277\262.;N\312\252\273\277\262.;N\312\252\273\277B\260\221\307 \243\273\277Em\005\335\024\222\273\277\262.;N\312\252\273\277\262.;N\312\252\273\277\324\313#/\261\232\273\277\262.;N\312\252\273\277\262.;N\312\252\273\277\262.;N\312\252\273\277\262.;N\312\252\273\277\262.;N\312\252\273\277\ta\t\362J\251\273\277\262.;N\312\252\273\277\262.;N\312\252\273\277(\274\037\245lZ\273\277\262.;N\312\252\273\277\262.;N\312\252\273\277\262.;N\312\252\273\277\323S\275\263>`\256\277\262.;N\312\252\273\277\262.;N\312\252\273\277\263\264f\204\222\227\273\277\262.;N\312\252\273\277\262.;N\312\252\273\277\262.;N\312\252\273\277\030d\310l}\243\273\277\304!P\347S\224\273\277\262.;N\312\252\273\277\262.;N\312\252\273\277\262.;N\312\252\273\277\267\035G}\017/\265\277\262.;N\312\252\273\277.\256Z\252H\355\271\277\262.;N\312\252\273\277p\206\354.U\221\273\277\277*\303\357{\237\273\277\262.;N\312\252\273\277\262.;N\312\252\273\277\262.;N\312\252\273\277M*G\314\204\034\264\277pL\007\210G\256\005@\262.;N\312\252\273\277\262.;N\312\252\273\277\365$\215\267\004\232\260\277\262.;N\312\252\273\277\023\351^\3174\222\273\277\370#1\2254\251\273\277F\302\235\232\321N\273\277\253YQ\252\233\247\273\277\262.;N\312\252\273\277\262.;N\312\252\273\277E\204\346\227>\250\273\277\262.;N\312\252\273\277\245\253\354\211K%\300?\262.;N\312\252\273\277\262.;N\312\252\273\277\262.;N\312\252\273\277J\205{kO\246\273\277\2376>l\027\214\273\277\262.;N\312\252\273\2774\000\034zS\225\273\277u\351y\323-\247\362?\225~\327\210\202\246\273\277\262.;N\312\252\273\277\262.;N\312\252\273\277AFg\337\221\240\273\277h\241:}\360\270t\277\3119\306u\216\250\273\277\262.;N\312\252\273\277;\204\331!\210\356\271\277\262.;N\312\252\273\277\262.;N\312\252\273\277\262.;N\312\252\273\277\262.;N\312\252\273\277\023\247\003Z\226{\306?\262.;N\312\252\273\277\262.;N\312\252\273\277I\307\205\343\372\203\273\277\345\370\014#\352Z\264\277\262.;N\312\252\273\277\035\322X+\325\247\273\277\267\205n\247\242i\254?\316\266LDB\374\271\277\210\247\326\236\342q\273\277\205\307*b4\223\273\277\262.;N\312\252\273\277\262.;N\312\252\273\277\262.;N\312\252\273\277\262.;N\312\252\273\277\262.;N\312\252\273\277\262.;N\312\252\273\277\262.;N\312\252\273\277\262.;N\312\252\273\277L\037\267Y\211\245\273\277\301\353\324%\037/\273\277\205\307*b4\223\273\277\235\\\312\213\006\210\272\277\262.;N\312\252\273\277\010\253\232V\3531\272\277\262.;N\312\252\273\277\ta\t\362J\251\273\277\262.;N\312\252\273\277\352\263v/\273\250\273\277\262.;N\312\252\273\277\262.;N\312\252\273\277\204*\272\262it\270\277T\'\203\006\033\251\273\277\262.;N\312\252\273\277\262.;N\312\252\273\277\355J\341\032=\244\273\277\262.;N\312\252\273\277\262.;N\312\252\273\277a-\023\204\005\247\273\277\262.;N\312\252\273\277\262.;N\312\252\273\277\211\263-\013sK\273\277\262.;N\312\252\273\277\262.;N\312\252\273\277\262.;N\312\252\273\277\262.;N\312\252\273\277\301\207;\233Dh\232?\264\244w\242~s\253\277CM\236\270\022\246\273\277\262.;N\312\252\273\277\262.;N\312\252\273\277\262.;N\312\252\273\277\330\251\200\333\007\251\273\277\262.;N\312\252\273\277\262.;N\312\252\273\2776\252L\365\314\016\273\2774\252\001J6\245\273\277\004\266^\313T\242\002@\262.;N\312\252\273\277\262.;N\312\252\273\277\r\2521\267\376\365\256\277\271\207\204\215\346\322\272\277\262.;N\312\252\273\277\262.;N\312\252\273\277\262.;N\312\252\273\277\351bJ3\301\376\271\277\336Sy\014\233\203\273\277\262.;N\312\252\273\277}\211\230\201?\352\265\277\262.;N\312\252\273\277+\250\223\002\327]\275?\262.;N\312\252\273\277\225\"\236Hr\267\272\277B\374?],n\270\277\262.;N\312\252\273\277\362\240\016\254\n_\273\277\013\373D\340\204\250\273\277P\271\216\020\264\244\257\277\262.;N\312\252\273\277\007\261\271f\3360\273\277\262.;N\312\252\273\277IAZ\2552\227\273\277\262.;N\312\252\273\277\262.;N\312\252\273\277\262.;N\312\252\273\277\251\276\223I\001u\273\277\2605\252q1O\273\277 \243\371\366M!\213\277X\252\304&\351\337\267\277\3545O\360j^\273\277O\254\031i\322\227\273\277]\255\014I*\312\272\277H\274~\212\336O\272\277B\035\215\262g\251\273\277\262.;N\312\252\273\277\262.;N\312\252\273\277\241TV\000\302\247\273\277FQ\004\217\333\247\273\277\262.;N\312\252\273\277\301\230\365\332\364\230\266\277\262.;N\312\252\273\277\262.;N\312\252\273\277\262.;N\312\252\273\277\273At\356:\223\010@\262.;N\312\252\273\277\262.;N\312\252\273\277\262.;N\312\252\273\277\014\251\023|\255\302\272\277\262.;N\312\252\273\277\262.;N\312\252\273\277\262.;N\312\252\273\277\262.;N\312\252\273\277(\355\262\035x\212\273\277\331\273\230\275\024\240\261\277\262.;N\312\252\273\277\262.;N\312\252\273\277\262.;N\312\252\273\277\262.;N\312\252\273\277\262.;N\312\252\273\277\262.;N\312\252\273\277^\371\233\247\221\250\273\277\262.;N\312\252\273\277$\214vc\317\225\374?\253YQ\252\233\247\273\277\262.;N\312\252\273\277\262.;N\312\252\273\277\262.;N\312\252\273\277\262.;N\312\252\273\277u\2413\300G\251\273\277\365\354\350\265\010\247\273\277\262.;N\312\252\273\277\262.;N\312\252\273\277\262.;N\312\252\273\277\334\310e\215\251a\273\277\246%\332\315\'\251\273\277\262.;N\312\252\273\277-\361c\237\327\365\272\277\262.;N\312\252\273\277\262.;N\312\252\273\277\262.;N\312\252\273\277\262.;N\312\252\273\277\032\177\222\363\354\303\272\277\262.;N\312\252\273\277\205\212@}\230\211\273\277\330\253\317k_y\273\277\304\021\355\267\335\357\200?S\006\232o\270\211\273\277\262.;N\312\252\273\277\262.;N\312\252\273\277>\002F!u\221\273\277w\361\253\352\364\221\273\277\224\002\277,mp0@\262.;N\312\252\273\277\262.;N\312\252\273\277\262.;N\312\252\273\277q\235\315\351~\247\273\277\262.;N\312\252\273\277\262.;N\312\252\273\277\262.;N\312\252\273\277\262.;N\312\252\273\277l\314I\034\031\246\273\277X\213\013\3519\244\273\277\262.;N\312\252\273\277\2101prW\006\002@\262.;N\312\252\273\277\262.;N\312\252\273\277>\003\2264\3516\272\277\374Y\367\001\000x\273\277\262.;N\312\252\273\277\262.;N\312\252\273\277\262.;N\312\252\273\277\262.;N\312\252\273\277\247R\032\321\032\242\273\277\262.;N\312\252\273\277\262.;N\312\252\273\277\262.;N\312\252\273\277\356\264\013\003\314\246\273\277\257Z\346}\254\245\273\277\262.;N\312\252\273\277\262.;N\312\252\273\277\262.;N\312\252\273\277\262.;N\312\252\273\277\032`w\323N\001\004@$\237\211\203\"r\273\277\225\033\344yt\251\273\277C\352\252\251\004\251\273\277\262.;N\312\252\273\277\325\360x\207\326\314\271\277\262.;N\312\252\273\277\262.;N\312\252\273\277\262.;N\312\252\273\277\262.;N\312\252\273\277\262.;N\312\252\273\277\262.;N\312\252\273\277\316\251\245\304=}\273\277\006P\312<\221\232\273\277\311\231\350\201\344\241\273\277\262.;N\312\252\273\277nu\255y\233\202\273\277|\234&\216\350\237\273\277\262.;N\312\252\273\277\350\030\271\316 v\273\277\262.;N\312\252\273\277\262.;N\312\252\273\277\262.;N\312\252\273\277\262.;N\312\252\273\277\262.;N\312\252\273\277\262.;N\312\252\273\277\262.;N\312\252\273\277\266j\356k\234\352\272\277\376$\306hE\247\273\277\262.;N\312\252\273\277\262.;N\312\252\273\277\262.;N\312\252\273\277\262.;N\312\252\273\277\262.;N\312\252\273\277\262.;N\312\252\273\277\262.;N\312\252\273\277\363\351O\3756B\273\277\264[{Q\275\243\273\277\303^:\314\357\235\273\277\262.;N\312\252\273\277 \314\266%e\240\273\277|\234&\216\350\237\273\277\262.;N\312\252\273\277Z\211\007\004y=\273\277h\230\322?\245\247\273\277\262.;N\312\252\273\277$\334sh\276{\273\277\262.;N\312\252\273\277\262.;N\312\252\273\277\2254\024\305\365\217\273\277\326\262>\217\306\035\273\277\262.;N\312\252\273\277T\207\245\022q\242\273\277\345Dd\376\002q\273\277\262.;N\312\252\273\277\262.;N\312\252\273\277\262.;N\312\252\273\277\253\037\336=\346\213\334?\262.;N\312\252\273\277\262.;N\312\252\273\277\277\326/\323\004H\265\277\262.;N\312\252\273\277\262.;N\312\252\273\277\262.;N\312\252\273\277+N\273\223o\374\270\2777\324pJq\232\273\277\262.;N\312\252\273\277\262.;N\312\252\273\277\262.;N\312\252\273\277i_\237\307b\032\271\277\241Q`;\241\276\317?\262.;N\312\252\273\277\345Dd\376\002q\273\277\3119\306u\216\250\273\277t\035W\032\327\214\273\277\262.;N\312\252\273\277\262.;N\312\252\273\277\262.;N\312\252\273\277\262.;N\312\252\273\277\262.;N\312\252\273\277\262.;N\312\252\273\277\262.;N\312\252\273\277\236 \337#N\251\273\277\262.;N\312\252\273\277\262.;N\312\252\273\277\262.;N\312\252\273\277\262.;N\312\252\273\277\262.;N\312\252\273\277\262.;N\312\252\273\277\357:79\224\223\273\277\262.;N\312\252\273\277E\266F.Au\273\277\377\004Jp\236N\360?\262.;N\312\252\273\277\262.;N\312\252\273\277\262.;N\312\252\273\277\243\253u\321$\375\264\277\262.;N\312\252\273\277\262.;N\312\252\273\277\345\373\"\255\326\215\273\277\262.;N\312\252\273\277\262.;N\312\252\273\277\262.;N\312\252\273\277\216\265\030\026Z)\262\277\262.;N\312\252\273\277\262.;N\312\252\273\277\262.;N\312\252\273\277\262.;N\312\252\273\277\225q\376\251\221\231\273\277\010\207\256]\344\200\270\277\262.;N\312\252\273\277\262.;N\312\252\273\277\262.;N\312\252\273\277\262.;N\312\252\273\277\345&\227\025\357\276\272\277[\314)E\262!\272\277dd[c1\251\273\277\262.;N\312\252\273\277\262.;N\312\252\273\277\307\237\212\207T\251\273\277\225q\376\251\221\231\273\277r\207Wj]\247\000@\2376>l\027\214\273\277\236\271\234\212\370:\207\277\262.;N\312\252\273\277\262.;N\312\252\273\277\262.;N\312\252\273\277\262.;N\312\252\273\277\262.;N\312\252\273\277\262.;N\312\252\273\277\262.;N\312\252\273\277\n*WiLz\272\277\262.;N\312\252\273\277\262.;N\312\252\273\277\262.;N\312\252\273\277\262.;N\312\252\273\277I\004p\310\226\215\273\277\262.;N\312\252\273\277\262.;N\312\252\273\277K\357\245S\336\250\273\277q\317-\200\201t\273\277\262.;N\312\252\273\277Yg\2731Z\327\266\277\262.;N\312\252\273\277\262.;N\312\252\273\277\345B\025n\253\240\273\277\262.;N\312\252\273\277\262.;N\312\252\273\277\302\376\027\300\231\244\273\277SZe\017~\251\273\277\262.;N\312\252\273\277\264l\354\376\000\202\305?\262.;N\312\252\273\277\262.;N\312\252\273\277\262.;N\312\252\273\277\262.;N\312\252\273\277\262.;N\312\252\273\277i\301\305\270yz\271\277\036(s[\362\227\273\277\233\237\323\200\225\220\273\277q\014\030e\035~\273\277\220\373i-*\034\266\277 l\224\031\017\247\273\277\255&$/\ng\266\277\014\335\257z\277\276\264\277\262.;N\312\252\273\277\262.;N\312\252\273\277\ny\267\312k\\\273\277f\376\226Qk\250\273\277\262.;N\312\252\273\277\262.;N\312\252\273\277\262.;N\312\252\273\277\262.;N\312\252\273\277\222\024\255\240\363\243\273\277[_`\271W\251\273\277\262.;N\312\252\273\277v.\226\317\220\233\273\277"
      }
    }
  }
}
node {
  name: "tensors/component_5"
  op: "Const"
  device: "/device:CPU:0"
  attr {
    key: "_output_shapes"
    value {
      list {
        shape {
          dim {
            size: 750
          }
        }
      }
    }
  }
  attr {
    key: "dtype"
    value {
      type: DT_DOUBLE
    }
  }
  attr {
    key: "value"
    value {
      tensor {
        dtype: DT_DOUBLE
        tensor_shape {
          dim {
            size: 750
          }
        }
