node {
  name: "global_step/Initializer/zeros"
  op: "Const"
  attr {
    key: "_class"
    value {
      list {
        s: "loc:@global_step"
      }
    }
  }
  attr {
    key: "_output_shapes"
    value {
      list {
        shape {
        }
      }
    }
  }
  attr {
    key: "dtype"
    value {
      type: DT_INT64
    }
  }
  attr {
    key: "value"
    value {
      tensor {
        dtype: DT_INT64
        tensor_shape {
        }
        int64_val: 0
      }
    }
  }
}
node {
  name: "global_step"
  op: "VariableV2"
  attr {
    key: "_class"
    value {
      list {
        s: "loc:@global_step"
      }
    }
  }
  attr {
    key: "_output_shapes"
    value {
      list {
        shape {
        }
      }
    }
  }
  attr {
    key: "container"
    value {
      s: ""
    }
  }
  attr {
    key: "dtype"
    value {
      type: DT_INT64
    }
  }
  attr {
    key: "shape"
    value {
      shape {
      }
    }
  }
  attr {
    key: "shared_name"
    value {
      s: ""
    }
  }
}
node {
  name: "global_step/Assign"
  op: "Assign"
  input: "global_step"
  input: "global_step/Initializer/zeros"
  attr {
    key: "T"
    value {
      type: DT_INT64
    }
  }
  attr {
    key: "_class"
    value {
      list {
        s: "loc:@global_step"
      }
    }
  }
  attr {
    key: "_output_shapes"
    value {
      list {
        shape {
        }
      }
    }
  }
  attr {
    key: "use_locking"
    value {
      b: true
    }
  }
  attr {
    key: "validate_shape"
    value {
      b: true
    }
  }
}
node {
  name: "global_step/read"
  op: "Identity"
  input: "global_step"
  attr {
    key: "T"
    value {
      type: DT_INT64
    }
  }
  attr {
    key: "_class"
    value {
      list {
        s: "loc:@global_step"
      }
    }
  }
  attr {
    key: "_output_shapes"
    value {
      list {
        shape {
        }
      }
    }
  }
}
node {
  name: "global_step/IsVariableInitialized"
  op: "IsVariableInitialized"
  input: "global_step"
  attr {
    key: "_class"
    value {
      list {
        s: "loc:@global_step"
      }
    }
  }
  attr {
    key: "_output_shapes"
    value {
      list {
        shape {
        }
      }
    }
  }
  attr {
    key: "dtype"
    value {
      type: DT_INT64
    }
  }
}
node {
  name: "global_step/cond/Switch"
  op: "Switch"
  input: "global_step/IsVariableInitialized"
  input: "global_step/IsVariableInitialized"
  attr {
    key: "T"
    value {
      type: DT_BOOL
    }
  }
  attr {
    key: "_output_shapes"
    value {
      list {
        shape {
        }
        shape {
        }
      }
    }
  }
}
node {
  name: "global_step/cond/switch_t"
  op: "Identity"
  input: "global_step/cond/Switch:1"
  attr {
    key: "T"
    value {
      type: DT_BOOL
    }
  }
  attr {
    key: "_output_shapes"
    value {
      list {
        shape {
        }
      }
    }
  }
}
node {
  name: "global_step/cond/switch_f"
  op: "Identity"
  input: "global_step/cond/Switch"
  attr {
    key: "T"
    value {
      type: DT_BOOL
    }
  }
  attr {
    key: "_output_shapes"
    value {
      list {
        shape {
        }
      }
    }
  }
}
node {
  name: "global_step/cond/pred_id"
  op: "Identity"
  input: "global_step/IsVariableInitialized"
  attr {
    key: "T"
    value {
      type: DT_BOOL
    }
  }
  attr {
    key: "_output_shapes"
    value {
      list {
        shape {
        }
      }
    }
  }
}
node {
  name: "global_step/cond/read"
  op: "Identity"
  input: "global_step/cond/read/Switch:1"
  attr {
    key: "T"
    value {
      type: DT_INT64
    }
  }
  attr {
    key: "_output_shapes"
    value {
      list {
        shape {
        }
      }
    }
  }
}
node {
  name: "global_step/cond/read/Switch"
  op: "RefSwitch"
  input: "global_step"
  input: "global_step/cond/pred_id"
  attr {
    key: "T"
    value {
      type: DT_INT64
    }
  }
  attr {
    key: "_class"
    value {
      list {
        s: "loc:@global_step"
      }
    }
  }
  attr {
    key: "_output_shapes"
    value {
      list {
        shape {
        }
        shape {
        }
      }
    }
  }
}
node {
  name: "global_step/cond/Switch_1"
  op: "Switch"
  input: "global_step/Initializer/zeros"
  input: "global_step/cond/pred_id"
  attr {
    key: "T"
    value {
      type: DT_INT64
    }
  }
  attr {
    key: "_class"
    value {
      list {
        s: "loc:@global_step"
      }
    }
  }
  attr {
    key: "_output_shapes"
    value {
      list {
        shape {
        }
        shape {
        }
      }
    }
  }
}
node {
  name: "global_step/cond/Merge"
  op: "Merge"
  input: "global_step/cond/Switch_1"
  input: "global_step/cond/read"
  attr {
    key: "N"
    value {
      i: 2
    }
  }
  attr {
    key: "T"
    value {
      type: DT_INT64
    }
  }
  attr {
    key: "_output_shapes"
    value {
      list {
        shape {
        }
        shape {
        }
      }
    }
  }
}
node {
  name: "global_step/add/y"
  op: "Const"
  attr {
    key: "_output_shapes"
    value {
      list {
        shape {
        }
      }
    }
  }
  attr {
    key: "dtype"
    value {
      type: DT_INT64
    }
  }
  attr {
    key: "value"
    value {
      tensor {
        dtype: DT_INT64
        tensor_shape {
        }
        int64_val: 0
      }
    }
  }
}
node {
  name: "global_step/add"
  op: "Add"
  input: "global_step/cond/Merge"
  input: "global_step/add/y"
  attr {
    key: "T"
    value {
      type: DT_INT64
    }
  }
  attr {
    key: "_output_shapes"
    value {
      list {
        shape {
        }
      }
    }
  }
}
node {
  name: "tensors/component_0"
  op: "Const"
  device: "/device:CPU:0"
  attr {
    key: "_output_shapes"
    value {
      list {
        shape {
          dim {
            size: 750
          }
        }
      }
    }
  }
  attr {
    key: "dtype"
    value {
      type: DT_DOUBLE
    }
  }
  attr {
    key: "value"
    value {
      tensor {
        dtype: DT_DOUBLE
        tensor_shape {
          dim {
            size: 750
          }
        }
        tensor_content: "\256\262rzF\211\351\277\223<\320\236L\245\342\277^$\253\007K\312\361?\355\327\324\\e\333\341\277~8\225\005E\364\261\277\331_\007\017C,\242?#Z\217\270\350u\351\277c\022\222GMZ\351\277\334s1\300\'/\350\277\354\t\343\301\021\260\345\277\323rq\272\240|\217?g\020tV\215o\320?\3519\246\357\261C\325?\320\303\345\344ya\333?\247\216\201\245\340\331\337\277\276\276{\343\301\347\341\277\206\032\367\313\206\236\347\277\035\032\265\017\277\264\351\277\033y\2137k\260\322?\266y\026\022\201f\337\277\013\340\014\233R\311\344\277\177]\275\310Bt\351\277v\327\307+$\304\346\277\n\371\223\315\250\263\346\277\0357\364\242_\243\331\277\'\354\211\272\341t\244\277\037\307 \237\010n\356?\331\207\240 Cr\345\277^_# \255[\342?\261\035S\225\223\223\351\277BB\223\347\264J\314\277\303<\242\345\231\256\340\277a\021\243\276=8\331\277\206\001p\2310\264\345\277\336:n\315\335\344\224?\207\231Q\260\000~\365?oV\352`@\273\350\277\354\177:)\243\215\340\277\252VhM\310\334\000@\246O<\021\017\354\303\277\201\245\323F\227\331\373?|\362\334\255\365i\351\277\3040R\342h\335\346?\240\214)\256\304#\007@)\235\257A=\370\341\277\274 \"\307\211\277\244?F\333\362\211\274\367\272\277\330\315f\355\231F\335\277\331w\034k\325\211\366?=\224ds\241\267\351\277\036bO<!\007\345\277C\321q\201\234\022\311\277\377_\315\364\323K\316?\001\240\335\312\212\355\331\277\307\032\005p.V\351\277n\3572\217\0366\335\277A@H\260\250\t\350\277\306\217mN\260\021\324\277\371\265d-F\331\345\277>\211|>|c\350\277u\034\034x[U\351\277:\371e\024\366\274\344\277G\245\347\177*\346\344\277\326\276\344\206h\354\340\277\013Q.\001k\001\350\277\017!k\323\312m\310\277\247\026\255s\3350\344\277R\340G\205F\327\341\277\216(\256\273\250\255\351\277\345y\350X\316o\335\277\007\272\200\314<P\347\277fb\212&\025\025\342\277\202\310\235\343\217~\351\277`sB\276$\026\340\277\230\033\224Q\317\273\365?\207\266\014\225\223\177\354?\227D\2379\223\216\346\277\301\375\216\344-K\341\277\316\321\334Z\323\270\351\2775\321\216\016\324\002\323?\316<\261\374\247\006\351\277\357a\344+\241\270\320\277\340#\215\247\244\014\257?\036bO<!\007\345\277s\2375c=G\303\277\005k\336\254Qr\350\277\337j\230\205\002\240\355?\202\310\235\343\217~\351\277\343jf\362\234\025\341\277\n\371\223\315\250\263\346\277\001/\274dr\265\326\277\306f\373/\037\204\371?{j\225\036\266\254\351\277*h\036\376\350N\017@\230\254[f\347Y\303?\322k\262\347\204\316\343?\277\220:\372\204o\371?Bm\207J\251\363\335\277)\22514m\323\271?\270IX^\322\"\366?)\2666t\223\342\343\277A\317&J\220\321\344\277\022\204\277k@\t\341\277Q\022V\352\362\253\345\277\313\364\245\347d3\347\277C\263\264M\315\202\317\277\227D\2379\223\216\346\277\357a\344+\241\270\320\277\014?(\007\232\375\301\277*\'X\332\253\032\347\277\002\357\253\216\273\023\313?\337\334\273:Wf\363?\345\302\000&_c\342\277\237\235\356\005\344\231\351?m\262o?\260c\370?P\232\263KU\215\326?\333\233\216\340Lw\001@P\232\263KU\215\326?j\362\266\"\276\337\326?\3534\327$\006Y\347?\372@\265\2363D\010@=\333\017\027\364\347\324\277\215\3270\317\312\310\345\277A`P\033\204\332\305\277\262\203\033\336\245\366\344\277h\201\225\274\245\247\323?\331\350=\321\355\301\371?h\336\227\204F%\311?G\245\347\177*\346\344\277zNW#T\200\350\277J\242hf|\214\361?\362\264H^\352`\332\277Q\022V\352\362\253\345\277\356\247C\302*\322\336\277\260\272_D\313p\340\277\323rq\272\240|\217?%eO\014\274\005\333\277\267\352m\320\370\243\n@\006\036\004\315b\264\330\277ySs$\033v\231\277C\263\264M\315\202\317\277\261\234\242\020\374\340\346\277\222n\336\003\371y\346\277\242\312\373\014\177\371\322\277\354\310\204\211\231\013\322?\331_\007\017C,\242?a\241\302\372\326\215\t@\247\\s@4\005\334\2772\275op\\H\305?\310Va\250\216w\351\277\343e0\361#p\351\277\252\306\341\332a\314\346\2774.\221\326t\200\310?\244\360 \245\307\267\346\277\344\333\207X\265M\344\277e\324\026|&@\267?\271\365\361\334L\354\351?q\237g\366\242\321\337\277_\214\311\360z\000\342\277\325a\024R-\371\347\277\300\026\026\027\2045\343\277\343jf\362\234\025\341\277\316`\370\202\321\200\334\277\354\306\357~\t\204\350\277y\231i\303F\036\351?\334\255,\357X\353\342\277\005{m\313\320\354\347\277\201\240\020\210\000R\216\277\211\'.\373\253\267\357?3\020\324\242\245\360\316?\030s\007\3240\010\343\277\204\313T\254\233\300\350\277A`P\033\204\332\305\277\026\325\250\224\250\234\236\277\370\276\\A\035I\350\277\263\306\373Z\201\266\377?\312\342\321\200\371\271\335\277!\0347\346\301\263\351\277\242\312\373\014\177\371\322\277\201\032\330\321ud\270\277\251\242\240CX\224\315\277s\2375c=G\303\277 V\3778\3605\353?\022\027`\030\206\233\350\277m\220\345\217qw\343\277\334\331\344\264\336\264\351\2774\n\036\254\005\276\342\277\032<\303m\013\216\347\277\216/\313\002\215\026\347\277\222E\323\0335\247\365?S&\016R\235\253\331\2771\273\206\365+r\364?,\2330\t\320\224\351\277S\257Dj\354\212\351\2773<,\021\262\222\346\277<\206\305up!\351\277~8\225\005E\364\261\2775\321\216\016\324\002\323?m\317*$Ce\357?\350\252\307U\312{\330?\267rcF\226\365\346\277\337\274\256U\212E\337\277\305\'\335\305\241\216\351\277\245V\364V\353\254\362?Q\210\255Q\204\211\340\277\006\3013\230\'\301\337\277\364\224\016`\251\005\340\277S\204\037)\212,\006@\270IX^\322\"\366?^\360L\361\240d\323\277^\225\314mc\002\365?vz^-\266\213\327\277|{\254\217w\216\357?\321\312f\035\377G\347\277\341\234tWI\352\344\277\023\217\030\211F\336\350\277i+F\300\357\232\346\277<j\356\260\333\257\321\277\216\276\251\234t\336\343\277,V\347%\252\225\367?\364\255\225\222\377\357\341\277\021\237\371\300g\304\013@\006\037\363Ur\326\350\277\232\2349mU\334\347\277\324\353@\256\240\306\300?\373\302\233\\k\362\355?\3519\246\357\261C\325?B\'\301}R\037\346\277\226\354\004\006\321@\345\277\373\302\233\\k\362\355?3<,\021\262\222\346\277\204\313T\254\233\300\350\277gM\320o.\207\373?\004\nLe\270\264\344\277\337j\230\205\002\240\355?\264\030~\333\307f\321?fb\212&\025\025\342\277\371q\202a.\213\330\277\246\276\022@\033\343\342\277\2521\177\335?\\\312\277\204\177iU\274$\351\277\370o7*\"J\344?p\213\026\305\305\214\325\277\363\234\260\264\243\230\350\277\210Y\n\315\362\001\347\277\345\251y\363\010y\340\277<j\356\260\333\257\321\277\267\001B\340}\275\343\277\264\030~\333\307f\321?w\376s\230\347\242\351\277\251\242\240CX\224\315\277\036\345\335\322\327\375\347?CxA\257\\A\345?\024\334Y\237\002W\342\277\034\204\316\202Na\351\277ic\330\210\326\027\332?5t\250\007v\353\350\277q.\024\375$\017\300\277\216\354)\331&V\r@\365\254\244r(\010\247\277h\241\235\'\201x\341\277\230+\030\007=\244\344\277F\333\362\211\274\367\272\277d\374T\270\025\265\302?x\353\177\223\316\303\332\277\270\244\330\341\017\205\324\277\3601\320\231V\216\350\277;\344\253]\017/\376?\325\t\341T8f\320\277\263\333\265\021hD\346\277\270\334\003t)G\336?\345\230\242a\350=\263\277,\334\302B\251[\341\277\255;\000\346_A\274\277\306\217mN\260\021\324\277\325\t\341T8f\320\277\341\342p|\377\303\004@m\037\304)Y?\340\277[\365\033\274LO\341\277\363P\305]\304\374\350\277\335\341\205\213\021\001\313\277\266\242\215\252\003D\340?\241nlz\365\223\r@%\263\356g<c\263?\035\352\254\235\203\350\325?1\273\206\365+r\364?\026\325\250\224\250\234\236\277\352\033\351\273\342\263\333?\355\360[\217\273\305\343\277\354\210=\246\213\217\363?,s\242\n=\227\356?\014j\034j\216\246\323\277\017!k\323\312m\310\277\022\033\2373\324D\356?X\277\0138\311\355\364?\014?(\007\232\375\301\277\251Y\275\031/\321\265\277\366\310\003\013\301\235\351\277:\336S0\272\262\351\277\2558\253\031\371L\007@\334\224\245\274\002\001\341\277z\021B\272CB\000@\343jf\362\234\025\341\277\003\202V\357\032c\010@iq\014\215Fo\336\277j\203\340\363\261\350\347\277O\013\325\261m\305\331?\007I_f$\030\344\277\243\230\206q\005j\345\277\313\\b\024\271\376\303?0b\335\262\035!\014@lS\205\261\326\344\014@\251\242\240CX\224\315\277\325\360\362\353\024\301\344\277\335\321=\264\215O\224\277\374\0278\340`\226\351\277\210Y\n\315\362\001\347\277#\342\326G(3\351\277\244R\350\336i\270\351\277\0374u\216\225os\277\320\275\310\267\014t\325\277\215\3270\317\312\310\345\277Fz\214\346h\202\331\277\237\235\356\005\344\231\351?\203Q;2\254\030\343\277\332\337:T\005\300\346\277\274\305.\257\254X\332\277\242\274\243=k\013\232?\t\210rg\220{\343\277\321k5\337\224\357\350\277\277\220:\372\204o\371?\034[\316\003\234 \331?\231\022\221\324\346\271\342\277\\\177\304T\273q\346\2775\255\264\255\227\205\323\277\261X\300D\344\222\331\277\022\237\247\247\305X\350\277\001!\210`\002^\322?\276a\253\256\206\364\350\277\201\240\020\210\000R\216\277\304\255\303K\262\346\343\277\325\t\341T8f\320\277\206\326\024\000oP\332\277\0219\\g\243\324\347?\225iE\221\254\224\000@x|\256\336\263\034\362?\327/\006\355\200$\344\277\002\003\313,3\316\330?\274\360\211Hn\274\345\277\202\311E\274\016\307\006@\227\274\251\303\365<\n@\002WWZE\266\351\277j\362\266\"\276\337\326?\021Yd\322~\245\325\277l8K\\\257)\342\277\210\352Ip\t/\351\277\241\261\r\244[T\347\277\232\260\361\324\377\333\333\277\352R\224X\325\350\340?~\250\271\226\022\356\330\277\311\316\200O\034u\323\277}{z\374\021\004\343\277|{\254\217w\216\357?9\002i\221\336\276\367?\305\026g\244\372\371\276?C\263\264M\315\202\317\277p\032\365^\255T\322\277\304\255\303K\262\346\343\277\006b\346\230z\002\346\277\306\241sH\201\025\352?\255\036|\016$\032\350\277X\351\276\370\013\t\003@\202\310\235\343\217~\351\277\253\337h\r\270\266\350\277+T\227t\254\004\335\277F\333\362\211\274\367\272\277\276\276{\343\301\347\341\277y\210\244k\'\250\006@\004\340\337T\006s\351\277p\032\365^\255T\322\277s\2375c=G\303\277]\327^\210}\277\347\277\235\023\3376\250\274\332?\372?t\374\201\266\324\277\003\244\203\034\246Q\351\277(\266\233\343\373\246\351\277\351\312\317\300\245L\346\277f\006b\312Xj\006@\352\033\351\273\342\263\333?\315~\265\266\240\020\326\277#\246z\017\310\021\351\277\216/\313\002\215\026\347\2771\344\221\335\357D\345\277\204\324\311\310b\017\346?\316p\201\2620\271\321?\no\3534:\221\341\277\242\274\243=k\013\232?\327/\006\355\200$\344\277*\'X\332\253\032\347\277\335\313\313\363\351|\351\277]\327^\210}\277\347\277Hs\331\032~\021\341\277KqZ\342\020\256\350\277|\0017\332k\241\351\277\252\033\305E\030\330\350\277\334\0274S\271\367\343?\037\272\351o\343T\346\277\216/\313\002\215\026\347\277\211\354\265\342I&\377?\037\377=\274\032\346\350\277,\253\277\'O\017\351\277\263l\365\264~q\350\277\305\224<\031\\\374\341\2774.\221\326t\200\310?h\201\225\274\245\247\323?\375\233G\\rk\301?d\255\037\276\027\324\347\277\036\345\335\322\327\375\347?\370\276\\A\035I\350\277\\\022pj\022\226\376?\201\240\020\210\000R\216\277\224\363\267\321\273\261\335\277\367\376\025\304\t\022\341?^\266YHW\260\275?c\337\224Y\221c\325\277%\036\271\274\304\262\351\277\020\213r7+z\331\277\251\366\013?\317\032\340?\207\266\014\225\223\177\354?\210.\345\213\220\243\003@:\256\002\020Y\210\353?E\347\204\003V5\350\277 %\r&\003\2522?\311\035\2748:\230\350\277F\330\235\275U\003\006@,8*\362\332\005\376?\0254\364\322\304\244\343\277\336:n\315\335\344\224?\311\373\216\013\257\251\007@<Q\000H\270\n\346\277]6\342\337\211\203\t@\314g=\253\007\256\351\277g\217\377\030u\004\000@\241R\334e\361\373\350\277\254\235\326\362\235\371\365?\003\034\271\225Vs\344?O\031\t\266\335\034\336\277\335\321=\264\215O\224\277\222\361l\232\257p\351?\354\214\n\"\373\353\336?\325\t\341T8f\320\277\025\t\2319\003A\330\277\210Y\n\315\362\001\347\277\264\030~\333\307f\321?G\312\035\217c\202\350\277\276H$|0\n\347\277\325a\024R-\371\347\277\266\211\237A\340\236\324?\372@\265\2363D\010@) >\330\363\356\344?\333Q\027\351b\231\351\277\267\352m\320\370\243\n@{\374\032\236\246\324\276\277;\340\336\341\237\322\342\277\241\317\312\327*\344\340\277\222.\332\342\265.\254\277|\202c \\z\003@K<\225\264X\227\345\277\3224\007K\222\231\336?\007\272\200\314<P\347\277W\362\323\257\365\317\260?>\305\330v\334\204\350\277v\201x/n\267\311\277\305\026g\244\372\371\276?\370\316\353_\234\303\347\277\360\346V\303\2265\336\277\241\026\200-\221\332\350\277\002\3138dLQ\345\277\367\000a\373\025S\325\277\201\245\323F\227\331\373?\005{m\313\320\354\347\277\020^3\235*\220\343\277\014?(\007\232\375\301\277\n\371\223\315\250\263\346\277\213\016u5\360B\341\277m^\t\276*-\354?J\233\342\263\005V\337\277an\014\275\253p\350\277NI\232P\030&\341\277\241\213\350\013\023\226\323\277R\371\316\267\234\301\343\277\325\360\362\353\024\301\344\277X\204\3044\005\240\351\277\324\177\321\205\374\210\341\27745\225\006\n\210\351\277\371\245\340w\330\360\366?\247\260\344*\313\315\350\277\303\203W;\000\245\350\277\344\333\207X\265M\344\277\376\034\267\037\231\206\013@\377{\241\255r\005\367?x[/y\307\270\350\277WN\352\321\260\265\361?\231-\313)\016u\r@R\371\316\267\234\301\343\2770\322\275v\204\313\333\277\215M\2106\\\246\340\277V\302\361\207D\002\322\277A`P\033\204\332\305\277\227\323}\323zV\343\277\035\014\026\022\216\036\351\277\323rq\272\240|\217?|\224\001/h\356\344\277C\365\262\030\246J\342\277\3270\256\305\377l\001@SQi\353^\017\345\277\003\244\203\034\246Q\351\277\251\366\013?\317\032\340?\361\370**\002\257\347\277\246O<\021\017\354\303\277j\203\340\363\261\350\347\277\001!\210`\002^\322?\353\"j\364g\232\347\277\247\251X\2114U\374?\0070\3303\316-\342\277_kU\364\237.\351\277^\266YHW\260\275?\237`&<\204w\336\277\200+\257c\226\237\345\277\274\"\377\343\347K\323\277I\375\201\263\3543\346\277^\307\317i\376D\350\277k\013\245\213\341\204\342?,fk\333\027~\346\277e\225@d@2\003@2\3459\266n\215\002@\371\265d-F\331\345\277k\234\316\\\325\215\323\277|\224\001/h\356\344\277th\007\317:\361\350\277\222.\332\342\265.\254\277Qx)\234\026\241\361?\"\265\032\2457j\330\2771\344\221\335\357D\345\277\236\273\2539\263)\343?\020\003\256\237\373\335\316\277\335\027\267J\311\030\351\277\327Q\2053\256~\350\277\205E\353.{G\351?\301n\260JF\203\344\277\2156~\316w\207\337\277\327Q\2053\256~\350\277\375L\022bt\212\346\277Mb!\203n\020\343\277\321\312f\035\377G\347\277\024f\0028qy\347\277h\201\225\274\245\247\323?\371\245\340w\330\360\366?:\371e\024\366\274\344\277\24687#\034\035\371?p\032\365^\255T\322\277\247\245\213\r\305\370\340\277\320\372\220\201l\226\340?\010o\035\310\237\033\356?6\237\262<\215\270\313?\250\307\025\275\003\345\365?tf\246\305\013\214\343\277\246\276\022@\033\343\342\277\302\2770|P\245\343?\2653PE*\222\347\277{#\340\310O\266\341\277S\257Dj\354\212\351\277\031\031\356g\001W\351\277\013\307\205h\374\336\342\277\\\2619\3604\001\324\277\244R\350\336i\270\351\277\345\230\242a\350=\263\277\002\3138dLQ\345\277\302U)\030\360\230\342\277#\203\014@\213\225\324\277\302\370X\343\264\245\351\277\313\\b\024\271\376\303?\237\001\331<\327\270\344\277uM\037\223\265\241\341\2775P\032\321\273\227\002@}d\246\354\214\352\t@u\254l\222b`\333\277<j\356\260\333\257\321\277P+\335\034I\226\347\277X\242W7\027\346\251?x\026\333,\220\'\346\277(E\025\016{\252\340\277V\302\361\207D\002\322\277\251\315\224\246L=\337\277\226\354\004\006\321@\345\277\215\223\204[\022\200\000@kjY\301[\376\345\277`\006\356\323{:\370?\010<\354\177\031\244\351\277\237\001\331<\327\270\344\277:\256\002\020Y\210\353?\370^r\322\002\324\001@\\<\321\021\263E\351\277\340\265\373\211\237\324\346\277\001\344\277\226\242;\347\277\323rq\272\240|\217?E\307f\306W@\351\277\257\031\255Cx/\332\277xK\240ZH>\351\277\236\273\2539\263)\343?\006\376\373a\207\343\352?Sj\360\035\265\371\346\277\250\207\316\331\365h\347\277\364s\t \203\366\265?r#\005\234\245\313\t@=8y\025b \344\277\343jf\362\234\025\341\277]f=\"e\207\344\277\270\212\265\206\343\234\351\2777[\236\335\017\340\341?\370^r\322\002\324\001@\323rq\272\240|\217?\302U)\030\360\230\342\277y\210\244k\'\250\006@EMMLh\230\343\277/\026\240B\234\031\351\277\324\353@\256\240\306\300?\332\377B\277\340\220\304\2775{?\022\036\366\345\277F\333\362\211\274\367\272\277\201\022(1@\265\343\277\020\003\256\237\373\335\316\277\227\217\233\007c\010\326\277\337z\345-\031\256\271\277 %\r&\003\2522?d\255\037\276\027\324\347\277\263\333\265\021hD\346\277R\225\344\200\251\242\350?\270\023\257\020\034|\343?\217u\307\'C\360\006@J\262\354\033\352t\340\277\320\372\220\201l\226\340?!\002\365\204&(\350\277\212r\3705\026\247\322\277$8\020r\273\033\345\277^\266YHW\260\275?\017!k\323\312m\310\277\213\016u5\360B\341\277\020\213r7+z\331\277Q|\366\027\206\375\334?}|\"\325\220L\000@\013\340\014\233R\311\344\277\276\256\367-T\377\362?b\021\327\030\010\271\351\277\226\023\374\303\337\254\264?\245V\364V\353\254\362?\n\371\223\315\250\263\346\277d\255\037\276\027\324\347\277\345\230\242a\350=\263\277d\374T\270\025\265\302?\232o\006\332\205/\205?F\333\362\211\274\367\272\2778\221G+\306\206\364?\226\354\004\006\321@\345\277\016\222\2149\343\245\313\277\314Qv\034\240&\340\277 \252e\272ul\367?\252\306\341\332a\314\346\277u\362\231\225\206\357\314\277\001!\210`\002^\322?2\021\321w\360.\333\277\005\215\332\373n\253\347?\311+\352M\212\255\342\277\354\214\n\"\373\353\336?+\345\305\277\221]\364?\026z\272\237\033y\333\277\020\003\256\237\373\335\316\27770\252z\0337\340\277\237\235\356\005\344\231\351?4.\221\326t\200\310?\375\231^\341A\225\360?E\351b\025uy\350?\232\203\262:\377\361\345\277\016\222\2149\343\245\313\277{#\340\310O\266\341\277\317\213S\034\223\344\347\277oF[B\301@\351\277HC~\330\242\r\006@\222.\332\342\265.\254\277\274\261\335}\317\023\320\277j\372\3373\302\016\000@g\010q\272\345c\350\277\2521\177\335?\\\312\277\375\233G\\rk\301?\230\377\277\2300\002\315?\214T;\002G\027\331\277t\032 \336\224\264\351\277R\203wP\013\344\350\277\323rq\272\240|\217?e\271\316\232\372\205\351\277\217u\221\317\343\352\336\277\023\273\345\242\'\205\351\277\327\271\256\205\357F\351\277m\220\345\217qw\343\277C\263\264M\315\202\317\277G\214`M\324\373\342\277H\235\245\247\345\004\204\277D\314\2470\342w\361?\200D6\226\354\211\347\277\202\331\230\223\016\372\323?\005\215\332\373n\253\347?\241\261\r\244[T\347\277\262\002v\302\037\326\362?L\235\'\374\361T\351\277\330\216!Y\310X\301\277\036I\310\t\313\034\343\277,fk\333\027~\346\277\317\341\242\030I\361\324?sS{\2120\322\020@\237\275\366p\277j\327\277J\344\372\200\226I\344\277\021\215\302\350(\013\364?Q\263\241\264x2\342?\263\306\373Z\201\266\377?%!<b6\002\014@\250\300]w\'$\307\277\222UW\321\242\217\344\277\276H$|0\n\347\277\255\005\365\333\315/\346\277x\026\333,\220\'\346\277\217\004\246\301*\270\003@\267\372\300\247\370\326\327?\311\316\200O\034u\323\277kQ\322\216\005\024\344\277\261\234\242\020\374\340\346\277\341\234tWI\352\344\277\250\300]w\'$\307\277\335\313\313\363\351|\351\277\332*7\"\3259\326\277\255;\000\346_A\274\277\256\250\213\335_\367\326\277\232\035}\314\377\221\306?\201\240\020\210\000R\216\277\260+\201\252\343\250\343\277\352;\361&\276\204\351\277\317\213S\034\223\344\347\277\\x-J\023g\351\277\017!k\323\312m\310\277@\350\255|\346\273\346\277\326z\002\273P\236\323\277"
      }
    }
  }
}
node {
  name: "tensors/component_1"
  op: "Const"
  device: "/device:CPU:0"
  attr {
    key: "_output_shapes"
    value {
      list {
        shape {
          dim {
            size: 750
          }
        }
      }
    }
  }
  attr {
    key: "dtype"
    value {
      type: DT_DOUBLE
    }
  }
  attr {
    key: "value"
    value {
      tensor {
        dtype: DT_DOUBLE
        tensor_shape {
          dim {
            size: 750
          }
        }
        tensor_content: "Fo)&H[\325?\342\336\365_i#\314\277\224\372\255\034\365^\300?&\t\261f\236\024\343?\216\227\342&\333\023\335?\251\214\335\033\224\023\350?\216\227\342&\333\023\335?#dv\271\007\016\303\277w\366S\032\240\017\330\277O\377\327\331\260\237\362?0\004\331G\351\206\363\277^\177m\0275\027\371\277\232\360\375\336\212C\341?\377\243\215t\321\262\326\277r\336\214l\363_\361?\035C\357\377a\217\357\277\262S\364O\255}\341?.\327 \005\243|\346?\350JGA\031\224\345?\322\202\004\217\246\236\367?\256\346M\241 (\322\277OIv\203a\006\264?\3724\272D\2325\273\277\217\215\007nh\t\341? \235\355\271\377\341\245?\311\255\217PB\201\310\277n\034\007\275\206d\271\277\372y\200\317\225\016\335\277\017n&\367q)\342\277Kq\252q~\313\377?\271Vv\2364\212\323?\032\260\225\256\356\344\336?\355\223I\203\344\366\362?\257\301\357\313\026\270\326?\204\377\331\00565\356?\025\246\272\365{\332\342?\273\362U\333=Z\332?\230)\347\252q\331\347?\374\332\365\364\201\330\362\277\212\332\340\313\227]\366\277\260|)A\033\337\304\277\273\233 \300\r\347\234\277\232\277\302Jl\220\352\277P\343\215\332+G\362\277\260|)A\033\337\304\277\2632m\226\007\377\315?\273\233 \300\r\347\234\277\326i<\336\250R\371?\367\346&~\"d\354?\030\330\355\216\215h|\277&\t\261f\236\024\343?\242\276m}\217\253\344?e\312\234\332\252\241\322?v\317\274\004\032s\002\300\307\027\264\260G\312\325\277\363\201\332<\322\250\376?[d$\033\001[\340?Z\270V\343\033\255\377\277\371H\361p\353\022\370?\367\017\010\245\004}\361?\334a)\013u\327\265?\352bS\361\215e\215?\340K\234\016\366x\353\277\256\346M\241 (\322\277\272!d\356\261\345\344?\367\017\010\245\004}\361?\036\326\364\206I\361\361?\312\213\263\311\277\035\357?\017\177/\237\307B\333?\311\255\217PB\201\310\277\375\026a\017\360z\373?\373\366?\364\0061\363?Ley\350\335?\346\277\2632m\226\007\377\315?\275\222\217\032\234y\271?\273\233 \300\r\347\234\277\035t*\224\200B\346?ci\'\265\276\327\374?\257\301\357\313\026\270\326?\r\213\233\336\215B\001@K\030\240\212\256\353\360?{4\tFj.\000@~\370\200\233J7\344?\223\304\232i!\036\372?\360\030\267\337\035\374\350?DN\007\010\016u\365\277w\371\325h\'\034\352\277\362\337\315\0237f\342?n\034\007\275\206d\271\277\037\241\342\326\306L\363\277[5\026\010\215\317\325?o<orx\315\337?;\272:\2368 \262\277HtIP\267,\005\300\305\204Z_\324\037\345?\013\223\0371\020\001\372?g]\366+\036L\343\277\327\263\223\355P\232\334\277\204\377\331\00565\356?\007\254\347\341\rM\370?\273\034\214\317\374W\365\277\230)\347\252q\331\347?=\265\251\031\214\261\360?\350JGA\031\224\345?\277L\306`\312n\344\277J\233\340e=\311\332\277\277]\317\010 \210\335?B\320\362\025\300m\351\277\261\3348\310Jt\377?\352\340\"\341\023K\350\277\263\212\207Kf\222\372?d\310oY\000z\346\277S3\351\206\342\247\351\277\346\220\3074]\352\360\277~\370\200\233J7\344?\261g\344\341\365;\360\277\255+\024,\034\001\304?\020An\264+\037\365?$B\2322\205\252\351?\007l\207\252\330?\242?\277]\317\010 \210\335?P\343\215\332+G\362\277\243\206\331~\205\372\343\277\200\320\240w\271\272\306?\005\0130\206O\357\341\277\202a\244\370\376\343\371?\342DC\244\n{\341\277Q\235\r\347\347\360\346?\334H\360\332(H\002@\371|\002\036\035\033\357\277\tx\3264\334D\321?\036>\303\026!\271\321?\224\372\255\034\365^\300?\315f\272\217!F\367\277\350JGA\031\224\345?PB\271\356\273\224\010\300:\231_\032\007Y\360\277V\020)\215\300\374\013\300\367~v\357\255\025\242\277\316\034c\200y\376\323?~\307E\007,\204\355\277\340\215\340JjE\313?<\225\334\310.\260\306\277y\300\354\234@\206\343\277\252\331\266y\303g\375\277!\316\232\031\rW\320\277\275\266\352\300\317\267\341?>\240\270\204\362V\372\277\007\254\347\341\rM\370?u\220\262\013so\364\277!\210\032&\311\000\365\277uc\372\310,e\347?\3724\272D\2325\273\277\334a)\013u\327\265?OIv\203a\006\264?g4\025\005<3\376\277[5\026\010\215\317\325?\2632m\226\007\377\315?\224\217\210\271\236y\373\277tf|\027\264q\331?\222\210/O\263{\361\277\271(\275X\235\343\356?\261ZM\272\230{\353?\321\254:\203e\234\322\277\013\024\266q\345\024\330?)k\317#\363\013\315\277IjQ\007\223\315\365?\220\'\272)\307\261\333\277\017\177/\237\307B\333?\364r\'e\252\020\323\277\243\007p\277Z\016\362?\304\207\334\255[,\327?\253\"\271\273\216\312\352\277)k\317#\363\013\315\277\204\377\331\00565\356?DN\007\010\016u\365\277\363\2479\025-\265\341\277\255\365\000yH\300\375?\033\255\023`g\330\354?g4\025\005<3\376\277\242\2152\351p\370\355\277c\314Fudk\336\277Q\235\r\347\347\360\346?6\322H\346\355\356\366\277-\035\241\370\346\322\361\277\346\260\350OF4\371\277\244Q\307\316\002V\325\277\302?/9m\256\377?\265jf0}H\362?[\001Y%\347\017\355\277_\240\2175o\375\330?\'\325\363\203\370T\332\277\005\0130\206O\357\341\2779\316S\311&\204\251?\035\301\003\362\257\226\373\277\3330S\022\302\274\362?\247\305\306\347z\251\356?%V\212\304\315h\370\277\374\332\365\364\201\330\362\277\013zW\200\022\265\373?\026H\307\036\027\035\377?\373u\251\2631\035\345\277\206\306\3609O\237\347?2\006Z\223\037\367\335\277n\034\007\275\206d\271\277\215\227\377\266\214h\000@Su-\303Vt\311?[5\026\010\215\317\325?\210\\\314\331IV\352\277\256\346M\241 (\322\277[\264\177\307\267\273\367?-=\302\023\320\034\372\277V\306B\330UR\312\277\363\2479\025-\265\341\277\036D\307\263/\322\305?|1jg1\315\352?\216\227\342&\333\023\335?\326\303\365)\303\033\275?\n=ug\343\271}?P\004\260\370e-\322?Fo)&H[\325?>\277\241b\260\020\000\300\201\213\332\354\275\341\324\277\204\377\331\00565\356?\037\n\0064{\371\350\277\271(\275X\235\343\356?!\023a\244\0100\302?\303\275C+\273\265\353?\307\0326\377\316\326\347\277\271(\275X\235\343\356?B\001.\252\336 \340?\304\207\334\255[,\327?!\023a\244\0100\302?!\321\034h\224c\342\277w\371\325h\'\034\352\277\036D\307\263/\322\305?\242\276m}\217\253\344?A\234\341h\216e\362?Q\235\r\347\347\360\346?\334\356\251:\342W\357?;\325\3124u\373\370?\017:i\024\314i\311\277n\034\007\275\206d\271\277\321\257\274\321\354\250\344\277\367tB6c;\235?\300\312\332R\030v\360\277,\020\n\321\211\022\355?\205\014q-\223\365\362\277\036D\307\263/\322\305?\346\220\3074]\352\360\277D\224\207\373Q\313\320\277^\177m\0275\027\371\277$E\034\201\014\267\333?\017n&\367q)\342\277\307\0326\377\316\326\347\277\2109T\241\277\242\225\277\013\340\370\216?U\357\277.Y\014\023Uu\372?\024\247\017\303X\277\350\277.\327 \005\243|\346?\237 8pXZ\360?\327\263\223\355P\232\334\277[\264\177\307\267\273\367?MQ\211V\225\201\367?\304\207\334\255[,\327?\332a\270\213&\224\000@\027<\226\225v\221\345\277\360\030\267\337\035\374\350?\220[w\014mq\344?0\004\331G\351\206\363\277/$\372b\322\320\373\277hS\376\342\371\354\003\300\252X 9\356S\337\277j\321\365D\226\237\334?Z\270V\343\033\255\377\277=v\202\2203Y\337?\276\206\207\340~G\301?\013\340\370\216?U\357\277n\034\007\275\206d\271\277\367~v\357\255\025\242\277\307\0326\377\316\326\347\277\2632m\226\007\377\315?!\023a\244\0100\302?\303\275C+\273\265\353?uc\372\310,e\347?\234=\327<\272\227\366\277\233\334\250\261\326\354\276?\2715T\200\372\243\363\277[\001Y%\347\017\355\277\001|\255P@6\351?\341\003T5s\223\267\277\365a\271!\351^\366?\373u\251\2631\035\345\277\273<\255\352\345\241\375\277=v\202\2203Y\337?\340H\032\300nl\331\277aF\204KN\201\362\277K\237:h\222\030\303?1jzV\026\'\327\277aF\204KN\201\362\277\024f T\301\327\276\277\243\007p\277Z\016\362?\005\352\250\314\251p\336?\210\302C\0031\322\006\300\217\215\007nh\t\341?V\261\375x0\257\365\277\312g\345w\270\006\006\300Dn(#\367\276\375\277=v\202\2203Y\337?P\277\351mjT\300\277\340\215\340JjE\313?2\006Z\223\037\367\335\277_\240\2175o\375\330?\226og\236\265/\363\277\3030\303\373M5\262?\277]\317\010 \210\335?Q\235\r\347\347\360\346?\342\022\263B\017\343\344\277s\234\343\224\023\373\355?\321\254:\203e\234\322\277\rZ6e)k\363?\243\206\331~\205\372\343\277\275\205\257,\261\004\353\277\252\271\225^\332\035\365\277\243\206\331~\205\372\343\277T\353\240\255_\302\265\277\035C\357\377a\217\357\277\265\353\374pR\\\320?\371\255=\262;\316\345?\321\257\274\321\354\250\344\277g]\366+\036L\343\277\252\\z;C\243\307?_\240\2175o\375\330?\200\216\\;E\356\346\277\242\2152\351p\370\355\277\330I\033\303\277\010\361?\342DC\244\n{\341\277\257\301\357\313\026\270\326?\235r\351\354<<\365?\037\n\0064{\371\350\277\251\016\311)F\014\374?\220[w\014mq\344?\235r\351\354<<\365?\364\267\355\357\245\351\304?\tw\3251\213\250\371\277\222\250Pj\234\305\371\277\247\305\306\347z\251\356?24\023\331\266\235\342\277[5\026\010\215\317\325?\304\006Fm\206\030\371?q\362|\376;\036\340\277\354~X\356J\234\374\277\273\233 \300\r\347\234\277\257\202-\336)\370\330\277\024\247\017\303X\277\350\277\030\017\336R0\207\370?]\372\377\272\373\021\343\277K\030\240\212\256\353\360?\222\210/O\263{\361\277D\224\207\373Q\313\320\2777\201\302Q\240\315\000\300\205\014q-\223\365\362\277u\260\323&\\\271\374\27724\023\331\266\235\342\277\260|)A\033\337\304\277r\336\214l\363_\361?\337\342x\261A\314\365\277^\305\355\nym\324\2772@DbW)\374?i\360O}\221\366\303\277\2748\326\316\201\260\365?\324 :\234\335\357\353?\362\337\315\0237f\342?\000\343Ob\276r\324?\250\'\221\332CX\372?&\213\234tP\r\367?\035C\357\377a\217\357\277[d$\033\001[\340?\342\336\365_i#\314\277\343\376\302\260\306$\366?\201\213\332\354\275\341\324\277\r\351S\377\314\213\310?e\312\234\332\252\241\322?\324#\274\352d\374\335?\220[w\014mq\344?P\277\351mjT\300\277\213\017\363{\032\002\365?\213\211Z7J<\000\300\371|\002\036\035\033\357\277\0279\024G\357\204\323\277@:\027v\305\266\346?\222\210/O\263{\361\277\371H\361p\353\022\370?\256\241\207\026%O\260\277i\360O}\221\366\303\277\'\325\363\203\370T\332\277~zl\251\374/\370?\213\211Z7J<\000\300\340H\032\300nl\331\277\333\373@b?\030\364\277\371\255=\262;\316\345?\017n&\367q)\342\277\307\322\355%L\361\263\277\202\253B\242\257J\273?\367~v\357\255\025\242\277B\320\362\025\300m\351\277\256\241\207\026%O\260\277\265jf0}H\362?~\373\002\352\321C\326?\273\362U\333=Z\332?\274\267?\216\254\234\347\277\341\003T5s\223\267\277\022\0214#^\010\346?\326\347P\320\366Y\345?\202a\244\370\376\343\371?>\200\227i\t\r\362\277\307\0326\377\316\326\347\277@K \036\033\320\317?\204\377\331\00565\356?\013\340\370\216?U\357\277~\307E\007,\204\355\277\222\210/O\263{\361\277\332a\270\213&\224\000@:\377\000)4\371\323\277\2715T\200\372\243\363\277v\254\374\n\370\307\364?\022\0214#^\010\346?\232\274@\374\344\203\330\277\273<\255\352\345\241\375\277\222\250Pj\234\305\371\277\232\277\302Jl\220\352\277\261ZM\272\230{\353?!\321\034h\224c\342\277\363\201\332<\322\250\376?u\357\335\037\003\275\n\300e\226\337\367\004\342\351\277\273\362U\333=Z\332?aF\204KN\201\362\277&\330u\322\177a\354\277Fo)&H[\325?\271Vv\2364\212\323?V\306B\330UR\312\277\226\220\211\274\357\025\323?\261g\344\341\365;\360\277\374\017\\o\220\305\317\277\324 :\234\335\357\353?m\225\212*(\375\343?s\234\343\224\023\373\355?\207Mm\314\255\006\275\277\362\256\222\177\030\263\353\277\240\004\356p\323\001\360\277\217\215\007nh\t\341??\274\002\204w\257\372?\273\233 \300\r\347\234\277B\001.\252\336 \340?\374\017\\o\220\305\317\277\033\272\252\207\304\230\361\277\234R\034\234\337:\313\277\277]\317\010 \210\335?\327\263\223\355P\232\334\277\374\017\\o\220\305\317\277mdO\226\tJ\355\277\276X\367\351j\372\375?\232\274@\374\344\203\330\277\256\346M\241 (\322\277o\367\250\347|\364\315\277\364\267\355\357\245\351\304?\233\334\250\261\326\354\276?2\006Z\223\037\367\335\277\203!\266\214\270\230\307\277T\353\240\255_\302\265\277b2\224\271\005\303\343?\326\303\365)\303\033\275?\324 :\234\335\357\353?\271(\275X\235\343\356?g]\366+\036L\343\277\226K\3031\364<\301\277\226\220\211\274\357\025\323?\ts\376\025\'\267\361?\260|)A\033\337\304\277 \235\355\271\377\341\245?\275\266\352\300\317\267\341?_\240\2175o\375\330?c-\274\232P5\364\277J\236b\264\304\325\354\277\330I\033\303\277\010\361?\224\372\255\034\365^\300?\013\024\266q\345\024\330?w\366S\032\240\017\330\277\266\203\202\253\006\335\316\277\262S\364O\255}\341?\242\2152\351p\370\355\277\247\305\306\347z\251\356?\337\2030\r\000*\354?\326\347P\320\366Y\345?\217\215\007nh\t\341?\352w\377\203_\236\362\277\262S\364O\255}\341?ci\'\265\276\327\374?\347_b\273\370\022\003\300o<orx\315\337?\207Mm\314\255\006\275\277i\360O}\221\366\303\277K\227\tJ\331\327\342\27724\023\331\266\235\342\277[\264\177\307\267\273\367?l\027v8\332\365\367?~\373\002\352\321C\326?\024\247\017\303X\277\350\277e\312\234\332\252\241\322?\255\033`Q\243\314\340\277}\001\007\207\340\\\312?v\254\374\n\370\307\364?$\304\205@7\243\375?\212Uso^X\340\277w\366S\032\240\017\330\277\220[w\014mq\344?\024f T\301\327\276\277c\314Fudk\336\277\302\357\323\214\266M\350?;\272:\2368 \262\277\022\0214#^\010\346?&\t\261f\236\024\343?\346\220\3074]\352\360\277\n=ug\343\271}?O\326\366\262\316\206\355?\205\014q-\223\365\362\277^\177m\0275\027\371\277j\000\004X\n+\347?\257\301\357\313\026\270\326?\341\036\344\313\257n\376?\234R\034\234\337:\313\277o\367\250\347|\364\315\277\253\"\271\273\216\312\352\277\367tB6c;\235?J\317\235H\343\210\343?w\366S\032\240\017\330\277\036>\303\026!\271\321?[d$\033\001[\340?=v\202\2203Y\337?\332Pt-\253\006\373?\321\254:\203e\234\322\277\220[w\014mq\344?\267~V\302\305\006\341\277t\345\345\326\336]\373?\234R\034\234\337:\313\277\3030\303\373M5\262?\262\207\005\375\336\205\370\2778l\247\327\300N\343?\2109T\241\277\242\225\277\330},p\361\020\350\277>\277\241b\260\020\000\300\023\337\243\301bp\351?7\217g\321\342\371\000@c-\274\232P5\364\277@:\027v\305\266\346?\277\036\r\0333\310\337\277\276\206\207\340~G\301?\334a)\013u\327\265?U\0061D\234\235\374?\265jf0}H\362?\350\031\014\255\372\340\356\277\371|\002\036\035\033\357\277\tx\3264\334D\321?\364\267\355\357\245\351\304?e\307\032\214#\225\340?\244Q\307\316\002V\325\277\2632m\226\007\377\315?\330},p\361\020\350\277\277L\306`\312n\344\277\340\215\340JjE\313?9\316S\311&\204\251?\234=\327<\272\227\366\277\303\231u\331\263\236\002\300\242\2152\351p\370\355\277\342DC\244\n{\341\277\n=ug\343\271}?_\240\2175o\375\330?\'\325\363\203\370T\332\2775\'|\261Y\335\375?\003X\337\3768\037\000\300\325-\321\303:\260\360\277\013zW\200\022\265\373?T0g8[\233\327\277R\312\305).\373\363\277\360e\220=MP\376\277[\001Y%\347\017\355\277\2632m\226\007\377\315?\3330S\022\302\274\362?\037\241\342\326\306L\363\277uc\372\310,e\347?gZt\335\226?\321\277~\373\002\352\321C\326?\n\032\272\016\364-\314?\257\202-\336)\370\330\277\341\003T5s\223\267\277\361z\201\322\346\252\364?\335\276FZ\221\347\316?T\353\240\255_\302\265\277\025u\177a]\'\354\277\377\264\226\034\'\314\357?o\367\250\347|\364\315\27724\023\331\266\235\342\277>\277\241b\260\020\000\300\2715T\200\372\243\363\277PB\271\356\273\224\010\300o<orx\315\337?\nC\304\204Y\240\342?\315\237\243[\010\334\375\277IjQ\007\223\315\365?\267~V\302\305\006\341\277tf|\027\264q\331?w*\021\375E\317\340?\037\356\221O\260|\001@\352\266\t}\006\242\000\300\203A\203\335\025\232\361?\005\352\250\314\251p\336?\360\030\267\337\035\374\350?\222\361R\254g(\347\277^\177m\0275\027\371\2772\006Z\223\037\367\335\277\0279\024G\357\204\323\277\'\325\363\203\370T\332\277[d$\033\001[\340?~\370\200\233J7\344?\230v\300\010\241-\375\277\014\331\237$TW\345\277Yk}\205\354X\352?\022\0214#^\010\346?[\264\177\307\267\273\367?$E\034\201\014\267\333?\013\024\266q\345\024\330?\315R\312\375\330\207\350?C\022\251\035#\374\254\277\316\034c\200y\376\323?\273\233 \300\r\347\234\277a9\355#\361\300\355?\005\0130\206O\357\341\277\202\253B\242\257J\273?\363\2479\025-\265\341\277\312\213\263\311\277\035\357?@K \036\033\320\317?\326\303\365)\303\033\275?jP_\004\301\213\376?mdO\226\tJ\355\277\220\'\272)\307\261\333\277\240\367VIvA\353?\tx\3264\334D\321?ab\316J\323\331\362?C\022\251\035#\374\254\277\217\335b\032\037j\370?\275\205\257,\261\004\353\277\326\266\025<\330\246\356\277\206H\334G\001\230\373?j\000\004X\n+\347?\341\003T5s\223\267\277\201\213\332\354\275\341\324\277;\272:\2368 \262\277\242\276m}\217\253\344?\305\204Z_\324\037\345?\243\206\331~\205\372\343\277&\213\234tP\r\367?*\341B\016\374Y\251\277\307\0326\377\316\326\347\277\352w\377\203_\236\362\277\265\351\317\357\2474\344\277\360e\220=MP\376\277\234R\034\234\337:\313\277\343\206\317\3538\213\001@\2632m\226\007\377\315?gZt\335\226?\321\277\n=ug\343\271}?\303\275C+\273\265\353?\326\347P\320\366Y\345?\317\031\3411\362\361\341?$B\2322\205\252\351?\314\324\265\013\213\200\374?\tW\264\026\242^\361\277\206\2223W\251\337\336\277uc\372\310,e\347?\240\367VIvA\353?\330},p\361\020\350\277}\001\007\207\340\\\312?\265jf0}H\362?\340\215\340JjE\313?w\371\325h\'\034\352\277_\240\2175o\375\330?\374C\031R6\205\350\277\253\325\337]_v\365?\224\372\255\034\365^\300?\366\010\003\005\245\307\305\277\226K\3031\364<\301\277\020\260\334\376\324\267\245\277>\200\227i\t\r\362\277\202a\244\370\376\343\371?\nC\304\204Y\240\342?\201EZ\371y\213\371\277ab\316J\323\331\362?\224\217\210\271\236y\373\277\201\213\332\354\275\341\324\277\3030\303\373M5\262?V\306B\330UR\312\277\212#\343\rc\300\343\277\n\032\272\016\364-\314?\277\003\304\036\377\013\367\277y^\"\252w\327\367\277\330},p\361\020\350\277\201%9\336\220A\361\277\201%9\336\220A\361\277\230)\347\252q\331\347?9\016\264\000\\\221\377?]\372\377\272\373\021\343\277\352\335\240\222\214>\326\277\366\010\003\005\245\307\305\277J\317\235H\343\210\343?\250\'\221\332CX\372?@:\027v\305\266\346?\206H\334G\001\230\373?\231%:tS\014\007\300ZUT\263\'n\001@yw\352Zu#\366\277-=\302\023\320\034\372\277\257\202-\336)\370\330\277DN\007\010\016u\365\277\374\017\\o\220\305\317\277\276\206\207\340~G\301?\252X 9\356S\337\277\374\017\\o\220\305\317\277\374\017\\o\220\305\317\277\017\177/\237\307B\333?/$\372b\322\320\373\277\206\2223W\251\337\336\277V\306B\330UR\312\277\025u\177a]\'\354\277\340\215\340JjE\313?\231\213\261\235:\210\363?r\336\214l\363_\361?\340\207v\210]\025%?0m\374\244\2353\351\2778;lC\242\233\354\277\203A\203\335\025\232\361?\232\277\302Jl\220\352\277\3367\254|\255\272\374?]{\226\373\320%\361?\210\\\314\331IV\352\277w\371\325h\'\034\352\277\013\223\0371\020\001\372?\373u\251\2631\035\345\277)k\317#\363\013\315\277\247\356\247\016]\302\363?"
      }
    }
  }
}
node {
  name: "tensors/component_2"
  op: "Const"
  device: "/device:CPU:0"
  attr {
    key: "_output_shapes"
    value {
      list {
        shape {
          dim {
            size: 750
          }
        }
      }
    }
  }
  attr {
    key: "dtype"
    value {
      type: DT_DOUBLE
    }
  }
  attr {
    key: "value"
    value {
      tensor {
        dtype: DT_DOUBLE
        tensor_shape {
          dim {
            size: 750
          }
        }
        tensor_content: "e1\255?\020\326\322?\202\314\350ys\r\263?@S\3646?\030\300?,\243\006\260\256M\321?\274\016\027K\200\231\232?\no\266\246\270\246\321\277\254\031\033x\351I\360?\265+\354\205\274\367\r@\232\340h\333H_\003@\322\320!\026-f\342\277]a\347\331\211\315\355\277\010\316\226s\024m\324\277&X?\215\202{J?\023\3358\335\251\357\322\277?\311\301\321.\234\353\277\014\301i\032R(\335\277C\2023\027\r\035\301?\373\r\303\273ol\357\277*\235\370\0329h\353?\220\014+\232\263z\365?\001\241s\200t\376\332?\335j\303\002\206\370\356\277_\236\374z\013D\347\277\366Q\367 >B\332\277\202(\224\3664\034\350\277\225/\250\303\370%\341?\2223zL\367\245\364?\321\373xF\021\321\314\277u\225\240p\311m\361\277\334\016\227\021\315H\357\277\310\352\260\367\357\002\337\277\2236\244\274\373\203\260\2779=\321\262\367F\345\277\232\364\010\014\233\225\345?W\321V?\353\366\307\277\330H`PQ\210\361\277Lw\032Q\t\317\334\277\342*f\324$\020\345\277Eg2%\337\231\301\277G\311\021\326\3066\352?\331\305sO\3651\347?\321\206\350\304O\325\357?W\352~\312\376\216\371?6W\254\211\247\206\005@\265\014\217N\350O\333?\263dC\2132Z\311?\327\352\241\335\010{\301?\377\230\204f\216>\321\277\255O\241\036P\373\361?\315\300\364\211\347\277\333?\3149RJ\270\363\321?\235cKF:\250\376\277\004\362\312\274MF\350\277\3576Ofh\241\324?\362\211\330\004\233\006\313?7\253s.\014W\373\277\241\355\356C\375\020\340\2770\221Q\325\212p\363\277\3246\376\2342\231\251?\357\335x\224\267l\362\277I\273@\021\302\237\335\277\303<Siy\371\364?x\340\370\365\203e\005@\227\235\016\3163\222k?\302\222\010\212Bu\000\3006\264\234?y\212\351?\020;\351H\351O\000\3006{,\026\016p\353?\032$kM\263\363\334?\245\244\207p\001\024\326\277\341\3744\305m\300\246\277X\230\0054\022\216\351\277\240B\263\355\357\275\275?\244O\202\023\253E\357\277\2775GY\336u\346\277\313\230\214&\367\005\370\277k\316/\313\2635\314?\345\330]\326\352\373\261\277\007W\317\223Jy\342?p\206\261\303\025\374\342?\204\330-V\317\031\323?J}\022qS-\321\277\001\265\303\300\341\324\330\2770\037]Zn^\000@\000L\304\374\265M\325?\337c\337\246\366T\341?\340_1\206y\316\347\277\314\"\333^\306j\300\277\274\275@w\367\267\240\277\027\235a\273o]\354\277|\335\020\300d\246\323?\370\362\330\027\276\030\270\277\021\341;\021[\347\363?\024`$\312a,\365?a\273\252_\243\206\364?\252\'\343\341\307#\355\277\370\024\201xNg\257\277\243\350\2550\272\344\326\277\300\225\364\247l\365\345\277C\211@\211\214\'\346\277\006\243\207\0233\365\315\277\364\026,\177\211\243\313\277\275W\257\314nO\376\277\320\3379\354\275:\305\277!\017\211iw\002\351\277vvWa;\243\365?}#F\027-\223\353\2774R\270\222\342\022\345\277\224\010\243DS\222\247\277\320\021L\306\300\007\351\277A\372\002/\007\363\361\277\275\311:\014\021\023\343\277\260$w:\247%\341\277\205\222\035\004\300\036\275\277#\234\300\020\247\266\365\277\206m6\r\367\365\361\277\211\277\246\372|\314\343\277\374<\020ASv\332\277\223\232\006\255%\201\307?\351~UT5\367\362?ULm4\240J\364?\237;*\003(\355\351?cv\025\025\246\t\356\277\264[\270\325\037\312\341\277\023}}\351\005k\351\277^\321\202)B\005\333\277\233\010\211\343\026\312\310?|=\340\333N\010\004@\331\237\2027\r\345\267\277H<\022\r(\204\252?\267\016\254\212\rq\334\277<]\226f\317\207\310\277\255\tu\371\201\027\350\277\226L%\375\335\360\360\277\222s\316\203\261\366\341?\370\210\272\222\222\016\374?\331\226+\306\300\002\350\277\325\025nSW\"\373?/\240\210\311\255\366\365\277\024\363W\307&m\370\277\247\207V\241\351\217\337\277\032\276\264\027\036\374\364?\356\314yw\2436\306?\\\0148V\313\034\350\277sdR\202\177+\311\277-F\032\t\210A\350?2\230\366\222\021*\333\277\233\252\013rrK\300\277J\201=\365\220\337\357\277bL\364|\321/\264\277\013\007\376\363\030]\304\277\"\027\213$\"\242\350\277\363qW\252I\354\246\277\r\026\025h\305\252\360\277\007\026\014\322K|\357\277mr\3720\224[\336? !\377\245\222\365\320?\332\213p3\304q\331?\225\275\307p\"\361\344?:\364\371Z\355v\366\277\365O\030!=\204\270?\273W*\",\200\261\2777\306\306\232Z\025\350\277\360]IS\270\310\352\277\260\254n0x4\273\2773;[\311\323`\347\277\337\212\331\223F|\327\277\346\353\265\306\023\337\205?\234\317/j\033\207\013\300\347\375\025\013\360\356\364\277\024,\310\360\221\207\366\277\\\034\340\013b\376\243?\020\3123[\200\246\355?\344r\212\0073o\374?H\363+\355|\031\326\277gQm\3678<\332?\263\362b8\\%\315?oi\'\371\276E\361\277\303$\016\232p0\340?7\303\374I\214w\323\277\014Hp\330.\027\302\277\341\226\036p\242\210\267\277\214G\362\241\235\305\356\277C\260\222\324\343\210\277?H\0251\250\303|\354\277\035\021\270\367ix\346\277\010,\'\206}\313\322?\020\352\254\244\212\240\367\2775V]\n\371n\340\277\206\r{\031Sq\370?\362\r\304\224\300\024\346\277a\234\024\335\376\330\022@\214\326\240\013B\010\360\277RK8\376t@\312?\027\036\242\030Y\177\302\277[\202\334\214\212\314\375\277`\272;\325^\332\356\277\337h\3017;9\353?\205\243|\306]2\264?\311\311\336\301\370\227\262?\204\205E5\236l\355\277\272=\353j\333u\335\277\244\317\325n\353u\362\277\215A\366K\0109\370?88\000\351o|\377?\244X\027\301\033\213\336\277\006h\334J\354\202h\277\261QC\005\270\353\317?\257\272Pn\371w\355\277\325\276\022,&=\341\277\356\246_\373\212\025\361?\345\334\027t5T\345?\240\317\235\220Zt\245\277V\262\033\325r1\306\277\260e\343\010\251a#\277\200_\226\006\222\322\357?\357\024\006\345\375\203\236?\337<V\240\231\207\306\277\372YA\020k\372\320\277\207\351\266\031\325\371\327?9_]@\311\254\370\277\003\035s\312\032\364\327\277p/.#,\250\271\277\372\232\302 \030\267\t@;\264\350\341Y\001\230?\023D\010\304\353u\337?\342\321\300\255&S\360\277\234:,\210\002O\361?\377&\237\027\t/\351?\023D\010\304\353u\337?$Vp\203W\331\361?\\\034\340\013b\376\243?0\244-A\304R\361\277SN\350,`\007\353\277\340_1\206y\316\347\277\273+\242\243\'\314\360\277\250\225\036\275\207\374\355\277\243(\210&[\036\331?\201\306\217\221\024<\230\277\352K6FSm\324?\336d\034\300$\335\357?\207B\240\214J\016\360?\260\353\006\021<\013\343\277>\201\316I\323\264\361?\372\322\213/wN\321?\022\370\230\332i\231\361?\316\003d\271f\371r?\036\007\225S\342g\323\277\273+\242\243\'\314\360\277\237\035U\310\315\026\336\277\376\204*.\303\262\273?\376X+3%\023\370? \363I\017$l\341\277\371\350_\202Puu\277\267\027\222\025g\371\340\277\357o\277\217\323\273\322?\304\374\251\036\2137\360\277~\024\177*,<\205?\302/sS\325\243\355\277\3616Tb\027|\340\277C6\310c\326n\345?\355\274z\375\374\321\342?\205\341\201\030R\313\001\300\004#]EOM\342\277\346t_\301\225\n\350\277\274\341\324\356MM\357\277@i\\\267\"5\343\277\374{j\345\362\351\342\277~\315|\316\035:\371?\002\002M!t\354\364?oP\266\376\344D\t@\017w\257\270\374\033\303\277\205\277RI-\342\262\277ngR?\\\252\345?0\221Q\325\212p\363\277\255\242O9\250s\312\277\223\365MG\256J\001\300\265\t\305\375\031\262\346?\374\025\033P\262)\320\277dc]\303\255\263\353\277\364\031f\313\3225\325?\227\r\241\340i\217\272?\020\214\341\240\320\247\345?\005\233\242\333\364\357\004\300i\205\273+\363\333\316?F_\332B\\o\362\277g\257X-)\000\364\277k\325\215\032\034\203\346?\010\231M\230\233\326\362?_\364>\361\217\232\334\277}\'\030R\353\245\340?\270\263\026\356\321\212\234\277`\362i\351\354\221\322?\322M#\210\260I\372?\351\3066Op\030\357\277\271\350;\347\034\305\327\277\222\250\365\365\304\022\250\277o\203\221\231\257@\355?\246\013\2550\333\267\343?Y\344V\305ee\301\277\255B\345\"\3551\346\277\3117:X\202\032\373?K2eKB\250\316?\355g\363\311\312\333\372\277hb\301\'\201\343\335\277\220\'Y\330\034\223\316?\331\357\210j\3749\347?w\204Zn*\252\307\2770\221Q\325\212p\363\277\255\340\252N~/\362?J\311e\207\026!\273?+\257\"v\032\363\351\277\300\221T,\005t\306\277\206\270%\037$o\222\277\234\227\225\222\351\206\377?\327\343\3463\352\030\330\277\2018\241\025\361\205\345?\341w_~r\211\304?\213i\005\002\372-\357\277\236+J\247\023:\346?U1\r7\340\240\325\277cv\025\025\246\t\356\277Gs\363y\203l\320?\232%+\231!\250\312\277o-O#+\352\327?\250\225\036\275\207\374\355\277\323\013\316\231OS\321\2778?}Vj{\371?\360\366#\223\336$\315\277\207L\246\303\033\177\243\277\370\024\201xNg\257\277\365\022S_\2661\003@\004\353\275J\316;\303?\360\037\367\230\010\312\342\277\227i\2426\303\273\320\277\252\341\262\206\256\021\341\277M\250\177\026c\037\315\277\3435\313?I\026\364\277\t\032\261Ib\330\352\277\031\343\013\nb\031\325\277\360\213\021\213\3531\320\277~\315|\316\035:\371?\317\001Z\266\353W\000@\271\006\241&\374\246\316\277\321O\364Y\010$\322\277\230\305f\232#Q\n@\274\3354s\346\313\317\277o\215\2719\346+\354\277^\275\364\254\260\313\315\277s\214\035\236\271[\336\277hb\301\'\201\343\335\277\233J\010\374\013A\361\277\317\301~\323F;\355\277\032O\276GL0\365?A\224Sz\220\362\267?6\370\353\025\"\302\321\277\217\364\315-7\367\276?EB\022<\341U\261\277\365\374G\235\177\221\324\277\031\361\323%\000\206\343\277\"\373\304\367C\t\364\277\217\211?\255\373=\323\277W\003i\031\356\303\353\277\310L\204+\n\316\315\277\242\022\276O\022\022\353?\353\375=\r<<\364?\366\345L*\326\316\301?}\023\337\350\215\335\372\277S\241\320M\221\264\320?6=\332[^q\343?\356\252\004\301\341\336\332\277p\020o1\374\250\306?\314\"\333^\306j\300\277I$\221\262\326i\306\277w\324A\203\207M\327?mA\232g\351\345\351?\014\301i\032R(\335\277B\275\351\026\300$v\277\261\366k|`\021\362\277\246r\322\360\264[\301?t\310\3407c\300\010@\340\277\363\372;J\277?/F\005\343SE\260\277\242H\023K\306K\337\277P\245\306>\021.\356\277A\276\013;\341\345\350\277\225\310PD\310\360\355\277\022\332\3200\201\256\367?H\036\301Y\205\347\357?\273\335\205P\317\016\325\277No\017\355\367\004\317\277\351E\345*\312\334\364?\321O\364Y\010$\322\277\r+\220\346\377\325\320\277U\253\352H\262\232\345?\005_,\300\274\353\273\277:{\200\307]Z\274?}\245Y>&\325\t@\002\213\322\277\033Y\324\277\032\377Jd\265\257\334\277}a\312\2203#\331\277\253`\226C\006|\326?W\2546V\355\262\267\2776\276\304\337\257u\350\277\367\001\214\204)e\311?\353\331U\363|8\330?j\205\300\'\242\266\352?5V]\n\371n\340\277v\277\374\371\356\341\356?\354\354\211\323sO\000@\023-\260\366\213\236\355\277`P\251\036m\255\313?\310)\013\234\217v\347\277U+\355\306\t\210\363\277^\321\202)B\005\333\277\366&C\226\243\302\260\277L\005$;\307\245\360\277\352\314\313\266p\000\362\277H\363+\355|\031\326\277\3550\344v<\247\277\277\207\234\264d-\256\001@\260$w:\247%\341\277\257.I\001F\363\336\277?\321\276\220*a\337?\177Z\264uM\356\345?\007L\206\311\351\247\024@_\370e?\202\036\371?r\236\223\332\324N\346?\302U++Hh\351\277&~R(a\252\360\277\023\357]<\334\237\345\277\263\362b8\\%\315?\362\231 \025\250\n\374?0*/`\204\225\261?U\272\364y-j\356\277\343N\363\312\\\256\305?\243\267\345\262\026\036\365?\250\245\306r\036\336\251?a]\322\312w\242\340\277\305y\302\031\336\273\321\277&\371\225iQ\223\366\2771bD=\247\333\267\277\000\233T$B\377\360\277\370=\254\334\177F\350\277\265\246\306\2132\222\365?9~>\233^&\327?\344\347\322\0062\345\323\277\254\271\233\211:y\262\277\274\016\027K\200\231\232?d\231\321\334\363\236\357\277\224\277\355U\256<\344\277\313\234\270p\230d\340\277.\265\273\305%\234\360?v\236\256K\257\260\343\2771\364\035\210\033\377\356?\272-\325\031%\003\362?\316>\032\271\031\001\310\277\006\331L\nb#\327\277ULm4\240J\364?E.\275\377\304\244\347\277i\343\332Wi\340\241?\036\357\244\227\r\020\346\277\300zY\271[\261\323?\225F~\341\034\014\t@\300\212\366\334\234&\354\277w\3541?\\\245\344?\233@\024\266Q\376\000\300\202z\223K\010\006\315?\007\320\274X\240\270\303\277\363\225\035\341\366\022\333\277\366Y\364\3379\007\356?\n\272K/Vq\342\277\205\317L\307$l\332\277|\353*\244c\273\275\277\0053=\241c\000\346\277\025\207\227\344&Q\336\277\317\003\204\252\"\233\332\277H\327\336\355\023~\344\277g\311\302\315\031\373\357?\331\305sO\3651\347?\226$\3550\374\224\302?\020A\323\352\275\337\361\277\031\252\233\340\366\376\326\277`\224\331\326\2033\324\277\212\303\240\205\307\231\366\277\002\330\275\304S\315\311?Br\343\277}u\350\277bw\250\007l\257\335\277|\327\3211\374\333\361?\374\216eo\276}\320?P\206\316\014l\246\327? \303n\223)\227\322\277\267\251k`\333\034\270?U\203\206\315\314\241\365\277\271\245\266\276?\237\300\277+L\356\016\221\023\341?D\340\361\211U*\361\277\367\377Y\"\320G\340\277\357\240UN \361\376?.\rU\314\350\265\362?Im\373Y9\016\334?\347(7F2\232\347\277\367\270!\335\306\300\323\277\362z\3677P\013\370?\345\207|\030\275\200\006@\275\016)RM\302\324?\274\277\3173\007\352\330\277c\220n\356\331\352\345\277\341\355P3\243\231\353\277\202\376\235\371\277\305\327?\254\264\305u\303f\342\2777\2224\314\350\260\361?W\316m\320\212\247\263\277b\305\302\277\236U\000@/\010\356\003?\346\004@fd\347\014\r/\315\277P\245\306>\021.\356\277u\212M\222\305-\340\277\214\354F\310I\210\362?\330\270>&\035k\350\277O\364\357\305H\250\304\277h\264\026V\354\352\323?\013\254un\242\377\351\277\014g\224\2227\005\003@!%\310\205*K\366\277\327\352\241\335\010{\301?Y\331\360E\235E\372\277;)5\221P\010\336\277\231\236\306\225\026?\320?U\332\341\364\375\206\357?Z]\032\022\347\266\364?P\270\203\214\270^\314\277\232\263\233#4\266\323\277T\035\313\233\210\317\341?\257\366E+\360\325\242\277\235\207\365#\325H\273\277OU\345\277Z\034\246?\341\377 \177\241\330\366\277\352\355\2453\352\016\326\277lj\2729\305X\317\277\372rJ}\354\340\362\277\2124\356\345\327(\363?\370\215y\317\371\022\344\277\3761Z\252\005\300\327\277\2259I\221\244\016\363\277C\202\244\375\377v\314\277v\224g\215\346\023\325\277\242\272\3175\033\207\361?\'\255\364\300x%\343\277\312b\3749\3621\260?\342\303_2\335\035\347\277\303\236\232\316Y\347\332?\3149\220\206\334V\261?\006\331L\nb#\327\277\264\345\306,\226\364\201?RK8\376t@\312?s\374(\351\354\207\320?\315\366I\205\233\371\357\277:\362\352Lq9\317\277\361\375\3438\254a\342\277\007^\334\005\312\203\307\277u\201g\007l\245\333\277 S\264%\337\255\305\2773\302m\004~!\306?\037L\247\263_\243\340?\257g\271*\261\r\335\277\372\177,\222\254\265\250\277\024\371w7\375\205\332\277\206\357\262oj\206\376?\351\335[r\001\371\244??\252\311\237\211\024\325?RK8\376t@\312?\002\nsD\240\205\336\277r\316sR~\376\340\277D\316R\351\tc\323?\334fB\245\260(\357\277\321\n,\263|\035\276?\004\343o\256\3513\352\277\301\231V\347\257\023\306\277\007@w\306\352\241\320\277\207S\232\255\257i\340\277L\256\265r\321\340\320?\354\0350\204\2733\361\277G7D\010 \345\354\277\307\332\276\210g\354\231\277\223\032\3169,\324\261?\371\340\255\"\345\326\235\277X\033\227\021\347~\310?34\336[\331a\355\277\235?\016\031G3\373?Z3!\312\236\227\270\277\271 \031\036\3029\346\277c\220n\356\331\352\345\277\001\374\373\005\353[\345\277\315\347?T *\347?\nw\263e\264k\345?\371\276@9\371\277\375?:\r\3666\375q\326\277v\r\223\216`\266\345\277i2<\205\036,\300\277\337\241\334Mr\342\361?rY\343\320\274\002\304?\354|J.\304z\337\277\313R`\001)\"\336\277\t\363\273X\301\213\340\277\370\210\272\222\222\016\374??\321\276\220*a\337?\263\340Pz\356T\340\277\372\002\301\272To\363?a\306.\365\000y\212?N2\262{s\233\341?x\245r\'\310\033\373?\343\004\263\370`&\305\277\321\376tV6\000\307\277!\324\231_Aj\360\277 \211G]\267J\351\277K2eKB\250\316?\023\275j\200k\204\341\277\020l\364%\000\213\344\277\337\030\364D\301l\357?YK\321\230sz\366\277\263\265R\223\211\211\357?\301\231V\347\257\023\306\277B\275\351\026\300$v\277\233A\273\320]\201\327\277*\215[\367\367\362\302?q\213P\316F5\363?\001g\203\005\010\036\343\277\220\255{\306J\231\356?\205\341\201\030R\313\001\300^f\037Df\317\330\277\375\262+\246k\244\244?\340\333\311}\013\372\275\277\306\326\345\3301\035\256?\036\022+\221Y\034\007@\202[\324Y\330\006\252?\3642P\032\302j\367?s\340\021\337%\254\366?\262\311\363\260\337\242\342\277z\345\312F\215-\334?\311\360\001\023y\223\376\277\230\004~\337OP\360\277Yng\253Zl\003@\002z_qA\000\341\277\341\3744\305m\300\246\277\362y\336\206\243|\323\277\263\375\"\307\007\221\327\277\230\222\235\214y\033\364\277\353\220\nj\254E\342\277|\032\343(\023\337\341\277\277\264\\\325\214q\341?}a\312\2203#\331\277\201\030\264\232 i\344\277\254\203\375\036\300\326\007@\202\350\276\374B\275\261\277]\261\257\320T\277\335?\027\365+m\345\356\333?d\251\211\350{\227\365?\312=\213s\013\253\332?++\030\310b3\357?I\311\374\257\222:\262\277mA\232g\351\345\351?\006\355Km\346\266\277\277\377&\237\027\t/\351?\246{\021\305\215\203\317?NXeW7\205\301?\205\346\244\224\204C\354?\033\306\332:J\225\336\277\313\017\333\330K\374\306\277\327\370\014\237\360\322\300\277\"G\021\215\350\005\360\277~s\023\n\247_\347\277\211t\247\014\013\237\245?\240,\324\360r\265\327\277|\270\237\371}\037\316\277\016*\375\36390\341\277\346ku\000\361S\361\277\223\2315~;x\350\277 (\304\225Oz\360\277\034\334\244\021\223\241\354\277\326s\234\301\032$\340?e3\202G\263\336\334\277\247\000\362\235\336&\305?)\026u\371\233M\301??\252\311\237\211\024\325?9\037\026\232\200G\335?c L\314\226\260\373?\026H\2627\261\254\346\277\302\317\010=\032b\331?\250\\\256\223\034\342\357\277F\225<\317\201\224\370\2771\226\336R\233\343\345\277\331\322\376\237\245\203\365\277\366&C\226\243\302\260\277p>\346\213F\317\346?\014\204:W\355\332\277\277\237\253\032f\024\226\376?\340G\354\266p\005\363\277\001\000\320\333\316\205\003@\366\345L*\326\316\301?\r\212b\016F\227\351\277:\313\360_!\022\351\277\001t-tJ!\361?Q\275\030QKu\306?$\234\344*\350B\361\277-&-\216\267$\347\277\003\377b\236o\203\370?\033\275\233fqm\320\2777\373\331\2001\354\341\277\023 i\362R\244\362\277k\241\206T\200O\377?\217\364\315-7\367\276?<\243\341\251/\035\362?\2577/\214\237{\343\277*\236H\207\353b\361\277}\377\263\326\005\255\360\277\233aS8\372,\361\277\017\001m&\343\310\346\277s\013\314y\023 \364\277X\316Z/\306\307\315\277\356\213\203\013\326B\247?\207\202\221Y\373U\352\277#;\234\242\021z\272\277gQm\3678<\332?\216;\372\365r\254\321?\315\273l\010\206\'\365\277_\236\374z\013D\347\277\272-\325\031%\003\362?\366!m\202,\260\340\277\366\030\207\367\322\'\334\277\217\253\227\340P\373\007@\360<\0021\362\013\031@s\303\270\277\201m\322?~\246\177\226\372I\267\277\032\276\264\027\036\374\364?s\373?\035\217\304\317?,\305\205\254\016\310\362\277\345\246\213\275{\256\277?\310\201\2613\304{\333?P\370\256_B\333\323?ht<`K\261\321\277\325\025nSW\"\373?\302\226\230\023\257G\333?~5:}l^\362\277\213\223p\366\230S\320\2779\037\026\232\200G\335?\203T\213\\\020\253\365?`\362i\351\354\221\322?\376\344\254\341\361\256\321\277\026\346\336\003\227\341\347?"
      }
    }
  }
}
node {
  name: "tensors/component_3"
  op: "Const"
  device: "/device:CPU:0"
  attr {
    key: "_output_shapes"
    value {
      list {
        shape {
          dim {
            size: 750
          }
        }
      }
    }
  }
  attr {
    key: "dtype"
    value {
      type: DT_DOUBLE
    }
  }
  attr {
    key: "value"
    value {
      tensor {
        dtype: DT_DOUBLE
        tensor_shape {
          dim {
            size: 750
          }
        }
        tensor_content: "\031\244\007\354\250\304\360?2 \366\3052\024\373?\3445\240\360uo\375\277\201\373\323\2216G\263?9\260\337\322v\323\350\277B!\222\326Z\032\320?_U\203\317G\236\356?Tl.\312fD\220\277!\317\'\221\314#\331\2770@\332\224\260j\340?\274\246\353\203@/\360?4QF\373J\367\352\277Dz\373\035\222r\346?e\034\355\241\230\304\343\277\036<&<\216\242\357\277_U\203\317G\236\356?\250w\027\206\372\007\347?\005d\266\322\3228\363\277\350\006\252\347n\360\325?U\304AvJ\312\360\277\245\323\230\025,\"\371?<\367\036\230*A\361?\016IDx`\010\362?\376\323\314\305\216y\345?\301\327;\271X\022\340\277\270\026\002w\374o\322?\341\236\331\354I\246\316?\246\221\313\304\203\332\364?\253\302\033\372\233\275\344\277\302\031\t\n\001Z\344\277\024\212S\255\037\362\342?\326%\362\245\304@\346?a^\272\362@\014\350\277x\343\360\244\271\241\365?\027m\207&\234]\351?{\233\363\303\034\326\371\277,!\350\241\3467\255?\226\362\317\036\214\232\317\277 \372X\313\025~\226\277\0106m0\277?\325\277t\341\226h@\317\252\277\034\207;e%0\367?\235\013\327\366!\347\363\277\263UjgB\232\004\300&A\230\260\231\310\363?d{\206y\304\240\341\277\244\271\344\326\242O\353?\317m\357\206a\014\322?{j\243\216\004\363\351?\036\3255\267\325\367\274\277\274\353\320\034\3438\340?\216\232\001\350h\262\247\277\357\354\344\363\357E\356\277Tl.\312fD\220\277\326%\362\245\304@\346?\305O\251Qm\352\005\300]\374\031\210\020F\330?\277\316\004\226_\244\346?\261\334ii\365F\337?#\021\365\341tk\335\2774\304t6\001\372\350?9\014r\027\236\305\324?}+\335\320`\225\327\277\020\004\223\237\210\304\240?y\377u5O\241\263\277U\304AvJ\312\360\277!\317\'\221\314#\331\277%\2401\210\305\244\361?\311C|H13\363?\037\215Z@$\334\324\277&h\246\216g\204\000\300\340\232iX\226\317\362?\277\316\004\226_\244\346?r\021:G\315\232\323?\003\3421\231$\034\336?\357\354\344\363\357E\356\277\213\252\364\247\332~\327?\354\242\300\365\272/\265\277\323\010&\037A\254\354?\335\240\252>V\323\316\277\323\361\211(\262\233\332?\005d\266\322\3228\363\277\250w\027\206\372\007\347?=\373\216,\336\027\315?>mTf\345-\361\277\036\325W!\301\247\340\277\033\346\324<Q\014\365?\301\020\322\346\007\354\352?%\220\014\271\356T\335?\301\020\322\346\007\354\352?\021,x\361\334s\370?\003\3421\231$\034\336?\325\204\213}\360\034\344?{\202\262d\246\224\r\300\301A\"\034 \317\372\277H\227\307\244\025\007\340?Iff\272\007L\346\277M;5`\356\024\324\277\345Rlg\221\225\244\277W\006\017\307\362\021\365\277L\'\240\374c\356\303\277\252\347\034\304\300p\357\277\357\354\344\363\357E\356\277v\225\324\350\035*\334?\017\352\252\2404,\364?e\300Z]q\322\307\277:h\342\361\331\007\335\277\206\366\2667e\222\370\277\355kb\232\231x\361\277\216\232\001\350h\262\247\277\370\306%\016\3424\360\277\205\023\203\276\350&\362\277\227\225\241(g\372\363?3\352Uv\222L\270\277W\006\017\307\362\021\365\277\375\033\312\246+E\321?Ve\250\236\036\356\362\277\204\337\032A\326\201\366?\325\204\213}\360\034\344?\255\277\024g\227\323\322?\335\201\204\352\3532\302?I\331\224\365\275N\344? P\273\237\030\311\357?\363 Mq\002\353\331\277\262\354\2168\314\226\363?\005d\266\322\3228\363\277X\212\251hC\241\375\277Y+\020\221\027\305\377\277\220\255\373:\337h\351\277\323\010&\037A\254\354?Iff\272\007L\346\277\257ld+/\336\306?\310\005\037\214<\302\312?\332\251\214G\025\320\356?4T^CE\271\366\277\357\357\374;\352\007\372\277\033\311\010\266\315w\373?\021\364\354\367~S\007\300`\353\234l\200\341\363?\027m\207&\234]\351?\035\372X\353\345Z\353\277Dc_\'\003b\324?\nx:\201g\207\331\277\202\235M\360-:\362?\263-ISQ\017\273?\361\307\343)\313\222\343\277\270\026\002w\374o\322?\222@\375\217\035\352\322\277\037\215Z@$\334\324\277\'\3052R\352W\374?l\347\306\010\235\301\364?\366\032?K\371\026\306?K\033bFf\226\350?\376\323\314\305\216y\345?\'\342\376\330m\354\365?=\373\216,\336\027\315?!\317\'\221\314#\331\277c\345l\334\213]\374\277\245\323\230\025,\"\371?Iw\343\325\227\260\372?\020\213\021\311\010P\366?\377]\227\367\323\214\325?\007~j\021\\\013\341\277\356\035F\336\375\000\350?\345Rlg\221\225\244\277\337\371\0020\302\253\360?v\225\324\350\035*\334?\246\205|Y\220\252\337?\321\306X\316\230d\350?t\311<f0\317\347?\220\177\303M\301G\345?\330g\277\366l\210\352?H\347\371\310S\361\334?\017\352\252\2404,\364?\236\013\327\346\271x\241\2773\022\221\362\234q\362\277H\347\371\310S\361\334?:h\342\361\331\007\335\277\255\033\205A\323\025\333\277:\264>\021_*\260?\312\344\342p\005W\365?\251F\266\233\354L\355\277Iff\272\007L\346\277Tl.\312fD\220\277l\346\263\322y\362\267?\033\311\010\266\315w\373?\2336\010Q;\036\366?5\223\023L\363>\357\277a\300k\022g\252\361\277I\331\224\365\275N\344?!\317\'\221\314#\331\277\313\373~g\224g\367\277\031\351\354\204K\316\340?\243\030~\256\316+\351?\354\333x\215U\271\343?\262\354\2168\314\226\363?\35610\\\302\230\301\277\310\242\025 ]\017\361?\016X\211\321\312\270\261?5\223\023L\363>\357\277Iff\272\007L\346\277\034\314 \376\3079\347?\354\212D\211\277\177\336?\022\344z\020@\250\374\277\246\205|Y\220\252\337?\236\356\np\236R\372\277\031\257TwD\245\355?p@0P\324\031\373\277\276\034!R\373\033\360\277\034\314 \376\3079\347?5\223\023L\363>\357\277\363 Mq\002\353\331\277\036\3255\267\325\367\274\277\321\306X\316\230d\350?\245\360d\234\257\266\362?d{\206y\304\240\341\277a\214\003\225T\005\366?\223\312\307\301b\375\342\277\341\236\331\354I\246\316?9\3369*\200\244\300?%\220\014\271\356T\335?\2726\263.\315u\013\300n]\374\326W\256\364\277\324\021]B:\032\346\277\255\033\205A\323\025\333\2774QF\373J\367\352\277\014\367QX\341p\331?\220\260\023\203\331*\365\277`\217\033\335N\307\341?4QF\373J\367\352\2772=\302L\266\250\364?\330g\277\366l\210\352?\213\245\244\225\206\321\005\300\313\205I\231\331z\367?\033\346\324<Q\014\365?t\341\226h@\317\252\277\037v\276I\225\313\342\277tB\212|\345}\363?`\353\234l\200\341\363?\366\032?K\371\026\306?\365b\032\302\2522\336\277Q\2503\013\260\223\352\277M$\231i_\004\342\277{\351\017\200\270M\323\277(M\264\014\024\337\315?\313\271\261\026\354\037\363\277\033\270\213\232=\023\347\277$b\324\313\3203\311?t\341\226h@\317\252\277`\316\320\345\374L\372?8&\025\2411\300\330\277p@0P\324\031\373\277\325\204\213}\360\034\344?\202\200\201i\252\245\370?0@\332\224\260j\340?\035y\305\334\231\265\304\277\'\342\376\330m\354\365?y\377u5O\241\263\277\235\237\343\177\261!\007\300\323\361\211(\262\233\332?\337\371\0020\302\253\360?7n\022\202\316\213\344\277\362x\200wA\206\276\277\302\031\t\n\001Z\344\277\325\204\213}\360\034\344?G\332R!\017\033\252?\250w\027\206\372\007\347?\'\026gV\200\221\361\277\035y\305\334\231\265\304\277I\331\224\365\275N\344?\357\220cd\276+\374\277\006\350Pt#\310\373\277\245\373\261\'K\227\357?@\212\376\222\345\200\271?\277\316\004\226_\244\346?\024\212S\255\037\362\342?\221\223G\374U\226\373\277K\033bFf\226\350?\257ld+/\336\306?\033\032=\272c\261\360\2772q*\312\310M\360\277\035\372X\353\345Z\353\277\205\006)\037\244=\003\300h%\317\252W\301\303?\301A\"\034 \317\372\277\352_\023/\246H\354?\'\342\376\330m\354\365?\255\033\205A\323\025\333\277\345:\022e\201\225\341?Dz\373\035\222r\346??\257!\267\215u\365\2775,E1&D\340\277\014\367QX\341p\331?\331\317\217\361\221\322\341\277\250\203U<\370_\302\277\037\215Z@$\334\324\277\324\236?\274y\357\361?\257ld+/\336\306?\234\327ny\017B\370?M/\346\364\372\344\376\277\003\3007b\004S\345\277\013\243k\333\200\276\353\277d\222\"pS\261\323\277\007~j\021\\\013\341\277\334\311_a\235N\332\277\037\215Z@$\334\324\277\304rrQ8\262\332\277\313\271\261\026\354\037\363\277\013\002\005\263\254\232\351\277\013\002\005\263\254\232\351\277\276\034!R\373\033\360\277!\254^\221\001\\\004\300\356\035F\336\375\000\350?\351\276\254\006\322$\352?\220\177\303M\301G\345?\034\207;e%0\367?\215\370\020dv\366\360? s\267\266\220\341\320?\372J\300\2572\304\370\277 \372X\313\025~\226\277\371\251Y\207^\240\366\277 P\273\237\030\311\357?tS\007\230u\342\327?\272ok\2763\310\350?\354\212D\211\277\177\336?b-j\275()\370?Dz\373\035\222r\346?\310\005\037\214<\302\312?_J6D\254\275\361?0\006B\207\251A\355?Iff\272\007L\346\277\216\232\001\350h\262\247\277\216k.\3526!\345\277\'\342\376\330m\354\365?\217:\336\264\036>\365?Q\277\317\001?\244\334\277 P\273\237\030\311\357?t\311<f0\317\347?\335\013-\262E\226\336\277\235\364:\000\223\326\361?\002\037\32190/\343\277\035y\305\334\231\265\304\277\347|\337\265)\335\345?\354\333x\215U\271\343?\216=\366\374\030\000\341?q\211\203\314\304\267\234\277\203>\264\030\002^\364?kF`\340\310\235\362?>9\354\350\322\210\365?\356\014\311\302m\234\363\2775\365\304k\031\335\370\277\3557\372\034\207\323\365?\270\026\002w\374o\322?8&\025\2411\300\330\277l\251iL\250P\314?3\216\345\233V\n\300\277y\377u5O\241\263\277I8.\315\351*\342?\222@\375\217\035\352\322\277\241\326\260]&\344\344?\310Bi\022\016d\266?\327\201s5\366Z\370?\242\235\370\315\277\221\007\300\273x\242\341,6\342\277\327\364\220\273\266\205\354\277\331\317\217\361\221\322\341\277\220\177\303M\301G\345?\337\371\0020\302\253\360?6\344GP\211x\324\277b\321\350-\367\016\346?LL\262{~y\370\277\350\270Lw\010\270\215?\301\020\322\346\007\354\352?@\212\376\222\345\200\271?\254c\202\"p\341\346\277\003\3007b\004S\345\277_U\203\317G\236\356?~g\255\250\301\251\000\300\216|\253\005\307\205\371?\341o8\376|\230\360\277\234jp\316M\303\361\277j\245\371\267\364y\360?\020\004\223\237\210\304\240?!\375_~\352D\315\277/N?hF\r\331?y\377u5O\241\263\2779\014r\027\236\305\324?\341b\336^8\257\001\300m\210-1q\345\366?\24722\355W\376\366?\222)a\231\216\331\340\277\001\240dH|\324\331?\004\340\n|\214\321\300\277y\377u5O\241\263\277\325\204\213}\360\034\344?8\017y\252\242\257\346\277\004\340\n|\214\321\300\277\020\213\021\311\010P\366?\313\205I\231\331z\367?\262\215\365`\240\272\365?\324\236?\274y\357\361?\245\360d\234\257\266\362?\007\267\000?\013\345\353?\036\016\356Np\201\353?\227\225\241(g\372\363?\003\321\264}\224\267\371?\201\374\346\307Y\026\360?a\300k\022g\252\361\277Tl.\312fD\220\277\001\270\340\264w\204\260\277\276\034!R\373\033\360\277\347|\337\265)\335\345?+\341@\275\204\216\342?\213 *v\225k\347?\005d\266\322\3228\363\277!\375_~\352D\315\277R\245,x\253\251\330?\331\317\217\361\221\322\341\277\236\013\327\346\271x\241\277\251\007\001\223>\307\364\277\301\203\357l\310\026\377\277\335\201\204\352\3532\302?\347|\337\265)\335\345?`\217\033\335N\307\341?\013\311\031k\303O\305?\251\200N\251\363u\340\277\255\033\205A\323\025\333\277\006\364\237\337\026\370\320\277a\022\253JN\235\000\300\255\033\205A\323\025\333\277\206\264\351\346\274J\364\277\034Y\362\302\0217\351\277\220\255\373:\337h\351\2774\242z\377\3400\320\277\370\271\313n\235K\001\300z<Z\354\360\371\373\277\223\220/\264[\324\357\277\206\366\2667e\222\370\277\221Qz\253\255N\367\277\270-\236m\213\200\344?\004\005\035\373\246\\\365\277\204\337\032A\326\201\366?Q\277\317\001?\244\334\277y(\326=\\\253\345?\217\336\\%\355#\343?n]\374\326W\256\364\277\327\215\2406\376\332\271\277\3253WyZ\343\336?3\352Uv\222L\270\277%\220\014\271\356T\335?\370\306%\016\3424\360\277\205UP\017\221n\366\277\226\323\251\312!\372\302?M;5`\356\024\324\277\301>\n\324%\r\357\277\037v\276I\225\313\342\277.\234[$\342\204\362?\270-\236m\213\200\344?\335\201\204\352\3532\302?\245\360d\234\257\266\362?v\254p\337\254:\356?]\367\311u\274\230\006\300\005\246\203#{\200\367\277\004\340\n|\214\321\300\277y(\326=\\\253\345?\324\343$U\034\371\341?p\202\375\240|a\377\277\216\231w\214J\032\363?\263\360\376\314\177m\317?u\013\n\267\330\026\354?\201\373\323\2216G\263?\237\224\343\014~\234\340?\2336\010Q;\036\366?\036<&<\216\242\357\277\361\307\343)\313\222\343\277\034),\351\027\354\255\277brOV\3132\350?\301\327;\271X\022\340\277\207\321\223\023\275\235\274?t\341\226h@\317\252\277x\343\360\244\271\241\365?\270-\236m\213\200\344?\272ok\2763\310\350?\340}\235\321\022;\371?K\033bFf\226\350?t\311<f0\317\347?\323\361\211(\262\233\332?kF`\340\310\235\362?\346\304\334\226\306\250\321?\215\370\020dv\366\360?\300F\013\266&\276\266\277tS\007\230u\342\327?\301\034\020\235\005D\306\277\330E\305\277L\277\321\277\321\306X\316\230d\350?\221Nbc\263\214\353\277\020\213\021\311\010P\366?\255\033\205A\323\025\333\277\341o8\376|\230\360\277(K\332\007\344\357\006\300\004\303O\252\376\024\361\277\2336\010Q;\036\366?\354\212D\211\277\177\336?\370\271\313n\235K\001\300V1@!\014I\367?\335\201\204\352\3532\302?4QF\373J\367\352\277r\021:G\315\232\323?\002Xgg\337\010\356?\362/_\n\266k\301?\005u3\356b\235\347? P\273\237\030\311\357??\016\273\216\271Q\363\277\275\240\273\363K\253\370\277\332\207\222\020\365\006\326\277\304\007\360\335H\357\312\277/N?hF\r\331?8\017y\252\242\257\346\2776\315\253Y\372g\342\2773\373\364\373\ra\360?l\346\263\322y\362\267?\177V\016+z\314\351\277o\237\311\'\000\366\370\277\035K\215\357{\224\320\277\024\212S\255\037\362\342?p@0P\324\031\373\277\275\240\273\363K\253\370\277\202\235M\360-:\362?VN\014\250\217\335\360?\356\035F\336\375\000\350?\005\246\203#{\200\367\277\245\373\261\'K\227\357?\272ok\2763\310\350?y(\326=\\\253\345?\372J\300\2572\304\370\277\362\t\261zs\332\347\277\007\313\352\274\317|\305\277\002\222\377t\3461\341?\304[\326Z\251\241\350\277\310Bi\022\016d\266?\251I\316\343\346\016\371\2776\344GP\211x\324\277\357\220cd\276+\374\277\031\257TwD\245\355?yY&st\216\365\277\002Xgg\337\010\356?\300F\013\266&\276\266\277\226\304\2271ny\333\277\222)a\231\216\331\340\277\275R\2377\2603\357?\232WDlr\211\313?\247\004\351JD\005\351\277(\203e\001B\020\370?\244s\312>F\210n\277\272ok\2763\310\350?\236\030)\224\224\272\277?\35610\\\302\230\301\277\0033f\235\272U\343?\263\360\376\314\177m\317?\326S*\223\342a\352\277\361\307\343)\313\222\343\277\3030\245\000\220j\326\277I\331\224\365\275N\344?\377]\227\367\323\214\325?\216\231w\214J\032\363?e\034\355\241\230\304\343\277F\274\310n:\272\352?]\374\031\210\020F\330?~Y\025\276~\266\313\277M]/\227\016\336\354?\257]R\222{]\337\277\243\030~\256\316+\351?\332\251\214G\025\320\356?:h\342\361\331\007\335\277O\253:\236\264}\314\277mka\252\355P\375?\335\201\204\352\3532\302?/N?hF\r\331?I\331\224\365\275N\344?\2465J5R\300\342?\362/_\n\266k\301?\330E\305\277L\277\321\277\340\363\322\237\315\'\371\277\262\354\2168\314\226\363?\354\242\300\365\272/\265\277\314\234\345\217h\213\371\277Tl.\312fD\220\277\214b\367\306=\263\353?J5\026\205\357h\366?\023\205\3418\024\314\376\277\034\314 \376\3079\347?/e\333^\325\035\353?r\021:G\315\232\323?\033\346\324<Q\014\365?!\375_~\352D\315\277\324\021]B:\032\346\277\324\021]B:\032\346\277\0329\037\251\211\270\335?\246\221\313\304\203\332\364?f\324\357\300\373\370\327\277\327\367\250\003\261G\370\277\313\373~g\224g\367\277\250f\232jj\243\362\277\217\336\\%\355#\343?\006\272\007\222o\025\204\277\357\357\374;\352\007\372\277\366P\360?\'H\360?\217:\336\264\036>\365?\365b\032\302\2522\336\277I8.\315\351*\342?\035\375p3\340\034\367\277\270-\236m\213\200\344?\004r\033\246h\333\373?M\355\030\244R\235\372\277\226_\001\341\372i\002\300\272\350\270\324\350v\364?d\222\"pS\261\323\277w\346\010\355\263c\341?\24722\355W\376\366?6\344GP\211x\324\2778b\345x\222\324\001\300\035\375p3\340\034\367\277I\331\224\365\275N\344?~g\255\250\301\251\000\300\226\323\251\312!\372\302?\353\365,\314\336\213\361?\006D\322\003U\342\355\277\335\240\252>V\323\316\277\341\236\331\354I\246\316?\362x\200wA\206\276\277:\264>\021_*\260?\002\222\377t\3461\341?\300GR\254\024S\362?\2531\353\366ii\273\277\241\326\260]&\344\344?l\251iL\250P\314?\221y\373=bO\233?l\251iL\250P\314?\366\032?K\371\026\306?>\277\223\236\314 \000\300\251\007\001\223>\307\364\277\034Y\362\302\0217\351\277\273x\242\341,6\342\2779\3369*\200\244\300?\245[+u\343\022\262\277\245O\376s\333\222\360?:h\342\361\331\007\335\277\354\226\223\364\262\257\363?\247\004\351JD\005\351\277 s\267\266\220\341\320?m\033/\206\257f\360\277\0329\037\251\211\270\335?\034\314 \376\3079\347?\206\264\351\346\274J\364\277\nx:\201g\207\331\277\245\360d\234\257\266\362?\031\257TwD\245\355?B!\222\326Z\032\320?\226\323\251\312!\372\302?K\n\345*\3261\364\277!\317\'\221\314#\331\277\003\3007b\004S\345\277\335\240\252>V\323\316\277`\217\033\335N\307\341?8\017y\252\242\257\346\277\370\222\275\220\317\217\364?\250\245Os\030)\353\277m\210-1q\345\366?\357\354\344\363\357E\356\277=\230\205\300\376d\363?\216=\366\374\030\000\341?\261\334ii\365F\337?G\332R!\017\033\252?\017\264\371\253\006\373\311?{j\243\216\004\363\351?d\264\034\247sz\354?\335\240\252>V\323\316\277\373\234\262\317\261[\321\277\243\001\342\267?\033\327?\332\265\312\375\022(\312\277\300^\356\242\243c\364\277l\251iL\250P\314?\360&}\001\367n\341\277\270-\236m\213\200\344?\257]R\222{]\337\2771\177\217\235^\360\370?m\210-1q\345\366?\243\030~\256\316+\351?3\216\345\233V\n\300\277%\2401\210\305\244\361?\252!\265\321\307\231\342\277\235\364:\000\223\326\361?\341;\320\200j\363\364?!\375_~\352D\315\277yY&st\216\365\277H\363H4G!\362?\301\020\322\346\007\354\352?\302\031\t\n\001Z\344\2779\260\337\322v\323\350\277u\013\n\267\330\026\354?VN\014\250\217\335\360?\300GR\254\024S\362? \372X\313\025~\226\277v\225\324\350\035*\334?W\247u\357\3065\367\277Dc_\'\003b\324?\032(\242\215\371S\371?\033+\272\325\363\025\345?\347|\337\265)\335\345?\306\264?\242\340\371\336\277\245[+u\343\022\262\277y\377u5O\241\263\277\235\217q\230rv\374\277k\020\257\353\232l\310?\335\013-\262E\226\336\277\270K( `\341\243?\0329\037\251\211\270\335?Dz\373\035\222r\346?6e\240\345\021F\020\300y\027Y\"\314F\361\277\272\350\270\324\350v\364?\021\001G\227\303<\366\277a\214\003\225T\005\366?3\022\221\362\234q\362\277{\335\300\024\305\035\376\277\263-ISQ\017\273?b-j\275()\370?\037v\276I\225\313\342\277\24722\355W\376\366?d\222\"pS\261\323\277\355\377n#)\263\004\300\220nF21\343\360\277@\212\376\222\345\200\271?\261K(\020\370r\361?Dc_\'\003b\324?\272ok\2763\310\350?\2531\353\366ii\273\277F\274\310n:\272\352?_U\203\317G\236\356?\243\001\342\267?\033\327?f\324\357\300\373\370\327\277q\211\203\314\304\267\234\277q\211\203\314\304\267\234\277\220nF21\343\360\277\216\231w\214J\032\363?1\177\217\235^\360\370?\321\257\274\327\tT\326?\014\367QX\341p\331?\004\340\n|\214\321\300\277\263\360\376\314\177m\317?"
      }
    }
  }
}
node {
  name: "tensors/component_4"
  op: "Const"
  device: "/device:CPU:0"
  attr {
    key: "_output_shapes"
    value {
      list {
        shape {
          dim {
            size: 750
          }
        }
      }
    }
  }
  attr {
    key: "dtype"
    value {
      type: DT_DOUBLE
    }
  }
  attr {
    key: "value"
    value {
      tensor {
        dtype: DT_DOUBLE
        tensor_shape {
          dim {
            size: 750
          }
        }
        tensor_content: ",\033\342\301nm\274\277C\000\014-\244 \274\277,\033\342\301nm\274\277,\033\342\301nm\274\277,\033\342\301nm\274\277,\033\342\301nm\274\277,\033\342\301nm\274\277/\\\n\320u\246\231?3\353\006^\3171\270\277,\033\342\301nm\274\277\316\002\262\234Nk\274\277,\033\342\301nm\274\277,\033\342\301nm\274\277,\033\342\301nm\274\277,\033\342\301nm\274\277,\033\342\301nm\274\277oL\1775Ij\274\277,\033\342\301nm\274\277,\033\342\301nm\274\277\264\357\315r\375J\262\277QV\025\314\r\002\262\277,\033\342\301nm\274\277,\033\342\301nm\274\277k\357-dH\020\274\277,\033\342\301nm\274\277,\033\342\301nm\274\277,\033\342\301nm\274\277,\033\342\301nm\274\277,\033\342\301nm\274\277\362\t\372\352_0\274\277,\033\342\301nm\274\277,\033\342\301nm\274\277nEYS\346\271\272\277,\033\342\301nm\274\277,\033\342\301nm\274\277,\033\342\301nm\274\277,\033\342\301nm\274\277\250\336\336\336\3566\273\277,\033\342\301nm\274\277,\033\342\301nm\274\277\240\245Gn\266\220\352?D^\337\032-\271\273\277,\033\342\301nm\274\277n\301\261\004\275\370\261?,\033\342\301nm\274\277\n\363\241\204\356i\274\277,\033\342\301nm\274\277,\033\342\301nm\274\277,\033\342\301nm\274\277a\237\204\334\023j\274\277\354\212\277\217k\\\251?,\033\342\301nm\274\277,\033\342\301nm\274\277,\033\342\301nm\274\277\214\357\232W\026\177\262\277\233cA\2672o\273\277,\033\342\301nm\274\277\231\324\346\022\200\372\272\277,\033\342\301nm\274\277@WGox\311\260\277,\033\342\301nm\274\277,\033\342\301nm\274\277,\033\342\301nm\274\277,\033\342\301nm\274\277,\033\342\301nm\274\277,\033\342\301nm\274\277,\033\342\301nm\274\277\334\273i0\036e\274\277\253\266\020\000\034l\274\277,\033\342\301nm\274\277l\0347\354\030f\274\277\261Y\273Iqk\274\277\330\003\2042\364 \274\277,\033\342\301nm\274\277\267\233\024\241\027\267\273\277,\033\342\301nm\274\277,\033\342\301nm\274\277z\371%0\267L\274\277\260.\361X\315X\274\277,\033\342\301nm\274\277,\033\342\301nm\274\277,\033\342\301nm\274\277\244\265\377&\260I\273\277,\033\342\301nm\274\277,\033\342\301nm\274\277,\033\342\301nm\274\277\332\2342\3130=\274\277\361\276\005\323:Z\004@\325C_(\211i\274\277\010U\237B\tk\274\277`\226\262\004\022\001\274\277p\270\225\020\360\237\267\277q\354\2367\010\221\266\277h\370\253\335\202[\274\277,\033\342\301nm\274\277q\016\271\'\375U\274\277\203\353l\224\235\311\267\277,\033\342\301nm\274\277\022\270n\226\311!\274\277,\033\342\301nm\274\277,\033\342\301nm\274\277,\033\342\301nm\274\277,\033\342\301nm\274\277\022!t\313\274\261\264\277,\033\342\301nm\274\277\211\360\315\200\266i\274\277\240E\033+\261i\274\277,\033\342\301nm\274\277,\033\342\301nm\274\277\013\324\276}\310_\274\277,\033\342\301nm\274\2774\272b;2\004\274\277,\033\342\301nm\274\277,\033\342\301nm\274\277\025d\227YYl\274\277U\265\231\360\341\261\273\277,\033\342\301nm\274\277\212P\340\005lE\274\277,\033\342\301nm\274\277,\033\342\301nm\274\277,\033\342\301nm\274\277,\033\342\301nm\274\277\250\221\034\325\250z\273\277,\033\342\301nm\274\277,\033\342\301nm\274\277,\033\342\301nm\274\277,\033\342\301nm\274\277\304\n\323\2712y\214\277,\247\327a\246\036\272\277L\026\031w\036\033\274\277,\033\342\301nm\274\277,\033\342\301nm\274\277[\010\227\315Xd\274\277\340\264T\375\363k\274\277\023\025l\t\003^\274\277;!\247\346\243}\264\277,\033\342\301nm\274\277w~^\3405\311\271\277%\257\224\364sk\274\277,\033\342\301nm\274\277\021\207\357\26709\265\277\373\364f\363\031\'\274\277,\033\342\301nm\274\277\346S\201\030\360\344\273\277\202\204\200\263\273g\274\277,\033\342\301nm\274\277L\216\215\307\027u!@;\256M\275&F\274\277,\033\342\301nm\274\277,\033\342\301nm\274\277,\033\342\301nm\274\277,\033\342\301nm\274\277,\033\342\301nm\274\277,\033\342\301nm\274\277\263\261h\177\312\276\271\277,\033\342\301nm\274\277\344 Nl\'P\274\277,\033\342\301nm\274\277,\033\342\301nm\274\277T\n.\250\366k\274\277,\033\342\301nm\274\277\316\002\262\234Nk\274\277,\033\342\301nm\274\277\234\357\'\246\334z\361?,\033\342\301nm\274\277\236X\027HYk\274\277,\033\342\301nm\274\277,\033\342\301nm\274\2777\205n\005\350X\274\277,\033\342\301nm\274\277\341*\242`\261\367\273\277 [\353K\221k\274\277 \355\006\244\370a\274\277v\014\370\235{?\274\277,\033\342\301nm\274\277V\211#4\322Q\274\277,\033\342\301nm\274\277\r~~\372GX\274\277,\033\342\301nm\274\277,\033\342\301nm\274\277\343\241X\340Kj\274\277-\265f\325\372\345\273\277,\033\342\301nm\274\277,\033\342\301nm\274\277,\033\342\301nm\274\277,\033\342\301nm\274\277,\033\342\301nm\274\277,\033\342\301nm\274\277x\334-b\366g\274\277,\033\342\301nm\274\277,\033\342\301nm\274\277,\033\342\301nm\274\277E2i^\035Y\274\277\275m\335Z\206@\274\277\335\360\261\304/.\274\277,\033\342\301nm\274\277\366\272vW\230]\274\277,\033\342\301nm\274\277,\033\342\301nm\274\277,\033\342\301nm\274\277\351\r\246\255Fl\274\277\004\207T\267\363g\274\277Z\271\225,\346d\274\277\270\016Q^!\235\270\277,\033\342\301nm\274\277,\033\342\301nm\274\277\375\356j\352\315\360\271\277,\033\342\301nm\274\277,\033\342\301nm\274\277,\033\342\301nm\274\277,\033\342\301nm\274\277\267\374e\223\306j\274\277\032\201\271\326\375_\274\277[\010\227\315Xd\274\277,\033\342\301nm\274\277,\033\342\301nm\274\277,\033\342\301nm\274\2777a7U\031l\274\277\327\014\002\254.l\274\277nG\223\336]\200v?,\033\342\301nm\274\277\244\265\377&\260I\273\277\303\013^\252\026l\274\277\236\342\nZ\312\200\326?,\033\342\301nm\274\277\214YI\353\3032\273\277,\033\342\301nm\274\277,\033\342\301nm\274\277:@?f\252-\274\277\214YI\353\3032\273\277\353\214\2339\"R\274\277 [\353K\221k\274\277\307Gc.\341i\274\277\261\003Q\027\rU\274\277\332\2342\3130=\274\277,\033\342\301nm\274\277M\325=WVg\274\277,\033\342\301nm\274\277,\033\342\301nm\274\277\211?\317!)i\274\277,\'\237\374\010g\274\277\244\373\301\221\256j\274\277w\007\316\243\266k\274\277\024\273\370\336H*\264\277<\265\340\375\373k\274\277;&\260\010-\006\274\277,\033\342\301nm\274\277,\033\342\301nm\274\277,\033\342\301nm\274\277,\033\342\301nm\274\277,\033\342\301nm\274\277\023\360\317\250\037\204\270\277,\033\342\301nm\274\277,\033\342\301nm\274\277\361\201\\6f\360\273\277\004\r\263\324\300d\274\277\242\276\033\033}\242\265?,\033\342\301nm\274\277,\033\342\301nm\274\277,\033\342\301nm\274\277,\033\342\301nm\274\277\347W\377FIk\274\277,\033\342\301nm\274\277\270\232h\325\253i\274\277Kb\333V1l\274\277\327\014\002\254.l\274\277,\033\342\301nm\274\277\267\374e\223\306j\274\277,\033\342\301nm\274\277,\033\342\301nm\274\277,\033\342\301nm\274\277\006=\321n\rZ\274\277,\033\342\301nm\274\277,\033\342\301nm\274\277\231\324\346\022\200\372\272\277,\033\342\301nm\274\277,\033\342\301nm\274\277\207;\224\242^I\272\277,\033\342\301nm\274\277,\033\342\301nm\274\277,\033\342\301nm\274\277,\033\342\301nm\274\277,\033\342\301nm\274\277,\033\342\301nm\274\277\037\222\265&^\336\272\277,\033\342\301nm\274\277\377\226~q\2560\273\277,\033\342\301nm\274\277,\033\342\301nm\274\277,\033\342\301nm\274\277\030\240\234\335#j\274\277,\033\342\301nm\274\277,\033\342\301nm\274\277,\033\342\301nm\274\277,\033\342\301nm\274\277,\033\342\301nm\274\277,\033\342\301nm\274\277,\033\342\301nm\274\2772x\312\240\305K\273\277\321\206%\201\266B\274\277f\212\235\206\006C\274\277,\033\342\301nm\274\277\256IV1\232\334\273\277,\033\342\301nm\274\277,\033\342\301nm\274\277,\033\342\301nm\274\277,\033\342\301nm\274\277Q\274\220\270\201\211\262\2772\314\2249y@\211?qR\032$|\030\267\277,\033\342\301nm\274\277,\033\342\301nm\274\277\351!\017S\224N\272\277a\267\376QH]\274\277,\033\342\301nm\274\277\277\262\232\215@\270G?,\033\342\301nm\274\277,\033\342\301nm\274\277)\330s\254\262X\274\277,\033\342\301nm\274\277,\033\342\301nm\274\277\250\221\034\325\250z\273\277,\033\342\301nm\274\277\305/\277\t\311g\274\277,\033\342\301nm\274\277,\033\342\301nm\274\277,\033\342\301nm\274\277\274\326mYvg\274\277\257S\262\375\264w\265\277[ \021C\215W\274\277\203\353l\224\235\311\267\277a%\343\371\340f\274\277,\033\342\301nm\274\277\374\037\017\rk\036\266\277,\033\342\301nm\274\277\303B\273&qi\274\277F\343\221l\216h\274\277]/\214\242\354\016 @,\033\342\301nm\274\277/\022\177hi\001\237\277,\033\342\301nm\274\277,\033\342\301nm\274\277\006\356\371|~i\274\277,\033\342\301nm\274\277,\033\342\301nm\274\277,\033\342\301nm\274\277,\033\342\301nm\274\277Rs\001Vu\371\272\277,\033\342\301nm\274\277,\033\342\301nm\274\277\214\013\261f.\032\274\277,\033\342\301nm\274\277,\033\342\301nm\274\277\021o\004x\301\326\271\277!\005\253\310\020d\274\277,\033\342\301nm\274\277\3166\376r\365\302\271\277,\033\342\301nm\274\277,\033\342\301nm\274\277,\033\342\301nm\274\277,\033\342\301nm\274\277,\033\342\301nm\274\2773\353\006^\3171\270\277,\033\342\301nm\274\277,\033\342\301nm\274\277,\033\342\301nm\274\277,\033\342\301nm\274\277,\033\342\301nm\274\2772\305\214\252\013\010\273\277,\033\342\301nm\274\277i\320mZ\224Z\316?,\033\342\301nm\274\277\361\276\005\323:Z\004@\240\023\350\250\033@\274\277ZvQ\306\r_\274\277,\033\342\301nm\274\277,\033\342\301nm\274\277\r/\247\010\271g\274\277\376\252\372<\301\210\367?,\033\342\301nm\274\277,\033\342\301nm\274\277,\033\342\301nm\274\277,\033\342\301nm\274\277,\033\342\301nm\274\277,\033\342\301nm\274\277q\263$\373\323k\274\277.?C!!i\274\277,\033\342\301nm\274\277,\033\342\301nm\274\277,\033\342\301nm\274\277Y\241\361\007\316b\274\277\260|\301i\013\242\231\277,\033\342\301nm\274\277,\033\342\301nm\274\277,\033\342\301nm\274\277,\033\342\301nm\274\277\255\353\202C\021D\274\277,\033\342\301nm\274\277]o<\223\343e\274\277\277\260KpBU\274\277,\033\342\301nm\274\277,\033\342\301nm\274\277\312\032\330\263\273@\274\2777\342\243\004\312\305\232\277Lc\333\200d\327\273\277\340\367n\264\350b\274\277,\033\342\301nm\274\277x\334-b\366g\274\277,\033\342\301nm\274\277,\033\342\301nm\274\277,\033\342\301nm\274\277hZ\323J\201k\274\277,\033\342\301nm\274\277\346\270.b\245\003\267\277,\033\342\301nm\274\277,\033\342\301nm\274\277,\033\342\301nm\274\277,\033\342\301nm\274\277,\033\342\301nm\274\277,\033\342\301nm\274\277_t\220<\214H\274\277,\033\342\301nm\274\277\231\247\232\333 >\274\277,\033\342\301nm\274\277\352\004\376\204(\022\274\277W\306\227\225\023\343+@,\033\342\301nm\274\277\336\376\255\226\366j\274\277,\033\342\301nm\274\277,\033\342\301nm\274\277,\033\342\301nm\274\277,\033\342\301nm\274\277,\033\342\301nm\274\277,\033\342\301nm\274\277h\264 \350>\327\251\277\203\250\341\022nc\274\277\312\t\307\317xd\274\277,\033\342\301nm\274\277,\033\342\301nm\274\277,\033\342\301nm\274\277\347W\377FIk\274\277p\247=\021Vc\274\277a\237\204\334\023j\274\277,\033\342\301nm\274\277,\033\342\301nm\274\277,\033\342\301nm\274\277\236i(,\234G\274\277,\033\342\301nm\274\277,\033\342\301nm\274\277\231\212\314\274Ch\274\277,\033\342\301nm\274\277,\033\342\301nm\274\277,\033\342\301nm\274\277,\033\342\301nm\274\2771\336E\2159\323\273\277,\033\342\301nm\274\277,\033\342\301nm\274\277,\033\342\301nm\274\277,\033\342\301nm\274\277,\033\342\301nm\274\277,\033\342\301nm\274\277,\033\342\301nm\274\277Wo\224\326T*\274\277D\304Z\007\241@\274\277,\033\342\301nm\274\277c\267(\001,l\274\277,\033\342\301nm\274\277\240\002\327\304\330c\274\277,\033\342\301nm\274\277O\302A:\256e\274\277,\033\342\301nm\274\277,\033\342\301nm\274\277,\033\342\301nm\274\277P\307\225\343VH\274\277,\033\342\301nm\274\277,\033\342\301nm\274\277i\t\275\301\3057\274\277\017\3568Gc)\273\277,\033\342\301nm\274\277\240\245Gn\266\220\352?,\033\342\301nm\274\277,\033\342\301nm\274\277,\033\342\301nm\274\277,\033\342\301nm\274\277,\033\342\301nm\274\277,\033\342\301nm\274\277,\033\342\301nm\274\277\36661\216\334\216\271\277,\033\342\301nm\274\277,\033\342\301nm\274\277s\016\343\326\340d\274\277,\033\342\301nm\274\277\362\235T\332\363i\274\277,\033\342\301nm\274\277\332%\246\372y\331\273\277\213\335\321c\016h\274\277,\033\342\301nm\274\277\017\375\2355\007M\274\277,\033\342\301nm\274\27741\357\013\351g\274\277\\\365p\001\315S\274\277,\033\342\301nm\274\277\210\226\345\037\371\314\273\277,\033\342\301nm\274\277,\033\342\301nm\274\277\324\205W\336\367\331\266\277,\033\342\301nm\274\277,\033\342\301nm\274\277,\033\342\301nm\274\277\033@\004\037\200\323\002@,\033\342\301nm\274\277,\033\342\301nm\274\277,\033\342\301nm\274\277,\033\342\301nm\274\277\204m\006h\272\337\273\277IJ72\031j\274\277,\033\342\301nm\274\277,\033\342\301nm\274\277,\033\342\301nm\274\277,\033\342\301nm\274\277,\033\342\301nm\274\277,\033\342\301nm\274\277,\033\342\301nm\274\277xOf\2637T\274\277,\033\342\301nm\274\277\207\374`\014mT\274\277,\033\342\301nm\274\277,\033\342\301nm\274\277P.\347J\032,\274\277\236\341\212w\242\007\274\277,\033\342\301nm\274\277,\033\342\301nm\274\277,\033\342\301nm\274\277,\033\342\301nm\274\277\257\307uB&f\274\277,\033\342\301nm\274\277,\033\342\301nm\274\277,\033\342\301nm\274\277,\033\342\301nm\274\277\217\233\341\2050\353\273\277\242\275\247%\2338\274\277,\033\342\301nm\274\277B\032\233\212!H\274\277\253\266\020\000\034l\274\277~\021\364\003\263]\274\277,\033\342\301nm\274\277\253lc\010RO\274\277\266\271!-\356d\274\277,\033\342\301nm\274\277,\033\342\301nm\274\277,\033\342\301nm\274\277\346\352Y\302\310\206\245\277,\033\342\301nm\274\277,\033\342\301nm\274\277,\033\342\301nm\274\277\247\031\017\202\276<\225\277,\033\342\301nm\274\277\205\007\213{FX\273\277\026z\374\346D+\274\277p9Yi\275Y\274\277\310\226d\317Si\274\277,\033\342\301nm\274\277%M^\326\347\265\364?\201\257 \365{k\274\277,\033\342\301nm\274\277T\n.\250\366k\274\277\014\013F\251\006l\274\277,\033\342\301nm\274\277\246bgW9l\274\277,\033\342\301nm\274\277,\033\342\301nm\274\277\275m\335Z\206@\274\277,\033\342\301nm\274\277\310\327i\236\377+\274\277\304T\027\274\006\013\264\277\034+\243\002ag\274\277\331}\222s\231\231\272\277,\033\342\301nm\274\277|xEkvA\274\277,\033\342\301nm\274\277y\210sG\030Q\240\277,\033\342\301nm\274\277\013\353\323B\350e\270\277,\033\342\301nm\274\277 \270/\332!\010\270\277,\033\342\301nm\274\277\244\373\301\221\256j\274\277,\033\342\301nm\274\277\312\336&\216\270`\274\277\267?\016\204\2651\212\277.\271\344\003Tl\274\277\035\021\352\365\3770\274\277,\033\342\301nm\274\277\376\374\371]\"\270\273\277,\033\342\301nm\274\277,\033\342\301nm\274\277Z\271\225,\346d\274\277,\033\342\301nm\274\277\035\307\226\035\227\336*@\322 \252\224B\273\273\277\222*<*\343_\274\277\246\037#\361`f\274\277,\033\342\301nm\274\277\244+\266|\027Q\274\277,\033\342\301nm\274\277;!\247\346\243}\264\277H\333_\312\305\033\300?,\033\342\301nm\274\277(\313\272\263\255\355\271\277,\033\342\301nm\274\277\235\277h\257\034O\274\277a\342\236\223\010a\274\277BE;\314\341K\274\277,\033\342\301nm\274\277,\033\342\301nm\274\277,\033\342\301nm\274\277\256IV1\232\334\273\277,\033\342\301nm\274\277,\033\342\301nm\274\277,\033\342\301nm\274\277,\033\342\301nm\274\277,\033\342\301nm\274\277|xEkvA\274\277\r/\247\010\271g\274\277\264\3172\\\022\006\274\277,\033\342\301nm\274\277Y+;\262f[\273\277,\033\342\301nm\274\277,\033\342\301nm\274\277,\033\342\301nm\274\277[\2028\260\213g\274\277,\033\342\301nm\274\277,\033\342\301nm\274\277,\033\342\301nm\274\277,\033\342\301nm\274\277\216\310\260\027\355\325\221?\223w\3763)\034\274\277,\033\342\301nm\274\277\005\002\366\303Y\326\273\277\337\234\260\330\333i\274\277,\033\342\301nm\274\277,\033\342\301nm\274\277\216\223x\312\013i\274\277,\033\342\301nm\274\277.\001Sd\361E\274\277,\033\342\301nm\274\277\363h\243S8%\273\277~\371y\216~j\274\277\353\311\"\332t\216\273\277,\033\342\301nm\274\277-\002)\337@\242\273\277,\033\342\301nm\274\277\246bgW9l\274\277P\313\355\316\224\271\271\277,\033\342\301nm\274\277,\033\342\301nm\274\277\351\r|\376b]\274\277\004\340\323\373\323\035\274\277\374\207\376\215#z\373?\342RW?\331j\274\277\025\224\213D\302R\274\277,\033\342\301nm\274\277\341\034\023\355\\0\272\277:@?f\252-\274\277\243\342\261\242\225{\356?,\033\342\301nm\274\277\310\214S\212X(\273\277,\033\342\301nm\274\277\307=\007\207\365\340\005@,\033\342\301nm\274\277\321\357\265\177\246i\274\277ZvQ\306\r_\274\277\001\232P\324\233i\274\277,\033\342\301nm\274\277,\033\342\301nm\274\277\253\266\020\000\034l\274\277,\033\342\301nm\274\277,\033\342\301nm\274\277,\033\342\301nm\274\277,\033\342\301nm\274\277,\033\342\301nm\274\277,\033\342\301nm\274\277,\033\342\301nm\274\277\367\334\230\037\036\026\274\277,\033\342\301nm\274\277,\033\342\301nm\274\277\220\274-\323fG\274\277,\033\342\301nm\274\277,\033\342\301nm\274\277,\033\342\301nm\274\277\264\202pR\314I\274\277,\033\342\301nm\274\277,\033\342\301nm\274\277,\033\342\301nm\274\277,\033\342\301nm\274\277,\033\342\301nm\274\277s\347\336\355\221,\350?a\342\236\223\010a\274\277\356\230\254\322\203i\274\2775B\000\360+D\274\277,\033\342\301nm\274\277\305Z_K\211k\274\277,\033\342\301nm\274\277,\033\342\301nm\274\277,\033\342\301nm\274\277,\033\342\301nm\274\277,\033\342\301nm\274\277,\033\342\301nm\274\277,\033\342\301nm\274\277,\033\342\301nm\274\277,\033\342\301nm\274\277\3166\376r\365\302\271\277y\364\321\206\016j\274\277,\033\342\301nm\274\277,\033\342\301nm\274\277\037ei\357\376!\274\277,\033\342\301nm\274\277w\007\316\243\266k\274\277\265NW=\371h+@\033\007B\243\256k\274\277,\033\342\301nm\274\277b\325\315\300w\327\307?,\033\342\301nm\274\277V\211#4\322Q\274\277,\033\342\301nm\274\277;\262Vk\233\260\254\277,\033\342\301nm\274\277,\033\342\301nm\274\277\205\'\001N-X\274\277,\033\342\301nm\274\277\373\205\212\371\336\245\266\277,\033\342\301nm\274\277,\033\342\301nm\274\277,\033\342\301nm\274\277\373\364f\363\031\'\274\277\326\300\025\0358\014\274\277,\033\342\301nm\274\277,\033\342\301nm\274\277,\033\342\301nm\274\277,\033\342\301nm\274\277,\033\342\301nm\274\277,\033\342\301nm\274\277,\033\342\301nm\274\277,\033\342\301nm\274\277,\033\342\301nm\274\277,\033\342\301nm\274\277,\033\342\301nm\274\277,\033\342\301nm\274\277\307T\320V\316\367\240\277,\033\342\301nm\274\277"
      }
    }
  }
}
node {
  name: "tensors/component_5"
  op: "Const"
  device: "/device:CPU:0"
  attr {
    key: "_output_shapes"
    value {
      list {
        shape {
          dim {
            size: 750
          }
        }
      }
    }
  }
  attr {
    key: "dtype"
    value {
      type: DT_DOUBLE
    }
  }
  attr {
    key: "value"
    value {
      tensor {
        dtype: DT_DOUBLE
        tensor_shape {
          dim {
            size: 750
          }
        }
