node {
  name: "global_step/Initializer/zeros"
  op: "Const"
  attr {
    key: "_class"
    value {
      list {
        s: "loc:@global_step"
      }
    }
  }
  attr {
    key: "_output_shapes"
    value {
      list {
        shape {
        }
      }
    }
  }
  attr {
    key: "dtype"
    value {
      type: DT_INT64
    }
  }
  attr {
    key: "value"
    value {
      tensor {
        dtype: DT_INT64
        tensor_shape {
        }
        int64_val: 0
      }
    }
  }
}
node {
  name: "global_step"
  op: "VariableV2"
  attr {
    key: "_class"
    value {
      list {
        s: "loc:@global_step"
      }
    }
  }
  attr {
    key: "_output_shapes"
    value {
      list {
        shape {
        }
      }
    }
  }
  attr {
    key: "container"
    value {
      s: ""
    }
  }
  attr {
    key: "dtype"
    value {
      type: DT_INT64
    }
  }
  attr {
    key: "shape"
    value {
      shape {
      }
    }
  }
  attr {
    key: "shared_name"
    value {
      s: ""
    }
  }
}
node {
  name: "global_step/Assign"
  op: "Assign"
  input: "global_step"
  input: "global_step/Initializer/zeros"
  attr {
    key: "T"
    value {
      type: DT_INT64
    }
  }
  attr {
    key: "_class"
    value {
      list {
        s: "loc:@global_step"
      }
    }
  }
  attr {
    key: "_output_shapes"
    value {
      list {
        shape {
        }
      }
    }
  }
  attr {
    key: "use_locking"
    value {
      b: true
    }
  }
  attr {
    key: "validate_shape"
    value {
      b: true
    }
  }
}
node {
  name: "global_step/read"
  op: "Identity"
  input: "global_step"
  attr {
    key: "T"
    value {
      type: DT_INT64
    }
  }
  attr {
    key: "_class"
    value {
      list {
        s: "loc:@global_step"
      }
    }
  }
  attr {
    key: "_output_shapes"
    value {
      list {
        shape {
        }
      }
    }
  }
}
node {
  name: "global_step/IsVariableInitialized"
  op: "IsVariableInitialized"
  input: "global_step"
  attr {
    key: "_class"
    value {
      list {
        s: "loc:@global_step"
      }
    }
  }
  attr {
    key: "_output_shapes"
    value {
      list {
        shape {
        }
      }
    }
  }
  attr {
    key: "dtype"
    value {
      type: DT_INT64
    }
  }
}
node {
  name: "global_step/cond/Switch"
  op: "Switch"
  input: "global_step/IsVariableInitialized"
  input: "global_step/IsVariableInitialized"
  attr {
    key: "T"
    value {
      type: DT_BOOL
    }
  }
  attr {
    key: "_output_shapes"
    value {
      list {
        shape {
        }
        shape {
        }
      }
    }
  }
}
node {
  name: "global_step/cond/switch_t"
  op: "Identity"
  input: "global_step/cond/Switch:1"
  attr {
    key: "T"
    value {
      type: DT_BOOL
    }
  }
  attr {
    key: "_output_shapes"
    value {
      list {
        shape {
        }
      }
    }
  }
}
node {
  name: "global_step/cond/switch_f"
  op: "Identity"
  input: "global_step/cond/Switch"
  attr {
    key: "T"
    value {
      type: DT_BOOL
    }
  }
  attr {
    key: "_output_shapes"
    value {
      list {
        shape {
        }
      }
    }
  }
}
node {
  name: "global_step/cond/pred_id"
  op: "Identity"
  input: "global_step/IsVariableInitialized"
  attr {
    key: "T"
    value {
      type: DT_BOOL
    }
  }
  attr {
    key: "_output_shapes"
    value {
      list {
        shape {
        }
      }
    }
  }
}
node {
  name: "global_step/cond/read"
  op: "Identity"
  input: "global_step/cond/read/Switch:1"
  attr {
    key: "T"
    value {
      type: DT_INT64
    }
  }
  attr {
    key: "_output_shapes"
    value {
      list {
        shape {
        }
      }
    }
  }
}
node {
  name: "global_step/cond/read/Switch"
  op: "RefSwitch"
  input: "global_step"
  input: "global_step/cond/pred_id"
  attr {
    key: "T"
    value {
      type: DT_INT64
    }
  }
  attr {
    key: "_class"
    value {
      list {
        s: "loc:@global_step"
      }
    }
  }
  attr {
    key: "_output_shapes"
    value {
      list {
        shape {
        }
        shape {
        }
      }
    }
  }
}
node {
  name: "global_step/cond/Switch_1"
  op: "Switch"
  input: "global_step/Initializer/zeros"
  input: "global_step/cond/pred_id"
  attr {
    key: "T"
    value {
      type: DT_INT64
    }
  }
  attr {
    key: "_class"
    value {
      list {
        s: "loc:@global_step"
      }
    }
  }
  attr {
    key: "_output_shapes"
    value {
      list {
        shape {
        }
        shape {
        }
      }
    }
  }
}
node {
  name: "global_step/cond/Merge"
  op: "Merge"
  input: "global_step/cond/Switch_1"
  input: "global_step/cond/read"
  attr {
    key: "N"
    value {
      i: 2
    }
  }
  attr {
    key: "T"
    value {
      type: DT_INT64
    }
  }
  attr {
    key: "_output_shapes"
    value {
      list {
        shape {
        }
        shape {
        }
      }
    }
  }
}
node {
  name: "global_step/add/y"
  op: "Const"
  attr {
    key: "_output_shapes"
    value {
      list {
        shape {
        }
      }
    }
  }
  attr {
    key: "dtype"
    value {
      type: DT_INT64
    }
  }
  attr {
    key: "value"
    value {
      tensor {
        dtype: DT_INT64
        tensor_shape {
        }
        int64_val: 0
      }
    }
  }
}
node {
  name: "global_step/add"
  op: "Add"
  input: "global_step/cond/Merge"
  input: "global_step/add/y"
  attr {
    key: "T"
    value {
      type: DT_INT64
    }
  }
  attr {
    key: "_output_shapes"
    value {
      list {
        shape {
        }
      }
    }
  }
}
node {
  name: "tensors/component_0"
  op: "Const"
  device: "/device:CPU:0"
  attr {
    key: "_output_shapes"
    value {
      list {
        shape {
          dim {
            size: 750
          }
        }
      }
    }
  }
  attr {
    key: "dtype"
    value {
      type: DT_DOUBLE
    }
  }
  attr {
    key: "value"
    value {
      tensor {
        dtype: DT_DOUBLE
        tensor_shape {
          dim {
            size: 750
          }
        }
        tensor_content: "\225m\3130\237\367\350\277k\266\2744p\355\361?|g\222\244\366\246\345?1\267\326\361c\237\325\277`j\332\355\022r\340\277\014P\262R\364\311\257?F\252\3611sB\352\277h\311\376O\322\213\367?m,\004\005yH\365?<\002\021#NZ\001@\221\036jz\317O\350\277\277_\317\356\221\377\324\277\002\256I\207V\300\365?jj@,\344\007\350\277\246\316\346\3700\311\362?C\375\034\021@\301\337?*se\305\275%\320?\236\304\207j\367E\302\277*\244\210\365\311x\352\277L\306G\"\204\271\352\277\021\001%n\307k\350\277ZB_Q|}\342\277\267\372\333\305h\301\342\277\204\200tnG5\343\277\314g\314\3274i\352\277rk\325\256AI\343\277\232\270\030\365\2361\377?\372\0229)\022h\347\277\323\370A\200\366\020\263\277\301Ip\033!4\347\277\210G\330\311\271\356\327\277\2467\3422\362\354\351\277\276\317\024YHk\371?\255\270RZ&\277\352\277M\356T&\177&\374?\220\220\330Q\273\371\351\277Ia\266\253\364\246\244\277\026\360\320\306\347N\327\277\227(\357\230#\245\352\277\345\207R\231\003!\344\277\225\321)\327j\364\337\277\215\367P\301\255\321\341\277E\336^\333\246\351\341\277rW1\260j4\346\277\334\301G/\266\247\350\277C\352\332\365\335\"\332?\223\013(_m\261\342\277\014\233$t\256\221\260\277\266\177\214\270\266\t\352\277\203@\337)\246\276\346?\306\225\037\303\225\344\364?\344&;X\337\345\332\277\322\t5\236\010\237\351\277\360\233\\\326\253\313\350\277m,\004\005yH\365?\324\017\341\303?C\352\277\236\327\311\205Y\344\307\277e5\347\221\241c\312\277\331\352\000v\tN\352\277\277\025ydS\006\301\277\330\206\212w\275\024\345\277\035\211\363\260\251%\361?\226&PI\357\243\002@_\304@\302U\314\352\277\314q\036W\240\363\350\277\220\323\341\274\034Y\351\277v\246\222f:\334\346\277\360o\267\260\026\016\275\277\312\345_[\246\220\351\277I\270\034\252\373}\352\277nX\212\241\217t\337\277\334\260\300\350\355\277\323\277\312\004\014<\'\020\300?\\\007\3258l\265\342\277\0135\266\346\303\003\327?\236\304\207j\367E\302\277\026\214r \034R\340\2771\267\326\361c\237\325\277\231\034M\356\321\231\360?K(\214\306\213\302\352\277K\tQ\215\345\030\352\277\242\2027Q\274\030\345\277\017B\023\244\215\"\316\277\201\206\330\213\375#\311\277#E)\232W\242\352\277\200\304\356\"N\021\352\277?\010T\313\327\240\222?\221\036jz\317O\350\277\2041FW`X\346\277\333\r\3047B\215\362?\251\004\327l3\274\351\277\326\214\356\224s\003\313\277\233\275\216\312\343\025\341\277]\247\037\333\274\360\320\277\234\022\337\351\000Z\t@\214\2269\200\211\226\330\277\373\306\340\244F\335\352\277\177y{\3163\005\322?\326\214\356\224s\003\313\277\263\2032\022\353\357\347\277\372v\227\317\335d\336\277E\237\300\320\306\263\367?7\004}\323\231\220\345\277\244\373\233\331\323\240\320\277E\362\224F\254J\255?m\273\\\267Mf\331\277\223L\324\177\263\340\r@\347\217\274\0169R\232\277xD\"4\361`\344\277\367#\334\364?\005\005@M\010\310\353\277_\324\277\326\214\356\224s\003\313\277\261\2555\3442\320\322\277\014\301\250\252r\316\273\277\3401+\342\010\024\326?E\237\300\320\306\263\367?\277_\317\356\221\377\324\277\202n\213D\n\327\326\277\243)\267\272i\261\351\277Z\032\027T\316S\350\277\362\205h\254\3565\360?\304\034\361\303\204\245\251\277\345\207R\231\003!\344\277\374\276\323\267<&\247\277\024\237\264;~\360\345\277\357\330<\"\324\314\245?\"\237\316Y\032\342\271?\236\304\207j\367E\302\277\334\260\300\350\355\277\323\277INY\263\242\335\352\277\003\212\025|x\004\346\277S\220\370\345\005\031\344\277\3156\224>\220+\351\277\240\365\231s\201\261\361?\315\205v5Bd\262?\267\247P\206\232P\264\277\201\233aj<\335\352\277\032z\274\225\307\276\327\277\000\000*\255\230\224\345\2777\202\227u\275\354\313?\\\177\327\335\016\307\326\277\024\2312f\217D\213?\217\200\332\254\030\313\352\277~\005n\222\342\317\266\277\2423\t:\325;\350\277\341{\201lG\r\312?\247\202j\360\244\343\350\277;S\336\211i8\346\277\035\211\363\260\251%\361?\263\2032\022\353\357\347\277\233\251\352\313\014\001\344\277\177y{\3163\005\322?\247\217H\356P\223\330?\357v1\221\014\317\326\277Y\241\035uj\001\362?\031\372\221\014\205\321\336?\360\023_{N\335\334\277~l\235\320\207U\342\277)\000\264~\252\014\007@\224\343\223A\212\343\264?\246j\035\251\261\226\346?,q}/\013H\352\277\261\2555\3442\320\322\277|\316\r\003\321\320\344\277\360\233\\\326\253\313\350\277\270\225j`v\316\000@\240! \020\230\335\333\277<\377\244F\361\254\354?\224\271G9+\335\362?\031\356\025\362M\230\346\277Q/\341\244\341\335\332\277e\"\245v?\305\304\277\035=w\250\035@\347\277q;\016_B\210\351\277ej\r\215\373<\344\277\223]\315\213\374\310\351\277\272(\273\177\265\244\306\277?V.\341`0\322\277{\342\261\001\250\345\341\277\212/\332\246\024\"\002@\025\3172\325*\323\352\277\362M\220\2429e\343\277\226\336\007\325\026\244\357?\tO\276\002Q\007\352\277\326y\254y\021e\305\277\315J8=g@\346\277\332\233\272\006\2424\337\277\360\253W\214f\250\340?\201\233aj<\335\352\277xhV?\317\034\364?\225\201o/v\014\346\277\370ag@\371D\344\277,\223\004\236\351\342\314\277]\270\246!\205\330\345\277\271\227\t\260\252\317\350\277I\005x\224\310g\350\277\352\257\3155\232\025\342\277\367\024\364\375\253\036\330\277\354tC\035\212M\342\277\304\277\267\353)\217\352\277\ncb\001(\034\347\277\000\354\205\256\301\177\350\277m\253\036\025<)m?\344\242\023\007\267V\351\2772\217\246L6\262\351\277G@\002\255\330/\350\277\254\371\023\244\"\265\343\277\017W\244\321p[\004@8h\333ye\215\334\277\036\002\355\217\rx\347\277\036\026\221\216\344\214\344\277\265A\342\370\257\302\332?2\324\201\366\250S\225\277\334\260\300\350\355\277\323\277\234F\030\266N\017\352\277^\314J \\\355\342\277\242\016\336\3645?\326\277\356N\351\223^\245\334\277\003\2720KA/\303?\326y\254y\021e\305\277\261\2555\3442\320\322\277p7\274\204\327\013\317?\332\261I\212\023y\351\277\212/\332\246\024\"\002@D\327\230\332{\204\324?\023\264\311\203\372\201\352\277\313R\017\254;\274\352\277\375\326g/\236$\261?\316\333tX\t\303\005@\216\035D\240\036\341\352\277\300\364\225\336\002\263\351\277i\324/\261~\032\352\277\331r\346x\346\377\347\277 \263\276x&\233\352\277\206\237\016\325\027\034\352\277\373\260\310\366\310\354\344\277\037\377:\201\262\200\364?\2636\327\'\036\006\352\277,\200\302\202\207D\307\277.\241D\177\n\t\344\277\312\004\014<\'\020\300?,\272\030\214\021\255\206\277\257HuZ\362\\\344\277\004c/b?Q\343\277\376\355@\203[6\331\277.\036\335\233\325v\006@ZB_Q|}\342\277\315\205v5Bd\262?f\334\253\024\350_\342?\374\276\323\267<&\247\277\037\233q13N\350?\207#N~\300\347\351\277U\271\372\222b\303\352\277\327\255p\221\366\307\347\277,E\032\344\335\301\352\277\2212\016y\246d\345\277qC\215\261\223\037\351\277<\320v\2464\246\010@\320\324#\014G\260\346\277A\274\005GF\\\017@\213\n\223\334\017p\347\277z\365\363\034\n\204\347\277\267\315\324\274^\215\277\277\255Y\030& \372\001@\337K3\376\225\027\351\277D\242r\337!\253\352\277-\262\263mR\264\352\277-\261\324\213\021\260\366?\331*\t\256\3015\n@\225\\D\352\326\017\324\277\344\370\216={\315\352?\236\304\207j\367E\302\277\201\206\330\213\375#\311\2777\220#w\023\267\326\277\265p\360\366\210Q\342\277\374\234$\370\361\327\347\277\327\035\014<\310~\352\277?\010T\313\327\240\222?\347\217\274\0169R\232\277\2475\367\255W\275\334\277\340Dm\375j\262\333?\360o\267\260\026\016\275\277\202\244\250y%\361\362?\232\274,\347n\237\351\277\004\233\007l\364!\360?S\321\244\006LH\017@\024\2312f\217D\213?\234\005\342w\007\243\351\277rk\325\256AI\343\277\222\343\337a\277\207\350\277&a\021\362\314\221\376?|\214\275\351\225\243\327?\237\244\022?d\035\353?\327\255p\221\366\307\347\277d\271;\244\342\031\341\277R\2112\345\332\263\326?\225\274\371G\206\324\345\277m\310:\265\371\025\351?\"\200\263\262gj\352\277\236\352\013\241\273\202\315\277\263\2032\022\353\357\347\277\332_\244]\204a\342\277\025\260\246+\372\r\360?\363\335\337\216\317\303\311\277\233V_\214>\220\265\277\360\303\244\323Y\365\342\277\376JD\322\257\003\370?\230\203]\243\370\215\332\277=,\370o0\205\343\277\272\\\177\227\232\007\351\277\021\266\234\260\024u\351\277\363\312\235sm%\304\277\221\036jz\317O\350\277S\323\210o\031\255\312?I\312\355{\270\237\350\277\0321\246{a,\315?\214\245!w\035}\005@\025H\007\322E|\351\277e\"\245v?\305\304\277\000\354\205\256\301\177\350\277&a|\233\200\307\343?b\003_\2178H\341?5\023\026\246\337\366\345?\303~\201\255\342\"\352\277/\'\034\\\032\013\372?ZI|\300X\236\352\277\030\025\374\013\207K\351\277\323\370A\200\366\020\263\277\2353\326\232\354p\344\277\237\244\022?d\035\353?\000P\344T\215|\337\277 z\007\2150\306\351\277\340p\311\354\350I\360?}\313[\364u\331\361?\322\301\341\360\344\021\341\277&\240\257\374\254\307\350\277\246\303\216\343g\237\227?\3639\354\243bP\346\277#e\362D\2644\345\277\203\223\266\211\251\323\350\277p7\274\204\327\013\317?\263\276\274*\373\267\347\277\022y\'\023j}\334\277\365\353\037p\360\351\340\277h\000\251\303\314\331\352\277\270\tx\207\226y\352\277\\\007\3258l\265\342\2772\324\201\366\250S\225\277\r\"t\313ae\321?\265.\240\335M$\325?\214ukc\321-\310?\332\233\272\006\2424\337\277\322\177\221\327\251\344\323?f\334\253\024\350_\342?\353O\030\330\352P\320\277\375\326g/\236$\261?\364b\3001\036\205\335\277\300-M\312\370\207\352\277&\264S\373\203\334\345\277\264\034\267\263\020\306\350??\266\343>\020\365\343\277m\310:\265\371\025\351?\303\363{\003\017\362\334?\024>\235\372Y\265\334\2777oUZ[N\306?q\217\t\272\037\005\363?|\316\r\003\321\320\344\277\270\225j`v\316\000@\206\252\252\337w\340\321\277lW\376\020\202i\342\277\376\337\264\201\005l\316?\003\212\025|x\004\346\277\264\034\267\263\020\306\350?\021\377\205\036\223j\000@G@\002\255\330/\350\277xX\3062\310u\341\277\222\343\337a\277\207\350\277\323\370A\200\366\020\263\277\361`\322\275\233\003\351\277\2121y\366H#\352\277\232\370\030\343\363\335\340\277,\304\026\247sN\374?\t\313~Y\250;\352\277\353\340z\303\211\311\352\277e\"\245v?\305\304\277(y\311\342s\024\346\277\362\000\035`\354>\327\277\376\337\264\201\005l\316?:\216h\242y\000\346\277\222\343\337a\277\207\350\277\227\341s\261sQ\004@\362\033\366% \261\352\277R\234t\000=R\334?\303\273\016\243\rW\345?\363\360!\2521b\317\277\212\2559M\240W\352\277\221b)Ho\217\302?\317#R#.\215\343\277\320Q\274(\022\036\t@\222\303J\224H\347\004@G\214~\265d\025\362?\375\326g/\236$\261?\317*\220r\353L\313?\240\275\301i\314\340\344\277\312\232\327\235\363\231\352\277\321Zf\222\n\350\341?\030\302$\254\2036\347?ej\r\215\373<\344\277\272\\\177\227\232\007\351\277\230\013[\376U|\346\277\n\020\213\241$\007\345?\251[\204\326k0\346\277\211}\365\376\324\010\364?\262\322`)\322\314\344\277\000\024\316\253o\251\342\277,\223\004\236\351\342\314\277\3273Hn\006\312\375?\240\251\035k\365\313\347\277m\273\\\267Mf\331\277YU\241l\336\033\350\277\355\"c\367Gy\362?M\276qa\201f\300\277e\"\245v?\305\304\277\"\237\316Y\032\342\271?~\224w:d\313\252??\010T\313\327\240\222?\374\225^\367\306r\332?\237TC.\327J\352\277`j\332\355\022r\340\277 S\t\033w\326\330\277(y\311\342s\024\346\277\307tge\006\022\020@Qd\007\240;\267\344?\376\337\264\201\005l\316?\360o\267\260\026\016\275\277\007\355\0321\037\301\343\277\2041FW`X\346\277g\033\337u\024`\347\277\224\343\223A\212\343\264?\020\364\022#a\310\352\277e5\347\221\241c\312\277\'\231\351\373\201b\333?\"\'g\371\372\364\005@\214\363<\317\335c\367?\240\251\035k\365\313\347\277\344s\256\232,\014\347\277jY\271\345\033 \323\277|z\324\277XE\353?\251D.\3119$\366?Ec\213\236*O\271\277\032\333\323\326\353\371\340\277\nWS\034\303\327\352\277\031\026^\357\373\301\340\277jY\271\345\033 \323\277U\271\344\313A\212\351\277\275\372\016eQ\214\346\277\215`E\337\241*\007@\"\365\314|\341@\r@d\221\363\2464\360\346\277j\271nC\313\344\344\277\024\304\307(\235\260\351\277\025S\243\334\245@\321\277\251\304x\364_\211\013@\034Q\033\247\364T\344\277\315\205v5Bd\262?\323Z\373\350V\262\374?C\005E\365\337\234\344\277\002=\2429+\336\331\277\206\032\360I.L\366?MT\331J\230\017\351\277\242\016\336\3645?\326\277\035\366\373\300m\354\000@ZB_Q|}\342\277N\223<\\\305\210\352\277\374\276\323\267<&\247\277\314\201\256c\247\232\373?\'\231\351\373\201b\333?5+c\355\322C\350\277\226\371q\324\030\036\332\277\242\226\333O\223-\342\277f/\203t\353t\344\277(y\311\342s\024\346\277\375a\232\337\341\017\350\277\310fj\234\344\337\352\277\213\251{\233\3534\336\277\226&PI\357\243\002@\341$M\344\\d\346\277\277\025ydS\006\301\277\235\020M$\225\305\352\277\251[\204\326k0\346\277])\343\305\374\204\354?\027=D\t5u\343\277{\272i\004\372\273\347\277A{Y&\000-\344\277\315\205\302Uw\010\346\277|\177\337\353\351\363\347\277\312\224[(\275n\346?\224\343\223A\212\343\264?\370u\013?\320Y\341\277\3025\314\034J\037\352\277\332\261I\212\023y\351\277\333\362\177\310Z\345\351\277\212Q\231\017Wq\337?\262\322`)\322\314\344\277\250\306\214\210(\333\352\277\223\367\203`\226\234\345\277\023f\345\367\007\337\326\277\260Z\tr\252\340\276?R\330+\334\024\244\256\277\316\256\226\3432=\335\277\017/\321\210+\204\310\277n\332#\3376t\325?]\247\037\333\274\360\320\277\306\225\037\303\225\344\364?\227(\357\230#\245\352\277\016\374\031B6\275\353?\0135\266\346\303\003\327?\305\027NW\211\256\305?+\203z\217\t\334\352\277\007\006\tr\270\003\352\277\347\260&\'\277U\333\277\030\325f\307\345\324\354?\252HB\273\t\222\340\277-\215\240\2003\364\346\277@\217\375$\327A\341\277\023{\022\230\004\255\351\277\301q\270\030\317]\341\277\244\373\233\331\323\240\320\277\033\034\200\3671)\014@C\352\332\365\335\"\332?\251=\216X)\221\352\277\030\330\322\243B\202\001@\266!\302\337\241t\345\277L\213Oq\330i\376?5Z\310Y]\216\352\277YU\241l\336\033\350\277|2l\251\234\315\333\277\005(\245I/\211\343\277:z\304\243\242\353\350\277{,\330\333\345e\351\277\024Lr2\307\245\376?\245 \307\036s\235\342\277,\200\302\202\207D\307\277\377\374(z\357\034\006@\246\275\364\010\265\253\350\277\033\\\336o\005\\\352\277M\010\310\353\277_\324\277<\377\244F\361\254\354?\2423\t:\325;\350\277\337\037B\270\313\265\351?\370ag@\371D\344\277\272R-\030/}\352\277jY\271\345\033 \323\277p7\274\204\327\013\317?b(\212\324\327D\323?\351\374\353eba\274?\224\320\235F]\351\342\277x\222\242G.#\266?\0321\246{a,\315?\221\345\2326Y>\331\277\0321\246{a,\315?M\027\260\342SF\001@\207\207\370Y\362\022\006@.f\272f\372@\344\277\240\\\252(\250\245\333\277F{\214\305\350\367\347\277\375\326g/\236$\261?\206s\226p\233\205\303\277j\245\312D\364\317\347\277\365{\372\247\035\366\010@\033%\277\267v\275\377?\244\370~!\305s\350\277\213E\035\365\0378\347\277G\214~\265d\025\362?8%\377\317\034U\322?[.\273R\245h\345\277\217M\003\304?\214\001@++\375\256\001\256\340\277o\362X\316\251\204\351\277\323\370A\200\366\020\263\277\212\031,\257U\326\347?\323\014\340\220\226\313\n@\017\213\335\235\276\020\345\277X=T%\353\316\345?`B\222\360dH\346\277]\232\260\243B9\352\277\266!\302\337\241t\345\277~TP\211\224\010\340?E\362\224F\254J\255?\366\210MZ2\370\346\277\363\312\235sm%\304\2775+c\355\322C\350\277\014\375\335\334\0163\372?\210t\266>\220t\000@\326\275\000\236\375n\372?\344s\256\232,\014\347\2773\212!\021\301\307\367?\346\345L\"\031/\345?\340\010*\2234\270\351\277\014\257\302\204NL\010@\223\367\203`\226\234\345\277\n\020\213\241$\007\345?\027=D\t5u\343\277\376\324\374\001\247\250\364?;S\336\211i8\346\277Ia\266\253\364\246\244\277\224\271G9+\335\362?\2676Z.\034L\250?\263\2032\022\353\357\347\277\010bnY\211\226U\277\363\376a\213R\210\346\277\362\033\366% \261\352\277\372\0229)\022h\347\277\360V\200>0y\352\277,\223\004\236\351\342\314\277\333\374\321G\306o\350\277\304\034\361\303\204\245\251\277\270\tx\207\226y\352\277\031\356\025\362M\230\346\277\322^\017\333& \347\277\266\207\013\013\010\241\351\277Q`1\226\006X\352\277\236\2274A\270m\333\277\303\273\016\243\rW\345?2\324\201\366\250S\225\277\330\206\212w\275\024\345\2778h\333ye\215\334\277\316\200\352\310\316$\355?\263\2032\022\353\357\347\2778%\377\317\034U\322?\017/\321\210+\204\310\277J\300\233\374L\025\352\277\333\3260\351\360\306\352\277\304\347\377\350\327\270\344\277\332_\244]\204a\342\277<\354b+\217\016\347?\267\247P\206\232P\264\277\354`\237\036\2638\345\277\346\345L\"\031/\345?\030&\356\373\002i\363?5+c\355\322C\350\277\374p3\262\'v\350?jj@,\344\007\350\277\257c6\310\245\222\351\277\026\360\320\306\347N\327\277\013<|\347\356h\344\277\314e-\210\000h\002@\364&\252\210\000\262\340\277\000\024\316\253o\251\342\277\374\276\323\267<&\247\277\243[Q7\203e\342\277\263\"\033\321\306\264\336\277\036\206F\267\342_y\277\3639\354\243bP\346\277\242\336.\375\266\272\352\277\341{\201lG\r\312??\360\277Sv\242\270?\371^\2651\236M\361?x\013S\360zO\325\277\353:*N\037\002\352\277\177y{\3163\005\322?7\220#w\023\267\326\277\231\034M\356\321\231\360?e\245\227\245\013\005\344\277>ip\374\302\316\327\277\225\\D\352\326\017\324\277\013tT\361\2439\361?h\364\370[\333\254\344\2772\244\224\326\001\001\320\277\363\360!\2521b\317\277\031\033\2501\276\357\351\277\337\037B\270\313\265\351?N\212\213\326\377\363\357?\3036.\000\277\225\341\277qC\215\261\223\037\351\277[\337\214;\276\213\350\277\310\036\251\256\000\336\375?);\215\273\010U\363?YiEk\2650\345\277\273Y\315\210?\020\366?\3156\224>\220+\351\277R\234t\000=R\334?\244\373\233\331\323\240\320\277\252\204Xd\'e\335\277\273\342Vt\252\t\377?)\022\232\244\316\216\272\277\363\376a\213R\210\346\277\234\022\337\351\000Z\t@\007\355\0321\037\301\343\277\242\016\336\3645?\326\277#\005=\347\004p\323\277e\"\245v?\305\304\277b\360\261\312\"t\366?k\316\236\322\257\004\337\277\203-\235\016D \341?\201\206\330\213\375#\311\277\224\250UI\257\277\350\277\245 \307\036s\235\342\277\213>W\364\364\322\331?\311xo\243b\006\010@\344\370\216={\315\352?)\000\264~\252\014\007@~s\272?dv\352\277\006\3033\344<\226\001@\257\2473~\340\340\363?\003\236\271zO\031\343\277V\267\021\237\'\227\352\277QwI\273\235U\352?<\\\023?\371\257\300?\315\262T\225\347_\351\277\031\356\025\362M\230\346\277\315 Q\360\204\025\004@\027\215\376\260)]\335\277\312\004\014<\'\020\300?(\311\203\212h\374\337\277\342a\305p\357\255\332\277e5\347\221\241c\312\277\242\353+o\260q\n@\212\2559M\240W\352\277\342\036\351\306\246u\320?\345\233\366\227\3325\341\277m\265\370\231\227w\343?e5\347\221\241c\312\277\224\271G9+\335\362?\3468$\202\034D\347\277\213+\025\331\2224\324?\037\210/\026\321\257\342?\227(\357\230#\245\352\277\341h?Q\345n\304?M\276qa\201f\300\277\027=D\t5u\343\277j\315\022B\242\371\341\277H\344\365\227E\243\313\277\201\206\330\213\375#\311\2772&X\301A\225\353?\2259\222dQB\010@+N\317\326j\363\370?rk\325\256AI\343\277\277\025ydS\006\301\277\356\314\224oP\t\352\277il\373\000~\276\330\277\305\250a\336\367\202\372?\030\325f\307\345\324\354?<\377\244F\361\254\354?\032z\274\225\307\276\327\277\256\024<\216\244\247\003@\364\212\010/\314\256\327\277\336\302\251\022+\036\340\277z\035<\032\270\255\341\277\351\352WN\252\335\341\277"
      }
    }
  }
}
node {
  name: "tensors/component_1"
  op: "Const"
  device: "/device:CPU:0"
  attr {
    key: "_output_shapes"
    value {
      list {
        shape {
          dim {
            size: 750
          }
        }
      }
    }
  }
  attr {
    key: "dtype"
    value {
      type: DT_DOUBLE
    }
  }
  attr {
    key: "value"
    value {
      tensor {
        dtype: DT_DOUBLE
        tensor_shape {
          dim {
            size: 750
          }
        }
        tensor_content: "\220\256\301Z)[\357?_4\316\311\376\273\326\277\377\003\245FT\022\371\277\204C#$\230\224\362?^k:M:\263\335\277{\025\020.:\022\361?B\243\014c\256\314\260?\321\246\214\r\276\006\360?\266\306\24158\302\300?%Jf$)\342\333?\204C#$\230\224\362?\004\266Z\221\353\302\315?3\274\361\036\314\033\377\277w\330\375\026\233\261\347?\253\337@\024\005\037\342?\215\020\343\275\034\314\342\277Y~e\213;\300\314\277s\353(U\234\276\346\277f\002:\323\014\010\340?\324\340\313Z\2532\000@\215\315\261\351\205\036\345\277\220\256\301Z)[\357?\342sL\247B>\340\277av\270m\347_\360?\315\315\007#\336\030\331?l\317\371l\221?\360\277\\R\360QAY\372\277w\330\375\026\233\261\347?\265u\rT\342B\375?\264\272\334\344\334\013\312?$\0075P\2224\336?%\320\310\314V=\327?+\373\366\325\242\232\345?,|\201\361\206\262\320\277Y\306n\354\033\261\352\277\254;\274\343\224&\363\277v\017j\232\326\250\356?3}\320\3178@\000\300\022\237\320\351\346\225\342?\002\030|\364\3363\321?Y~e\213;\300\314\277\221wU\327\355c\350?\003G\326\032\353\277\366\277\265@?\215\ng\305?\034\352Y\370\375\240\336\277+\373\366\325\242\232\345?x\241\221\223_\272\340?\222\370\337\362\321{\323\277\367\363\263\3308-\353?P\036Y_\020\177\277\277\335\021+DO\315\354?6\235\210f\333t\367?;f\034\343\237}\360?m\231\010\274\313:\270?\346`!iA1\341?\263]\n\211\227\362\375\277,\201Y~\320\365\340?\222\265\256\036;\316\325\277\251\212+2\033n\371?\'\tJ\207Zd\304\277\255\020\216\332H\311\364?\202\251\351\315\337\027\337\277\200\037[\010\362\215\374\277\301\214\353\205\017\233\301\2778\275\235\216U0\310?\240\224\206h\332\361\273?s\222\305\276a\315\275?P\177\021\373\304\324\365?\364\317r\223\376B\343\277_4\316\311\376\273\326\277 \273\377\321\361\024\371?^|\327*\337\254\344?+\373\366\325\242\232\345?\036#\333\262\001\310\273\277\271\3571\202 \004\360\2773\274\361\036\314\033\377\277,\335\324M`\375\361\277m\036i\273\027\207\366?re\306\254nc\353\277\363I\020\353\320\347\347\277^\256k!\321`\333\277%\002]\303H\361\355\277\266\306\24158\302\300?\016\371\265\252\026\006\000@Q\005t\243\362/\361?\362\013\267\243\203}\332?eG\001\266\003M\001@\204C#$\230\224\362?u\024B\215\022\021\215\277\362N\350w\032+\330?\r,\231\177\272G\346\277\266&\236\005\\\373\366\277\256l\t\252\330\320\345\277\335\021+DO\315\354?!\275\225\340Q\254\014\300R\252?\004\0212\364\277,\366\036IYW\325\277\266>\241\320\246K\366?KW\035\302^\237\350?\305\332\023\244\347\330\363\277%\002]\303H\361\355\277\ro\312SQ\365\343\277\2061a\255\325\242\260\277\246l\306\001\216\327\251\277wR\233nmV\354?\002\301sr\275d\373\277$\206)]\026\265\005\300\223;\021\307h)\321\277\321c[9\'Y\362?\362\221\031L\261\330\325?\362\026-\026-\246\001@KW\035\302^\237\350?\002\226Eiq\007\375?\3701\r \206\227\330\277&V+u\204\230\322?\ro\312SQ\365\343\277\366\260\202\004\242\177\355?\306\274\361\033\245;\320\277wR\233nmV\354?\221/Lv\rs\332\277\364\207i2\036R\305\277.\016\"\024\244\247\344\277\220.\005F_i\366?\243\241\337\036\2640\t\300^k:M:\263\335\277,\366\036IYW\325\277\020P\332\304\3641\356?s\353(U\234\276\346\277\037\257\301W\002{\360\277\316\0209\367t\306\326?\014\007\2123f7\374?\370t>\364\034E\326\277\005\3158\303\030\033\362\277.\016\"\024\244\247\344\277l\214\310\230\372\221\362\277B\243\014c\256\314\260?{q\213\375\311\031\342\277\356\177#\033\376\344\000@DQ\376\004gR\364?\004\266Z\221\353\302\315?\362\200|n\014\337\356\277P\036Y_\020\177\277\277\323TJ\365\205\212\000\300s\222\305\276a\315\275?i\230\006\023\352+\373?\265@?\215\ng\305?\367hy\243\301\216\337\2777\340\271:r\"\365?\204%\234\\z\354\271\277\220Y3O\253\306\364\277&\375\2046\377\255\315\277\322\216\211Bs\266\360\277&\375\2046\377\255\315\277Z\327\013\312\300\252\321?\021\326<m\"\215\351?\034\243\374\006\247\304\371\277\215Mn\376O\020\376\277,9P\035\360\004\323\277\315G\245z\260\275\335??\344\345W2Q\354\277\336\035\360\224\252\203\343?b\3223=wg\341\277Y~e\213;\300\314\277\221\272\206\253\204\021\346?\356\002\263\371y\013\363?\277\372\303\214\206\211\317\277l\317\371l\221?\360\277M\236z\263\265{\375\277^\256k!\321`\333\277\'\203\347\336,\t\311\277\002\030|\364\3363\321?6\235\210f\333t\367?a\360U\305\271\004\365?{q\213\375\311\031\342\277\004\266Z\221\353\302\315?\366\325\221P\366\217\367\277\017\304X_\317\211\376?\315\315\007#\336\030\331?\202nQ-\344\361\360\277\'\231\\I\033F\320?\215\377E\340w\322\313\277?\241\264\203\233\243\356\277\016\234\311eD_\266?+\373\366\325\242\232\345?\361\310\205\317\354\317\334?\3410\033\323\253\220\342\277\034\352Y\370\375\240\336\277\2027^\323<\336\373?\303/\242\257em\356?m\231\010\274\313:\270?\362\200|n\014\337\356\277\r\275F\317&\014\236?\340g\207V\347\207\351\277\253\234\017@nq\344?+>(\2529H\343?.\365\327\030\253M\361?_\2720r,\027\322\277\037l\220\203k\315\362\277,9P\035\360\004\323\277\341\252\270*~5\347\277\340\013\014\207W\200\370?.QS\350:U\342\277\353\']\006\363\020\270\277\034p\274\240+\374\331\277\222\370\337\362\321{\323\277\302\021\200\'#\320\372\277\215\020\343\275\034\314\342\277\370\356\333K\357\351\332\277\304\362\026o2)\363?iU\325>S~\375?,\335\324M`\375\361\277\367y\026\201f\210\346?\004\345;\216ck\361?^|\327*\337\254\344?\304\362\026o2)\363?#2cY\336\221\354?C\321\272\0311D\355?.\365\327\030\253M\361?\006\302\037\342Fy\304?\277B\315\355fz\355\277\362N\350w\032+\330?\336\227\215\354|(\350?v\017j\232\326\250\356?\300\305Jv\t\236\226?N>~\343\221B\307?\'\tJ\207Zd\304\277\315G\245z\260\275\335?aL\321\224I\014\346\277.QS\350:U\342\277\020\270\032\345\337\357\365\277L\335\177j\214\372\343?@\255y\324\366Y\345\277\232\t\366\371\nY\334?\333\240K\2715\250\262?WE\344\3207\231\337?\253\234\017@nq\344?\220\353\323q\310\273\370?\216\013\0131\323\210\302\277\266\270>(y\360\372?\303r\323\203\374\032\354?w\330\375\026\233\261\347?\305\332\023\244\347\330\363\2778\013\350C\276\177\363\277\233\322\211v\317a\325?\3676\345\254\317\332\350?\014c\005\003\366>\355\277\231\306\304%t\253\336?\014\220\004\025\351\250\277?^k:M:\263\335\277_w\377\235\225i\324\277X@\014D\356U\357\277\362\013\267\243\203}\332?O\304\340\213\277\235\302?\320 *e\220\253\364?\237_\353\005o \001@Y\203=\030\205\003\355\277\271Y!\024\"\275\242?3\274\361\036\314\033\377\277WE\344\3207\231\337?\254D\256j>\250\000\300,|\201\361\206\262\320\277\020P\332\304\3641\356?w\225\314B\004\004\352?wR\233nmV\354?wR\233nmV\354?\277\205\376\301\375\'\353\277\'\203\347\336,\t\311\277\253\234\017@nq\344?\353\260p\341A\217\003\300t\270E\200\370|\000@\014\2466\327\214\354\352\277\322KXn\334\010\363\277\306y\300G\016\216\322\277\354\363\241\265\330<\001\300.QS\350:U\342\277X\210\025\245\316F\335?i\006f\360\3146\367\277\253\337@\024\005\037\342?\221wU\327\355c\350?\315\315\007#\336\030\331?\004\266Z\221\353\302\315?\277\372\303\214\206\211\317\277\331gD\256\234\216\255\277\362N\350w\032+\330?\222\370\337\362\321{\323\277tqHU\177 \246\277\303r\323\203\374\032\354?\220\353\323q\310\273\370?{\322\336Y\243d\363?tqHU\177 \246\277\321c[9\'Y\362?\240E\301\340\373\257\301?\220\256\301Z)[\357?\304\265\004X\223\310\351?&\313\360?\r\372\346\277\035\263\355t\302\251\327\277]\366t\202\261Q\351?\317\305\365\305\256\255\367\277\202\364,\377\2450\376?\300\013aj+\203\346\277\222r}J\244 \330\277\277\377\233\031\320\314\357\277\002\030|\364\3363\321?L\335\177j\214\372\343?Y\224\332\365)\375\323?^\256k!\321`\333\277{q\213\375\311\031\342\277\314\006\221\213\345\303\001@\036#\333\262\001\310\273\277Av\312\250pi\242\277Y~e\213;\300\314\277\2061a\255\325\242\260\277,\335\324M`\375\361\277\364\207i2\036R\305\277,\201Y~\320\365\340?\377\003\245FT\022\371\277\314\301\311\250\356~\340?\204%\234\\z\354\271\277Av\312\250pi\242\277\220Y3O\253\306\364\277\362\200|n\014\337\356\277O\371\256R\227y\372?\3410\033\323\253\220\342\277l\214\310\230\372\221\362\277\301\006\211\335\341?\306\277C9\3739\034\002\365\277\003_\331\3455\020\366?\221\354\032\242v\305\334\277.\016\"\024\244\247\344\277\220\256\301Z)[\357?\020\223\013\231\213\337\353?@\255y\324\366Y\345\277\014\220\004\025\351\250\277?\264\272\334\344\334\013\312?N\270\033;d\347\313?\363\214A\277g\225\345\277\270\376B\306\301\322\001@\206\240\235:\330_\216?\020\270\032\345\337\357\365\277L \261>#\250\341?\037P\035m?+\252?Z\004\3103i\033\310\277y\375\014c\357\301\361\277B\243\014c\256\314\260?\366\222`|_\342\371\277^|\327*\337\254\344?\302\035Ex~\206\361\277\363O/\250\3104\374\277w\330\375\026\233\261\347?\003\r\227\315\375\223\006\300\034\243\374\006\247\304\371\277\230\205\2606\251\261\002@\r\336\270\325Z\3544?^k:M:\263\335\277&\023\372\240\355\352\324?\014c\005\003\366>\355\277\342sL\247B>\340\277&V+u\204\230\322?\342sL\247B>\340\277re\306\254nc\353\277^\256k!\321`\333\277\317\305\365\305\256\255\367\277,\335\324M`\375\361\277\271Y!\024\"\275\242?\371\267o\310\263\362\323\277\203\000\362O\001\347\364?+>(\2529H\343?\202\251\351\315\337\027\337\277\245\366\364\000\236\341\001@\365\r\314\332K\255\300\277\216S\024\222\263y\340\277Y\203=\030\205\003\355\277\256\226\360\202v$\360?\373\022\244g\225\360\340\277\217\"@\365\003\263\377?\005<\2759\031\036\311?\'\203\347\336,\t\311\277\214\301\354\230*h\356\277Q\005t\243\362/\361?\037/\240\003]~\262\277\177\245\275\260\037\351\367\277]\366t\202\261Q\351?^9\246VH\377\346?\353\']\006\363\020\270\2776\235\210f\333t\367?^9\246VH\377\346?\362\200|n\014\337\356\277v\tK\335\336[\372?@\360\252\250\215\007\343\277\\\'\302H\365\373\373?&\014\214\005D\020\001\300\354T\237\3000t\246?\235\263\231\347r\236\317?\034\243\374\006\247\304\371\277\256l\t\252\330\320\345\277]p\022\332\203\366\355?\214\250\242\2351\016\373?\r\336\270\325Z\3544?\022>}\215\rK\361\277&\210\277kvL\351\2779C\0007\203\213\303?\222\370\337\362\321{\323\277f=\322s\010.\376\277\370t>\364\034E\326\277&\375\2046\377\255\315\277wR\233nmV\354?\362\221\031L\261\330\325?\021\031nA\271:\347?\014\351g\253#\232\350\277\367hy\243\301\216\337\277\372\360g\345\362\024\000@?\344\345W2Q\354\277%\002]\303H\361\355\277N\270\033;d\347\313?r\"\225\330\327\265\355\277&E\216\227\337\236\353\277\351\247~Z\230\r\366\277\315G\245z\260\275\335??\'\027,\311\376\351\277\2369\374\217\240\371\312?\302\021\200\'#\320\372\277X\210\025\245\316F\335?P<\340&.\'\370?\001\325J H\206\323?8\013\350C\276\177\363\277\313\3705,*v\347?\240E\301\340\373\257\301?\356\002\263\371y\013\363?^k:M:\263\335\277\034p\274\240+\374\331\277\331$V\202P\332\353\277\252{\032\356y\237\007\300\r\275F\317&\014\236?v\tK\335\336[\372?\366g2s\023\205\373?\246\346\246\001\253u\352\277\303)\203\362m \372?\303r\323\203\374\032\354?\240\\\030<\275\353\367?\354-\341\002\306h\361\277]\366t\202\261Q\351?\365\r\314\332K\255\300\277\037l\220\203k\315\362\277\334\205\251\336)%\375?\367y\026\201f\210\346?.\016\"\024\244\247\344\277\317\305\365\305\256\255\367\277\002\030|\364\3363\321?\362\200|n\014\337\356\277\363\001\007\212\360\366\311\277\363I\020\353\320\347\347\2777\340\271:r\"\365?O\304\340\213\277\235\302?\214\301\354\230*h\356\277\220\361\362.\300\010\355?\340\013\014\207W\200\370?\366\233R\003\td\007\300B\263\230\221\356\246\371\277\336\332\276\300\023\326\345?\370\377x)\224\343\341?\022\342\001\276}C\340?\254;\274\343\224&\363\277\202\251\351\315\337\027\337\277\277T\261\373\271}\370\277l\214\310\230\372\221\362\277\222\337\225\367\330!\360\277\241%\254\270\201\364\360?\362\221\031L\261\330\325?\237\277^8\316T\306?v\017j\232\326\250\356?\363{\244\341\302\233\316\277Y\224\332\365)\375\323?\036#\333\262\001\310\273\277\014\351g\253#\232\350\277\264\272\334\344\334\013\312?\366\325\221P\366\217\367\277\305\260,\313I\205\331\277,|\201\361\206\262\320\277O\304\340\213\277\235\302?\331$V\202P\332\353\277\340\310\332\262\300\322\372?,9P\035\360\004\323\277\346\\\230\272\251{\000\300X\210\025\245\316F\335?_\2720r,\027\322\277\3410\033\323\253\220\342\277\330\341$\256\271,\356\277\021\\\237\025P\350\344?\335\316\371o\270\037\357?\253\215\376\373\314\242\002@_\033\204\316\005b\363\277P\302B\317[\202\363?&E\216\227\337\236\353\277\305\260,\313I\205\331\277u\236\212\017\275\203\264?u\236\212\017\275\203\264?\362N\350w\032+\330?x\033/\3531_\345?\004\266Z\221\353\302\315?\241\237I\020T\231\365?v\017j\232\326\250\356?P\036Y_\020\177\277\277\034p\274\240+\374\331\277\271\254\000\256\211V\362\277s\256\026>\375]\375\277\333\240K\2715\250\262?\220q6\032\366\026\364?l\317\371l\221?\360\277Y\224\332\365)\375\323?\314~\230\324W\321\342?\222\375\267\177\033\277\343?\035\366\230\370\303d\235\277.QS\350:U\342\277tqHU\177 \246\277&\313\360?\r\372\346\277\204%\234\\z\354\271\277R\252?\004\0212\364\277&V+u\204\230\322?\3701\r \206\227\330\277tqHU\177 \246\277\320\335\370\220\371\375\366?_w\377\235\225i\324\277\ro\312SQ\365\343\277\021\023O\204\301\355\362?_4\316\311\376\273\326\277\346\\\230\272\251{\000\300\273\304\003y\324\246\361?\271\254\000\256\211V\362\277\r\336\270\325Z\3544?\362\303\255B\243\214\354\277Av\312\250pi\242\277\222\375\267\177\033\277\343?\335\316\371o\270\037\357?\255\020\216\332H\311\364?O\371\256R\227y\372?\2369\374\217\240\371\312?tqHU\177 \246\277\340g\207V\347\207\351\277.\016\"\024\244\247\344\277\020\223\013\231\213\337\353?i\3337\347\200\331\370?\220\361\362.\300\010\355?\335J\233\031N\342\255?\322KXn\334\010\363\277\255\020\216\332H\311\364?\341\355\351\376\024\343\344\277^\256k!\321`\333\277&E\216\227\337\236\353\277\021\031nA\271:\347?_\277\010\377uZ\342?\363{\244\341\302\233\316\277u\236\212\017\275\203\264?\304m\373\366\262\327\333\277\353\']\006\363\020\270\277/\224\204\274\321\002\340\277re\306\254nc\353\277\346`!iA1\341?x\033/\3531_\345?\377\003\245FT\022\371\277_w\377\235\225i\324\277\037l\220\203k\315\362\277\266\306\24158\302\300?\321\246\214\r\276\006\360?\214GOAX\303\351\277a3\207\231P\262\362?\363{\244\341\302\233\316\277\214GOAX\303\351\277Y\314\215\251\023\376\376\277\315?\223\035\201R\374\277A3\334|$\265\340\277_\033\204\316\005b\363\277R\252?\004\0212\364\277L\232N\226\365L\346?\331gD\256\234\216\255\277w\225\314B\004\004\352?\363\014\376\3231\207\376\277\335ykd:\213\364\277\346`!iA1\341?\304m\373\366\262\327\333\277\302\346Q\036\327r\374?\014c\005\003\366>\355\277\2369\374\217\240\371\312?8\013\350C\276\177\363\277\300\310/\226\224\325\350\277\221\354\032\242v\305\334\277a\t\240\300\262^\350\277\335\316\371o\270\037\357?\277\372\303\214\206\211\317\277\301\006\211\335\341?\306\277\316\0209\367t\306\326?\2061a\255\325\242\260\277\003_\331\3455\020\366?\305\260,\313I\205\331\2779C\0007\203\213\303?\202\251\351\315\337\027\337\277\216\013\0131\323\210\302\277f\002:\323\014\010\340?\006\302\037\342Fy\304?\355\277\201%\343]\365?\370\377x)\224\343\341?\213eq\311\232`\375?\r\336\270\325Z\3544?\021\\\237\025P\350\344?YQ\251!\223O\326?\314\301\311\250\356~\340?\322KXn\334\010\363\277i\006f\360\3146\367\277\340\310\332\262\300\322\372?\222\265\256\036;\316\325\277\253\234\017@nq\344?\014\351g\253#\232\350\277\354T\237\3000t\246?Av\312\250pi\242\277X@\014D\356U\357\277\237\277^8\316T\306?\202\251\351\315\337\027\337\277x^`\277\310\014\343?^|\327*\337\254\344?\315\315\007#\336\030\331?R\252?\004\0212\364\277\351\247~Z\230\r\366\277C\313\233\\9\367\370?B\210j\210\242I\373?\235\263\231\347r\236\317?\004\266Z\221\353\302\315?L \261>#\250\341?L\232N\226\365L\346?/\224\204\274\321\002\340\277\346`!iA1\341?Av\312\250pi\242\277,|\201\361\206\262\320\277\314W\226\350\313\242\373?A\227G\022S\026\272?)\024A\321\233\364\370\277\'\203\347\336,\t\311\277\367\253\252wX<\335\277\303/\242\257em\356?\234\326\265\223\217\220\374?&\375\2046\377\255\315\277P<\340&.\'\370?,|\201\361\206\262\320\277\021\031nA\271:\347?Y~e\213;\300\314\277\221\264g\356\214\304\361?3}\320\3178@\000\300eG\001\266\003M\001@\006\302\037\342Fy\304?\034\243\374\006\247\304\371\277\002\030|\364\3363\321?\363O/\250\3104\374\277i\230\006\023\352+\373?\234\223\204\277\370\342\376?\034p\274\240+\374\331\277)\351\022\310O\227\372?\3410\033\323\253\220\342\277\265@?\215\ng\305?\235\263\231\347r\236\317?\305\363]\237\3402\327\277YQ\251!\223O\326?\222\265\256\036;\316\325\277\303\257\345\232\233{\365?\215\377E\340w\322\313\2775BT\307\371v\372\277a3\207\231P\262\362?5\324\364\351\026l\376?\363\006\337\026::\352\277,9P\035\360\004\323\277&V+u\204\230\322?\021\\\237\025P\350\344?\221\264g\356\214\304\361?\246l\306\001\216\327\251\277Av\312\250pi\242\277y\375\014c\357\301\361\277\341\355\351\376\024\343\344\277\340N=[\356-\366?a\217\002i\340\271\343\277\331gD\256\234\216\255\277WE\344\3207\231\337?\r\336\270\325Z\3544?\364\317r\223\376B\343\277%\215\227\370\277\217\331?x\033/\3531_\345?\366mQ0\013\322\357?l\317\371l\221?\360\277\204%\234\\z\354\271\277\253Y\336k\327\303\346?\034p\274\240+\374\331\277\330\341$\256\271,\356\277\246\346\246\001\253u\352\277\300N\222>\3020\344\277\014\220\004\025\351\250\277?P<\340&.\'\370?\300N\222>\3020\344\277u\361G\022\224\013\373\277\300\310/\226\224\325\350\277v\017j\232\326\250\356?y\375\014c\357\301\361\277]p\022\332\203\366\355?F\277]\342I]\360\277\315G\245z\260\275\335?\014\2466\327\214\354\352\277\315G\245z\260\275\335?\014c\005\003\366>\355\277]\366t\202\261Q\351?x^`\277\310\014\343?\2369\374\217\240\371\312?\203\350\356\204\266\226\365\277\"\3571\205G\344\356?\021\031nA\271:\347?^\361\234\365g\016\331\277\233\025\273Jf\017\323?\302\035Ex~\206\361\277\241\237I\020T\231\365?\267 \032\t\211\243\275\277\340\310\332\262\300\322\372?\302\021\200\'#\320\372\277\367hy\243\301\216\337\277\346\\\230\272\251{\000\300\003G\326\032\353\277\366\2776\027&\276\255\031\374?\300\310/\226\224\325\350\277\037/\240\003]~\262\277\341\324\237\003\034\211\361?\221wU\327\355c\350?u\306\031\tH\256\374?\364\317r\223\376B\343\277%Jf$)\342\333?\022\237\320\351\346\225\342?P\036Y_\020\177\277\277\335\316\371o\270\037\357?\021\\\237\025P\350\344?\336\227\215\354|(\350?\2204$\003W\266\352?\221/Lv\rs\332\277\036#\333\262\001\310\273\277\001\325J H\206\323?\233X\354\036\375\274\320?l\317\371l\221?\360\277\3127\336Q)n\004\300\206\240\235:\330_\216?\036#\333\262\001\310\273\277\354-\341\002\306h\361\277C\313\233\\9\367\370?\215\377E\340w\322\313\277\336\227\215\354|(\350?\266\306\24158\302\300?\035\263\355t\302\251\327\2776ZW\222D\307\371?\222\337\225\367\330!\360\277\336\332\276\300\023\326\345?"
      }
    }
  }
}
node {
  name: "tensors/component_2"
  op: "Const"
  device: "/device:CPU:0"
  attr {
    key: "_output_shapes"
    value {
      list {
        shape {
          dim {
            size: 750
          }
        }
      }
    }
  }
  attr {
    key: "dtype"
    value {
      type: DT_DOUBLE
    }
  }
  attr {
    key: "value"
    value {
      tensor {
        dtype: DT_DOUBLE
        tensor_shape {
          dim {
            size: 750
          }
        }
        tensor_content: "\020*|\351Z\010\347\277\027\316W\211\'\341\220\277?\252\220\002\331\271\251?\260\202\306\253\234\206\313\277\241,]D\'\353\330\277\236\307nm\262\036\257?t3fP\202\031\327\277\361\277Mk\322A\366?$\263\316D\010\203\360\277\373|6yw\004\245\277l4?rnt\341\277[\215\206\004\263\221\304?G\202\367\321/R\353?\2613?\321H\253\351\277Fv\2164\245\022\321\277F\324\275\032\252\364\361\277S\242\333T\353)\331\277\013\222\322\371N4\347?\225e\027c\346\004\311?\023y\357;y*\360\277\247\010hw\311\013\352\277\013\rZ^\205x\271\277\013&\276\356%\333\272\277WO\337\360XJ\335\277\026\325E\\\007>\373?\372\300\201J\2211\337\277\022\257x\212Q(\324\277\256O\210\304\224I\300\277\223\023\347\360\331W\331?Le`\026)8\301?\257\362\202\000\376\252\340\277\032\323`\\\315\231\200?\361:z\210\323\207\306?w\325\305\2514<p?\322C\330F\344\277\301?\220I/\324\027\261\361\277\365zH\275\361\371\313\277>\223\331KS\370\363\277n-s\315fj\304\277E\2131\227\256<\361\277\274\303]Z-k\356\277\346|\241p\211\331\377?\216\274\320\317\242\227\360?\003\375\322\342\263\350\237\277Ns\200\212\3225\320?\266\244\265\001>\274\331\277\312\332@\260\372\266\330\277+\263\356\367\006F\345?\260\351\377\204\327\342\356?=\362\206\306\221qt\277\200 \324\212a\204\361?\264\n\033\237\030\333\345?\353\2230\034\242l\354?:]\312\211\3258\354\277Y\266<\2432\035\340?\006\204\334\003\211\006\276?5\215\001%\013\234\236\277|G&\315\004\214\010@\214\rb\001o\355\356?\302\222\336\223\036\367\322\277\327\213\217\022\022W\367?\320\331l/\351\304\367?I\271\253\267\231\306\007@\364\"{i&\357\351\277)\032\206F\333g\267?&ix\004\2265\003@\307\016\2525\336\032\311?i\003\023qjq\327?\323T\217\306\266\262\300\277\020n;\242\212\032\307?\234\215E%\255\322\352\277\277TMvr\306\370?a\377\010\322\334\017\364\277\353\207\307~\027-\322\277\013\231PG\324\367\356?\204\207<\272wm\344\277\226\203\211\345n+\342\277\361\211p-\224\326\272?\231\300\036\204\375m\346\277\247$dJO\222\345\277+\204+v\237\272\312\277r\274\216\304\017`\362?\336\3735,\024\260\365\277\310\320j\020\360\276\263\277cJ\313\024{x\365?,\000\260RH\027\000@\272\251\324H\371-\325\277l4?rnt\341\277}\014\036\215\310\271\352?\326Z>4\005\355\320?v\362\376\351\327;\344\277\215h\324\307\205D\351?\240rQ\205=\177\337\277\304 >\374\t\356\347\277\340\3559\325\207\257\372?\323\\/\247\036\372\344?\317\266\251X6\235\350?A\372\350\246\252\204\361\277V\364\\\014+t\351\277:\036T\226Dh\355\277\354\340\370\014\032\323\256\277\366+R\0301\253\267\277\233\267\035W\017\342\342?\354\204\251?]\014\366\277\204#\270q\237\334\302\277O\235\ne\262\376\342?]\327\036%\343\266\364?\366\272\340CeN\347?/!\026\234\276\020\367\277\t\240\034\354\333\001\314?\365\326\351FQ\375\300?V\364\\\014+t\351\277\271C#\007\306\332\361\277\024\237\t.\365W\342\277\234\375DX\037=\270\277\366+R\0301\253\267\277\n\313\361\230b\001\233\277\215\276\332&\033\022\315?\320\322\024\366(\227\266?\220d\240ec^\326\277hVS\352\311\305\325\2773\2538\334?3\272\277ni\222\245.5\300\277\242\205\003u-\234\373?\363\274\301\230g\334\341?q\027&h/\036\331?g1\022\325\210>\304?\013\222\322\371N4\347?\210\021\3065\332C\345\277U\0365>\215\203\341?8\333\333\t\202\272\361\277\035\023z;\326\327\320?\026n\303\314$\004\314\277\364\240gPH\220\347\277\002\351Ay\247\272\270\277a\342\252{\024\026\377?\352\252\350\312c\032\360\277N\321 \256\272,\360\277\223\343\234\222X\351\256?\032\321\253\365\277\322\304\277M\212\241+j\277\322\277\327\312\005\006\243\'\366?~\"\016\264\"o\341\277\007\245\016P2\210\364\277\326(\374\017\231$\360?\246\000\376\204\277R\361\277R\251\360\257\232\021\362?\313\030\346U\334\240\273\277 &\225\035\234\320\333?\362\035\356\216\2728\326\277x:\246\033 K\246?\026H\312\t\025}\362\277\rl\334$\360\003\371?u\211\006\253\362a\367\277\257\326\226K\217\243\336\277mj2\352\330|\356?\250\307^\206\270\363\325?\330:\303V\013N\234\277H\227}\346\273\324\363?\271\274\253\025\362\261\335?\tU\337\345&,\344\277\313\236\021\272\033m\343\277\222G\025\243\006>\320\277\340\212\221\023\035\225\320\277i\267\341z#m\356\277\207`\254\274\203\023\300?Y\301\203\255\332\330\355\277\335}Q\324}\316\354\277\013\266\354\271\271\301\022@l\"\352d\346a\265\277\3610\305[\263\274\336?\245\230W\357\203\363\350?\307w\201EWN\375?\2725?\031^\222\320\277?\356c\277\014\216\334\277\334\217\004W\237\246\267?\354\322\226\361\033\276\321?+d\010q]v\312\277\230\210\0161O\"\361?\207\354\224>\260;\315?D>\225W\335\326\277\277\371\374\240\"Y\374\332\277\367\317~\005\224\017\356\277\316\246\327*\027S\270\2772\325\177\330\016\266\344?\020\335\207\014\207t\352\277\223\033\2258d\366\245?V\373\023\362@\226\363\277\3413\001\252\t\035\360\277\300Fi\210\n~\347\277W\247\372\233\246\233\324\277\253)\203\221\n\004\341\277k\356\310\342\037\244\354\277\031\333_\353#o\262\277:\234@}f\t\353\277#\311\303P\273\'\325?\325\215\311;\323A\347\277A\236\014\316\305\372\350?=w\345\007Y1\355\277d\317B\365V\016\243\277%x\003\010\224\207\223?\035\007\202\037\2553\312\277\317\232\255\205\260\026\355?\343\221\302@\334@\355?\370\335\374\356\326\322\353\277\353\\WY/\221\003@\377\343E\324\316\220\242\277\260\255\320\216\370\230\331?\242\010\302\307\365K\343\277\266\344$\312\271\252\367?\333 \247\227\317\236\260?\216\314\022\004\351\307\365\277\"Lg\220,O\274?\277TMvr\306\370?\r\002\333\362\010\215\363\277\220-3\001\222*\366\277b\227\344\316Ws\336?\022\316z3m\027\342\2771W\001\205\235Y\337?\24218v\025\350\321?\265\262\003\330\0363\203?\236\313\343r\277+\363\277\330^\251{\216\037\330\277\r\036p\212\255_\261\277\376\246;P\327\372\002@\357s\255l\267\305\r@\217\377\027\017\342\037\332\277H\002\341\233\345\276\362?b\323\003\247\037>\332?3@\260\013\246\335\001@\247\302s6\263w\343\277\361<\201mi\264\261\277\377\375:\302\276\352\302\277\255u^\241C\002\360\277\205\234\312]\217\257\321\277\340R\231m\021\210\331\277\2403\313s\225/\347\277\3705(\270;\243\334\277F\302\026\r\001\037\225\277\342\r\353\337_\037\207?9>w\233\206\254\355\277\260\351H;\177\300\372?\266\300\261\324\303B\325\277\343\240\252<\3556\371\277]^\367y\001\374\302\277(\275\000c\004\250\341\277j`)\212\324\275\312?\301\211:\245\r\002\304\277\277\007\363\224y\255\350\277~\350\222.\256\231\356?)\032\206F\333g\267?AY\232L \330\336\277\332\025\320\327\314O\354?\337\230$\274Q@\361?pd\361\206\013L\370\277\235l\242\027\357D\277\277\355\"a\322<J\275?|\241\265vw\327\243?>\223\331KS\370\363\277H\n\206}\316\266\007\300\347f\234F\277\265\341\277TR\271\032F\366\366?\231$\343\2745\356\304\277\236\032\322\210\364\272\302?\177\372\347;6\254\272?\241\346h\003\021W\322\277\251\3037T\3745\321?\274\020J\250u?\366\277\005W&?N?\362?\241\277\206\211-1\323\277\027\316 \343@\327\350\277m\t\206\324E\377\263\277\271\341:\202\265\177\344\277\"\322\r4Q\221\364\277\t\345\200\006_\315\335\277 \026\246\2336\002S\277\222\310\007`\276G\340\277\226L\263\322E\242\307?\254\303{i\311\252\323\277Q\020r\010\301\034\347\277\243w-\356\347\252\262?\351r\227P\231\260\343?2\200\353\032\323\332\303\277\303n\022\016\350\270\337\277\354\2664\032q\262\362?\022\247\313;\034\264\004\300\023\230};\3468\005\300\306\3702\227t\263\361?\025Hy\304\341\337\361?&f\207+Y\271\260\277)\037*S\257\247\372?\204\200u\266J\314\360\277\003^\n\221\370\207\335?\260\312\2734g\334\242?\351H\277\0367\241\353\277\227\255\023\300N\364\324\277\233\225\025\330]\212\342\277]K\r)=\257\356\277\237:1\024x\264\360?\372=\364\000\316 \365?\344fhO\t\300\330?0\252A\376\374\255\335\277\265\250\3343\372y\336\277\341~\325\001g\235\275?Y1\352\033.\367\370\277\010p\027\233c\364\301\277\230\032\353\261\004\335\304?\343#i\217\265\346\320\277\242\306E\376\316\022\322\277\027\024\276ABc\224?\304`\026s\3351\320\2779o\327\233\243\223\234?\331e\221\256\'g\364?\3067`\324]\246\344?m1\232\377\"(\311\277\017\016\336\213nG\352?1\215\330\246\306\246\242\277^\273\264\276\254\353\360\277\244\377\356=X\025\273?\333\3262\025\211\303\226\277N\312a9\031K\361\277\321\n\276\r\366.\356\277Dh%\nT7\366?\304\337\222\200\222\233\302?\3204\226?X>\346?\311X,``)\274\277;%dP\031\347\334\277D)?\221h\315\224\2778A\034\016\322\370\325?\003^\n\221\370\207\335?=C\226\342A\036\351\277\027\334E\370\304=\361?\264\n\212i\205N\270?\020\0009\323x\310\225\277\03350>\230c\346\277?\254\227\347n\346\304?\205\213V\274\315\002\313\277?\252\220\002\331\271\251?\215.\312;v\375\320\277\213\236s\014\014Y\272?\270\215\177\241\264J\364\277\321\203\036QhH\302?x\323vD\347O\364\2770`\224\036\333\240\352\277\210\003HL\227\200\347\277\t\177\327S\2679\357\277p\350R\310\260\023\325\277\37265\214,?\366?\204\201^\261\234\361\312?\345\233\031\370bF\346?\024\032\257\027er\326\2779\036\262\013\336-\354?\271\357\310\211\017\302\333\277\277\007\363\224y\255\350\277\233e\237\215\200\356\315\277\221\335a\014 \224\344?\214Q\033\033%sf\277\035\243d\022\266V\366?\r\002\343\201\224L\350\277\274\274\337\014\250\247\346\2775\217\337\312\334\025\312\277]K\r)=\257\356\277~\316\253\247\340\226\326\277\034\030dT\037%\351\277\222\371\266\263dw\365\277k\275\320\330\321\226\353\277#\3142\325\250\345\361\277\213@\325[\232\003\367\277*\244N{\341\376\312\277\037\277\271\271\3729\347\277\316\244\320E\201&\315?\273\267\364\274\242+\304\277\312\211{\207xk\361?\005\037\363\207$\260\004@\244s\267-\355w\356\277\320\272&\355\316i\241\277\021w\200\344E\033\335\277\002\341\003\323\237v\001@90\371\261C\351\357\277~\223\306\313\037\010\361?\235\031\250f\206w\361\2779e\232<\206\360\343\277\317=)\331\225\205\321\277\010/\315\2026\276\346\277\245\230W\357\203\363\350?\252\"\203\365L\004\353\277\314\277\370\334\246o\321?R\315\344\000\213\r\335\277\252S{\377\232\021\354\277\243\313c\016\316U\263\277\357\372?w\371\370\351?\327\031Ea\013T\306?\003\014d\374\257\326\360\277\244.\r\007\365\236\367?\372\026\271\262+\236\320?\244\377\356=X\025\273?\221Z\004\331#z\362\277\267\003\311\375;\324\366\277\235Y/\334\244\244\375?\274\355\327\026\366\264\347\277\372\342y\253+\n\346?\"b\370\n1\020\332\277\240~\352\364\020/\315\277o\242]P\336P\264\277\224\233\001\321\212\230\362\277i\021\221Z\2554\325?\300@\213\177/\002\316?F\035\204\266n\004\254\277\217X}\324M,\361\277\370\326~\241Q\017\344\277Jr\341I\222\336\376?\030\376s\311\242/\005@\217w>VM\375\367?\204\371\234a,\207\302?d{\024d\374\"\367\277\035\225\235r\313\265\354?&\r\030d\353K\330?HJ\342\335\246\235\354\277ie\003\205\006\214\331?\263\240\320\266\211\206\364?n\026bJ\346_\353\277=\362\206\306\221qt\277\222,\337\"\331\022\002\300\360\300\327uP\354\302\277\337`}[y\320\372\277\315\277;\273\267\265\271\277\030s\004st\325@\277\004\225\310:\375X\376\277\241,]D\'\353\330\277\270\276&f\317\272\364?\307s1U\243*\333\277\373\250\250\373*\250\364\277\257U\275.\270\200\362?R\315\344\000\213\r\335\277t\201\244Gth\363\277\226\203\211\345n+\342\277SD\277\370\310\222\013@\324\\x]\306\327\360?\372>^\023\234S\343\277|X>.<\020\340\277\206I\212\344/[\323?\361\001\342\235\0353\341\277Yz`I\325P\005@;%T2\002h\343\277n\3078\345+J\310?\237\312\332\303;\025\357\277\271{\332\205\265\311\361\277\030<ZX93\302?\372\235\367\013oh\342\277\354\250\256\241\242/\340?\353\374\216_\254\313\334?\242\241\374\032u\221\024@{\253\375\217\037W\352?\256\202\024\003\037\315\340\277!W\'#\305X\371?\022\257x\212Q(\324\277\372\342\322\177\352f\373\277\030\241\n6\366\250\361?\255\027\220\036\211<\311\277W:\212\345\321f\362\277t\034U\315\001\017\356?\\\374\343\303\202\231\313?\260\204Z\340\330\374\352\2773\307\243y2-\350\277\002\351Ay\247\272\270\277{\261\333\230\372\322\303\277!\347\260\226Z\273\344?S~M\010 \263\321?\364\231O\007\350Q\363?\3546\030\316(\203\t@\356\374\302Vb\301\345\277\222!\303O\266\340\305?\001a\200)7P\260\277v\000}\323\032\377\341\277\273\364=\267\3309\361?\346\343\030\343\325D\006@(\312\313\203\321Z\345?6\357\343\014:\214\361?~0\234\273|\261\330\277\345\253\314i\214\213\312\277+^2\263\2173\361\277\004z\006d~\016\331?&\233VY\354\025\340\277\t\267`/V\323\263\277>\340\315(\'\214\360\277\265I\362\365\363\307\356\277\243\313c\016\316U\263\277T\355\252\307\357\272\330?\247\336<I?7\260?\353\317A\215G\340\277\277\363\006\253\202\374\225\250?\346f[\037\243\227\352\277r\027\270\324~\331\340?\274\267H\220\340\327\010@\031\377\252Y\336\237\321\277\360\005\001AN1\361\277\345\343\304\017\230\230\301\277\251\006\345\227`C\356?\326\2402u\033\201\327?d{\034\363\207\342\353\277\330^\251{\216\037\330\277\343\343\220\030\342\242\350\277\322\224\325\320:;\301\277\023Y\223\236\246\207\355\277;T\220\200\330\307\361\277q=P4DD\360\277\274\026\237\nI\356\346?G\301]\247\251\243\320?r\264\371\000>\347\006@\201\0131(XZ\341\277\334K\256L\307\351\361\277\260uZ7%\310\320?\330\027\220\372\375\214\212\277\231\217\036\353#\241\360\277\270q\231\304\334\332\265?\301\320\276\014\267^\337?\\\264[N0\217\345?0\017y\017KO\351\277=\304\271\357\341\367\216?\346}\212\']x\305?\"\212\0146\0169\337?\233\351\263\356\022\017\241?I\007\206\337u-\340\277\260\325\266\026\205l\343\277\334\353\211\022\272\373\333\277\235>\276JY\367\330?3\253\247\246\254\246\354\277D%1\307<t\276\277\274C\366\336\257:\365\277\376iF\007\240U\360\277\326>R\177\226\345\356?\006\327?\037\313\242\301\277\250\230\213\3469\351\321\277\310\265\356E\346\201\343\277U\355D\303\3125\365?\263\240\320\266\211\206\364?\002\261\3615\231\177\366\2775O\264W\341\014\260?:\310M7\257\232\311\277\241I\351=@:\311?\346f\372\273X{\340?\253\340/\352\0351\367?\000\234\032\334\331_\355?9\004m\017we\305\277\347f\234F\277\265\341\277\301\320\276\014\267^\337?\2502\3423\222U\343\277\336\212]\034g\237\347?\311 \203H\223\221\344?=\257\010\241kA\001@\036\200C\306ii\350\277V\321\362\t7\251\337\277\237\0365A\362-\365?\024\021j\325\251q\300? \263\257\253w\367\030@\340\3559\325\207\257\372?b\004=\330\211i\322?\003\204\343\027\332\020\364?\017\016\336\213nG\352?\343\271\250\310h\024\327\277`c\363\036\332%\311?\271\276\300a\2525\341\277\211\320\274D\311+\321?\272\273\033\357^\351\310\277&\024\327\330\214-\327?\037\303rX\006\263\323\277\250p\022\265\327\326~\277\331\274r]n|\325\277\336\025\246Y\351\177\306\277\231\300.\242\024\355\337\277\314\206p\020\010\232\305\277}\262\237\266C\221\341\2772\235\2072\003\251\355?\271\224F\245\341\353\347\277\2550S[\177\223\303?\307*G\\\016\255\313\277V3\005\211\371\334\254\277\231\300.\242\024\355\337\277ZT\245cU_\363\277\252.\004\374\373\373\376\277\037\362E\370\204\275\327?II .\326<\263?l\037SY\275l\325\277\256\366\271P\321\347\336\277\346\350\277}\264\223\335\277n9\334j\361\251\356\277\250\230\213\3469\351\321\277\2142\361m2\273\325\277\177\004\217\0014 \352?5\276\242LD\241\344?9o\327\233\243\223\234??\221N\335^p\323?\376;\331\223\002;\241?\307\006\nUv\323\344\277\003\023+\000\335w\344\277\202\227\253\026\324=\326\277\203x;\332\007\n\300\277\211e\312\314\202V\321\277\r\036p\212\255_\261\277x\262\310\375j2\335\277\001\221<\304\007\200\376?\351\355\215\177<h\350\277\373\351\231\203\027\010\357\277\271\274\253\025\362\261\335?\373:G\377\366\024\330\277\025{\346\305\251\021\224? L\277\351\260\366\362\277\215Yur|\033\306\277\257]\205\226[\377\331?\247`\223@.\334\332\277\035\261\231EQ<\350?\327\031Ea\013T\306?\205\342\276\236\245C\330\277\227_q7\256\301\241\277\214x\325\2201\320\342\277I\275\364\020KDs\277\264W\017|\354n\342?\t\177\327S\2679\357\277o\206\320G\305=\353\277Q\234\017}\367\206\016@2\201\r\256\265^\340?*\027\2630?\306\323\277\301\177\273fK\305\367\277\303\237\362j\223\207\362\277M)A>am\305?\365Q\340u\364\264\325?\342h\242x\312\252\370?mn\232C\261X\352?\374\376\'\'/J\334\277\364v\355\223\177F\356\277\213jO\030cM\360\277\251\3037T\3745\321?3\030\277\210\302~\351\277\251M\315\310\010\006\346\277\217\005\203gc\345\267?\361U\345\375\t\027\263\277\345 \267\354\003r\272\277^\207\276mT5\322\277.`\362\223tf\351?\340,\361\3574\236\360?6\357\343\014:\214\361?\270+V\365\207\321\357\277I\227\027\342\226O\340\277)\303\246\n\013\364\362\277>\223\331KS\370\363\277S\242\333T\353)\331\277y\003\033p|E\001\300\340R\211O\372\010\340\277V,\014\374\216\243\364\277\367\310+\253\025O\003@e\345\025\226\343\231\374?y`3\276\365.\364?\\6og\016\356\347?O\010;\230I&\000@\250\0049\266\201\216\360\277\246\000\376\204\277R\361\277\177{k.\201B\330?!\030\362VP\246\361?\233\261\320\203\307\362\346\277\255\217\316\316\030\322\300\277\322PD\273[~\334\277\221b\274\"\260y\320?L\272\330\245y\035\n@\237\333Ne\375\301\345?\300\371\006\030\206\245\322\277\3523\303\347n\032\346\277\300\241\333N!\325\341\277\317\214\037~V\324\325?\262aj\341\0175\377\277\341\244x\232\352\227\350?\"\250\334-0%\347\277\204\207\363\003\320\217\370\277.w\003\027\365p\322\277\344\345\344\\\276)\273?P\331\333\345\367\202\331\2776\276\021\027\261\024\267?\275~m\'\300\204\302\277\246w+\367?\022\360\277\000\000 <.\376\322\277\305\251\242\366\330\351\320\277\354\211\264\207\022\000\367\277\336\233\341\333?\313\327?\0044\022#hz\322?\3746 \315:W\323\277\177_\001\310Jw\344?\021\025\200\262\222\201\341\277\032f\206\275\1776\346?}\307\233\355\013\030\347\277\226\203\211\345n+\342\2777\341\276\367\265%\351\277\022\375\266\201Cw\360\277\222,\337\"\331\022\002\300\261\200T\340\355\217\202?\224\3623\305\004K\304\277\2150%\330!\025\376?\221\272\347\353\024J\341?\213\010g\223R\362\342\277\374\337>\036\364A\362?\234\253\224\005S\261\336?C\266\323\007ml\267\277\027\316 \343@\327\350\277H\227}\346\273\324\363?\304\302\006\207yL\322\277y\210Ox^\027\316?\035\372\354\354=\017\362\277 ~\260\310\351!\323?QWjW\200^\310\277\001_\032\230K/\314\277\034\372\037o\320\321\003@\231n\324Q~(\003@a\334\226@]\205\345\277.\324\310\352+ \345?\024~\267\005\304\037\000@\325t\366\340\305k\263\277\371\032\340\344\347[\325?\\\363\321A\301_\344?P\342 (\263\203\277\277i\0324\022\002\373\331\277 \016\\jW\327\233?\263\242\335\2674\321\347\277T\362\325\007U&\350\277\227K#\254\262\331\322\2779H4W27\372?\035\252\033\370\313x\340?\206\014\270C\362\177\315?,\211\026\306\2446\355\277\377\307\027x\013r\342\277n-s\315fj\304\277\003\345\231/o\357\337\277\265B3\201R\346\357\277\373\351\231\203\027\010\357\277\303\336p\355\257\027\346\277\017\267\266\320\262$\344\277#B\325\005\357\313\331\277\335\276\" <0\364?A\327-_\203\034\367\277uP(\230\237>\n@\372\300\201J\2211\337\277\035<\342\202\323\034\307\277h\2347\r\311\332\342\277\300\223]e\336\021\344\277h\245\036zD\316\002@\201<)2\246g\342\277\275\023{\257y\257\262\277R\224\253\302*\255\340?\353\"5d\373\221\001\300\255\n\373\353\031\030\361\277\377\037CApB\323\277\242\214\272ZC\276\345?\002!\007_\271\000\341?"
      }
    }
  }
}
node {
  name: "tensors/component_3"
  op: "Const"
  device: "/device:CPU:0"
  attr {
    key: "_output_shapes"
    value {
      list {
        shape {
          dim {
            size: 750
          }
        }
      }
    }
  }
  attr {
    key: "dtype"
    value {
      type: DT_DOUBLE
    }
  }
  attr {
    key: "value"
    value {
      tensor {
        dtype: DT_DOUBLE
        tensor_shape {
          dim {
            size: 750
          }
        }
        tensor_content: "\\\002\326\356V\217\342\277\370\371\344\311\333H\361\277:Q\331\210\305\"\221?\\\002\326\356V\217\342\277\207\305\361\211\2417\322\277\\\002\326\356V\217\342\277\237z\246;?\215\257\277\226\300]\374!\310\366\277\323\262(\326D\004\344?\035f\302\016^;\335?Cl\202\002{\027\361\277)\200\266S\206O\354?\337\230\331N\025\025\352\277\341\226M\'\266I\311?\325\204?Q\037\223\352?\231T%\233\233\267\343\277\n\005x\202\211,\345?\261T\312X\224\334\310\277DD\363\304\2078\367?/9`\014\332T\343\277\207=\336y\214l\364?\205\257p\"E\017\327?$\311\264\363\212\025\360?L\356;\361`\r\343?i\375Aa\327\037\367?\301\315|\00224\357?Z\016\212}\273\263\341?\362\304\333i\324\337\347?\3554\275\301S\030V\277\230\353\231].p\340\277\204\213Tv\027\242\311\277\363-g\247A\'\353?\343;\002\240\014\362\345?W\262\267sp\321\356?\254\302\351I\204P\373\277KT\032\013\265\213\366?\260\333\027\373\374\376\351?\324\033\264\023\262K\347?\\I,6\003\212\353?\224/C\201\301\241\371?f\235\275\216\2653\323?\247ts\'\366]\342\277e\"${\2615\341\277\273\026{\2426\372\362?\261\375L\361\275K\344\277\000\251\000\273E%\315?\277\013\215\247\201;\304\277(\220\327\300N*s?My\374$\217\241\340\277\305\252\347\330\245Q\261\277\325\204?Q\037\223\352?\216\026\025\366K\260\316?\2044\327\016A\021\345\277\346w+\'\374\314\266?I\264\236\335\326w\352\277\177\304+\366\361\321\361?9\t\220\035N=\356?\036\2633f+0\361\277>\216\366\tJ?\334\277]ka,\304\326\345\277\256\357\014;\372[\324?\245\262\302\003W\375\373\2770\372\274\003\315O\004\300\007\304TO&a\251\277\035\271\215\255]\302\360?e\"${\2615\341\277%2@1\370\\\363?\003\317M\000\305\010\271\2775$\2458-\222\370?k\000\357\204\360\350\346?\274\345?b\002X\270?t0d1u%\301\277\241R>15\021\350?\234\315\327D9\017\312?i\375Aa\327\037\367? \031\022\200\177\256\344\277\302\204\232\223&n\305?\341`\344\271\346\007\360\277\322\007+u\336N\227?DD\363\304\2078\367?\305\351W\261\300\356\331\277s\267\261\323\335G\342?\270;]\342\023\315\300?\217\336\037;\032\346\360\277\\\316\222\"\377\213\331\277\017\r\003c\r5\243\277S\302l\277\030F\001\300Cl\202\002{\027\361\277DD\363\304\2078\367?\021\231?!\003\034\362?=7y\242s\256\347?\304\027A6\346_\323\277\362\304\333i\324\337\347?HK\023\240i0\347\2778so\207g\352\006\300\366_\303\t3\204\310?\265o\337\231v\356\366?\247J\375\177\234\330\334?Er\334I\255\251\360?\\I,6\003\212\353?\3023\0179Y\355\205?9\3029\326\241B\345\277o\004bb\274\324\312?Zth\227\0172\365?\035T\2648\307\204\356\277\230 \342\316C\264\332\277\334\213\251\221\350\035\r\300\\\002\326\356V\217\342\277\343;\002\240\014\362\345?\000E\256\310Pr\372\277\354[P,g\230\344?Er\334I\255\251\360?C\371h\261\035-\313\277\251<b;\313\223\272\277P\247\212\377\271+\256?9\3029\326\241B\345\277\014\371\303\363$\010\346\277a\033\004\240\317=\361?\264\240uB\265(\340?\210\246i\267\371\263\367?\377%&\366\250\356\337?\343)\364\311u;\327\277\243F\212\242\320\354\350\277\2369\020\200\274b\371\277\344\306\302\323:\206\343\277X\346\372?\310\324\327?1\340\373:\235\035\303?\261T\312X\224\334\310\277\360\212>VJJ\357\277\261D\2438jF\355?\356\273\324\376\210\204\370\277\226\306\267CTZ\366?\004\211\030\333\325\310\362?$\347\265\035\216Q\307\277\204\213Tv\027\242\311\277\343;\002\240\014\362\345?\263A\366\024Q}\375?\312\234\002\261\357\266\263?\203\251\026\333\022}\347?\264\006T\\\t\247\363?\351H|\302 |\365?;\375\333\216\351\030\357\277\327M\020v\243\250\304?\3428U|\363(\366?}\273$\261\2513\306?\356\254b\355\350\021\232\277 \260\206B\022g\341\277\304 H\2411\273\362\277\273\026{\2426\372\362?\337\241\340\271`p\371?\025\344\010 xE\373?\374\201\370\377\363\320\322?l\025\020\235\224\351\244?\017\234\354D\034\345\341?\031\216QLQ\032\347?\361\340\266\030c\232\322\277p5\370\344\367Q\360\277P\247\212\377\271+\256?\302\204\232\223&n\305?\375\004\323\304\220\007\300?\363\204\344\016\030\270\337\277\\\340\240\370\225B\350?\242$U\254\017\240\356?4R\216\275R\003\362?&\233\313ne\244\366?\226\300]\374!\310\366\277\\I,6\003\212\353?Z\244\252\200 (\007\300\226\300]\374!\310\366\277)Kn\342p\013\322?\002\020fW;.\360?\261\375L\361\275K\344\277\2044\327\016A\021\345\277\002\020fW;.\360?go\324\t\220\302\331?\3023\0179Y\355\205?p\007\017`\322\340\366\277\305\373e\207W\245\350?\017\223\345\331\320\211\362\277\245\346\005\320\256\000\365?\000\342|\322\025\275\366?\360X\243\010N\317\364?\265\t\001\200\"p\343?\301\370\270c>\334\370?\375\004\323\304\220\007\300?i\224\266#j\330\363?\362\304\333i\324\337\347?a~5\226\n\363\364\277\207\240\017p\307!\370\277\226\nag\347\213\337?\376S\017{\316_\331?C\371h\261\035-\313\277\242$U\254\017\240\356?.\256\237\330\253\300\345?<.r7(S\370\277\367\377>\021\016\333\360?\013\327\216\375c\273\353?[w\025\273(\373\344?LW\307.\316T\346?\2222\360\244\332j\351?c.\330\t\026Z\340?)\027+\026\031\010\351?2ST\235\010\343\271?\223\275\260\330\010\377\346\277\305\373e\207W\245\350?|}\024\300S\262\351\277\301\370\270c>\334\370?\332\206Y\244\374<\002\300\033\202\235\275\354\365\347\277v\324\221\'*C\316\277KT\032\013\265\213\366?/\005\035@\202Q\332\277\025rv\235\302_\314?t0d1u%\301\277/9`\014\332T\343\277\034B\246b0\316\317\277\362\262\315\223=)\331\277\230 \342\316C\264\332\277%2@1\370\\\363?+\035\205]K\232\330?\017\234\354D\034\345\341?\021\305\200\'\315\004\335\277\227$\266\241x6~\277\207\240\017p\307!\370\277\027\367\020\001\320\345\223\277\3023\0179Y\355\205?\371\321U\214\350i\367?\302X=6`\310\354\2774\360al\325\216\377\277\300d\361\304\304\354\353?\353\362\304\356\371P\341?\317\355\312\216\214\332\355?\211\324R<\037%\361?\360\357\027\313\340\207\361?~.}\023\025\371\274?}\273$\261\2513\306?\036\034\277\243\230w\364\277z\211\310N\270\326\350?\007\304TO&a\251\277\312\234\002\261\357\266\263?8\260+\000\013\214\306\277i\311\376\224\177\034\376\2775$\2458-\222\370?\267\323\326Id\306\336?U\373\265\023u\227\362?\274y\254\230q\257\366\277\036\252,\373\337\324\321\277\273\337\212\330\310\352\315?\273\026{\2426\372\362?\007\354I\321\020~\366\277\356\254b\355\350\021\232\277@\n\027\354\365A\265?\234\315\327D9\017\312?\246\351\262\363\307\311\344?\307\357\261\370\362\200\351\277\245}z\222A\271\361?SdAQ\342\336\365?Z\327\231\215J\347\370\277?+\305\023\017\212\350\277\026\253\277\313\033\364\t\300DD\363\304\2078\367?\004\314a\211\255\025\253?\363\204\344\016\030\270\337\277l\025\020\235\224\351\244?\353\362\304\356\371P\341?%2@1\370\\\363?\025\251fg0o\361?\036\034\277\243\230w\364\277\317W\252\370\245\207\006\300\351\331\226=\201\242\362\2774\273\031\373\277J\365?\350\337\360\204\2634\362?\304)O\014}\026\342?~.}\023\025\371\274?\341\226M\'\266I\311?\274\177\006\340\243A\366?{[\337\311\222e\357?A\206\020O\262g\264\277\300/\251S\257\250\321?\343)\364\311u;\327\277\224&<\026vF\352\277\342\322vb\237\252\342?C\371h\261\035-\313\277\341\317\311>\206\341\362?\361\340\266\030c\232\322\277!C\372\264\337\360\010\300P\362\256\316,\371\306?\325r1{\210\334\333\277\216\026\025\366K\260\316?\301\315|\00224\357?\004B\001\2457\251\352\277\026\243\014 \376\334\361\277+\013w\207\264\343\351\277\246O\221\r\034H\370?a\033\004\240\317=\361?\021\2208\266\267\300\342\277\304)O\014}\026\342?\324\033\264\023\262K\347?\343)\364\311u;\327\277\362\304\333i\324\337\347?\036\"\031\353\312\t\364?\000j\220\342*\210\324\2779\3029\326\241B\345\277\247J\375\177\234\330\334?\260\333\027\373\374\376\351?\250\335\376dc\245\345\277,w\257\350:\364\374\277\332P\275s\271\264\360\2772ST\235\010\343\271?aM\237\023\317u\317?$\311\264\363\212\025\360?A\206\020O\262g\264\277\r\335\350D\226M\333?\246\351\262\363\307\311\344?\350\032\223=\373\n\374?;b\265\003\200V\361?\313\375\177\3324O\000\300\nn\003\300\366s\350?\300d\361\304\304\354\353?\2222\360\244\332j\351?\2672\225b\323\217\336\277\323I\235\230\327\274\340?aM\237\023\317u\317?{[\337\311\222e\357?\356\254b\355\350\021\232\277+}\t0m\206\374?\370\313\373D\266\327\367\277\036\274:\321v\213\340?\377%&\366\250\356\337?+\013w\207\264\343\351\277.\320\324\316l\r\340\277\264\216gl\036r\321\277x\351L!\332\302\374\277\211\227\010\005|\306\330\2774\273\031\373\277J\365?\227`\331)\000\334\342?\274\3427\326\336\366\371\277\351H|\302 |\365?\241\371\331\023\362_\300\277=7y\242s\256\347?\224/C\201\301\241\371?LE\271X7\236\327\277p\244\335i\227+\363?\211\324R<\037%\361?~\377\315\2569\250\373?:\246^\'\023\210\332?2ST\235\010\343\271?%2@1\370\\\363?qp\232\235?(\372\277\211\227\010\005|\306\330\277+\013w\207\264\343\351\277\325r1{\210\334\333\277@\n\027\354\365A\265?\273\026{\2426\372\362?\201:\347&\210\323\241?)\027+\026\031\010\351?\004B\001\2457\251\352\277\033\224\253\223\203\254\326?\200\226Bq\314`\370?K\3454\206\025\262\363\277[w\025\273(\373\344?\324\033\264\023\262K\347?Ks\242\335\\\017\321\277M\027\320\323\021-\336\277\nn\003\300\366s\350?\304\362^\034\014J\371\277\250\251\273\230\013\242\334\277\007P\317\206yw\001\300+t\002\305!+\355\277\261\375L\361\275K\344\277\177\252vv\321\036\274\277\246\327\244\0351\023\326\277C>\231}U\246\367\277\227N\313Si%\324\2779\3029\326\241B\345\2779\t\220\035N=\356?\223\233{\342G\262\354?\370\235\022\300\220f\376\277\247ts\'\366]\342\277\021\2208\266\267\300\342\277{[\337\311\222e\357?i%\321\236\312\376\360\277\363\204\344\016\030\270\337\277\200-\2673_\031\365?\261\375L\361\275K\344\277\037%\306\016\344\322\343?\261T\312X\224\334\310\277\351\331\226=\201\242\362\277\210\246i\267\371\263\367?\203\023\366D,*\000\300\236g\371\004\342\323\362\277\374M\2653\234\315\351?\320\017\000\205M\'\350\277\000E\256\310Pr\372\277\230\301#\266\324\352\332?\000E\256\310Pr\372\277\360\212>VJJ\357\277d\227cG\203\241\343?\307\336\367t\013\355\003\300\374M\2653\234\315\351?\264;\234\315\036\353\375\277\324=\351\ts\230\341\277\270;]\342\023\315\300?\242\273\311n\242X\353?ov\364\344q\272\371?\265\000\372\024\327\024\364\277\343)\364\311u;\327\277\370h\312N{\"\364?\335\212\231\230Q%\332?*\351A\221\363\226\357?[\350+\331\031K\246\277=\274\337\216o\260\325\277[w\025\273(\373\344?\206\201\207\235\037\236\335?\343\244\215\335y9\351?Y\270\021\273\242c\336?\026\243\014 \376\334\361\277\002<\247]\005\027\333\277\301\315|\00224\357?H]!v\000\347\325?Yn\016P\335\237\365\277l\364:\366\213\304\347\277\215a9\305\276}\267\277\332P\275s\271\264\360\277\252Y^\014\027\t\370\277LE\271X7\236\327\277\264\227n\327i\315\360\277i\224\266#j\330\363?\207\305\361\211\2417\322\277y\016/;\264\330\326\277,\357\233\330%)\337?p>$9v\007\020\300\256\357\014;\372[\324?\351\331\226=\201\242\362\277\026u#\233\330k\370\277\317\257{\262+;\364?\267\323\326Id\306\336?\367bp\007I\220\364\277/9`\014\332T\343\277B\255~\002\365\177\372?\377\t\014\020\t\234\360\277\250\335\376dc\245\345\277V\263\013\240\0347\004\300\014bO1\222O\351\277\2248J\354\014\375\330?\002\020fW;.\360?\3412\3734\301\226\366\277\205\257p\"E\017\327?\350\0249\366\310x\374\2779\324G\2548\371\323?HK\023\240i0\347\277 NZ\361\224\362\336\277\341\226M\'\266I\311?\224&<\026vF\352\277\017\002\313^pc\365?\251<b;\313\223\272\277.\320\324\316l\r\340\277|lZ<l\036\004\300\206\201\207\235\037\236\335?\n\005x\202\211,\345?\376\252\214\342\244\360\355\277\250\335\376dc\245\345\2774\202\320\246c\371\003\300H]!v\000\347\325?\204\213Tv\027\242\311\277\217G\253x\207-\364\277\021\231?!\003\034\362?\017kV\234\335\252\370?,w\257\350:\364\374\277\2044\327\016A\021\345\277\203\022\242\030\200\304\352?x\200\301\343l{\371\277\267\323\326Id\306\336?<eb\'\231\037\341?\002\020fW;.\360?]\3032\346I\212\003\300v\324\221\'*C\316\277\211\313K\321\323\311\341\277+t\002\305!+\355\277\355\370\0366,\343\320?~\301\331:\343\240\260?\005[/V\260W\371?\037%\306\016\344\322\343?W\262\267sp\321\356?Z\016\212}\273\263\341?;\305\346\371\272\013\365\277[\350+\331\031K\246\277}\273$\261\2513\306?\032\236xl{\260\302\277\205\235bL\256X\350\277\274\345?b\002X\270?\226],\006\347\022\363?LW\307.\316T\346?\251<b;\313\223\272\277V\024\344\304\355E\321?\221\311dgm#\346?|\177~)ns\213\277q\236\203\"e\231\363\277\025\336\256\330E\263\373\277\250\251\273\230\013\242\334\277\227$\266\241x6~\277\226\306\267CTZ\366?\274\177\006\340\243A\366?$\234\221N\033\204\276?\007\362\243\030C\020\366?\3428U|\363(\366?V\024\344\304\355E\321?9\t\220\035N=\356?s =\021K\217\345?\351H|\302 |\365?\250\251\273\230\013\242\334\277t0d1u%\301\277\206\201\207\235\037\236\335?p\007\017`\322\340\366\277\324\033\264\023\262K\347?\2067\2042Z\332\364\277\362\262\315\223=)\331\277+t\002\305!+\355\2772ST\235\010\343\271?\317\257{\262+;\364?)Kn\342p\013\322?\262\317cl\230\332\352\277#2\332\354\000\037\240\277<eb\'\231\037\341?\\I,6\003\212\353?\033\202\235\275\354\365\347\277\035T\2648\307\204\356\277 \260\206B\022g\341\277^Z\247\250\334B\000\300\267\323\326Id\306\336?\371\321U\214\350i\367?\345/N\021\250\315\346\277<\313@A\355\235\364?I\264\236\335\326w\352\277X\346\372?\310\324\327?H]!v\000\347\325?\370h\312N{\"\364?aM\237\023\317u\317?\323I\235\230\327\274\340?\320\017\000\205M\'\350\277Y\246\003\345\013\255\357\277\\\340\240\370\225B\350?\355\346\020`\225,\342\277C\020\260\370/5\376\277\266r\214\275\217\267\346?5$\2458-\222\370?\353\362\304\356\371P\341?\247ts\'\366]\342\277a\033\004\240\317=\361?\351\246\2470W\343\000\300\322F\360t\276\363\360?M\300Rl;\234\351?\277\013\215\247\201;\304\277\374M\2653\234\315\351?p5\370\344\367Q\360\277\3554\275\301S\030V\277\026p\035\023\324\035\000\300qp\232\235?(\372\277;b\265\003\200V\361?DD\363\304\2078\367?:\246^\'\023\210\332?\377\2559\006\276\271\375\277z\211\310N\270\326\350?.\256\237\330\253\300\345?\213M\005\300\271\277\363?\251<b;\313\223\272\277\362\262\315\223=)\331\277\346w+\'\374\314\266?=\316\355d\006g\344?b\347\300\323w:\370\277(\220\327\300N*s?:Q\331\210\305\"\221?\355\370\0366,\343\320?P\247\212\377\271+\256?\246\351\262\363\307\311\344?\017\223\345\331\320\211\362\277\363\236}\3052w\254\277\037|Cv\272c\330\277\n\005x\202\211,\345?\336\035@;\021\027\310\2778\260+\000\013\214\306\277;\375\333\216\351\030\357\277\025rv\235\302_\314?aM\237\023\317u\317?:\235W\274\307,\373?;\375\333\216\351\030\357\277<\313@A\355\235\364?\2222\360\244\332j\351?\321x\213\302\272n\353\277SdAQ\342\336\365?A\206\020O\262g\264\277\234\315\327D9\017\312?:Q\331\210\305\"\221?Z\005\203\022pX\362\277\002\020fW;.\360?.\320\324\316l\r\340\277\226\nag\347\213\337?=\316\355d\006g\344?8\240\004\340\340\365\352?9\324G\2548\371\323?\341`\344\271\346\007\360\277c.\330\t\026Z\340?\211\313K\321\323\311\341\277\351B\"{\356\351\365\277\270f\330.+\223\347\277\322\022\255\250f\360\367\277H)\336\251\250\343\354?1\340\373:\235\035\303?9\t\220\035N=\356?=7y\242s\256\347?-E\024\233>y\342?\374M\2653\234\315\351?\010\301h\330\016n\273?\027{}\342\n\376\367?\266`~\347\370\000\330\277\\\340\240\370\225B\350?\227$\266\241x6~\277:\246^\'\023\210\332?:\246^\'\023\210\332?:\224PQ|\321\353\277\212i\037\200VU\337\277\003\317M\000\305\010\271\277g]\3063\371\013\353\277\001\007_\354\357\322\340\277My\374$\217\241\340\277\237z\246;?\215\257\277\362\262\315\223=)\331\277\\I,6\003\212\353?\221\311dgm#\346?9\324G\2548\371\323?l\213\257\270\036}\344\277_g\356N\370\352\301\277{\362S\214%\036\354?\261T\312X\224\334\310\277\342\322vb\237\252\342?\023\313\332n\377\226\354\277\264\240uB\265(\340?\355\346\020`\225,\342\277=\316\355d\006g\344?\2638\357\251\005\"\356\277\211\313K\321\323\311\341\2779\3029\326\241B\345\277i\375Aa\327\037\367?kWl\354\306y\333\277\324\033\264\023\262K\347?\322\007+u\336N\227?\207r&\353\241\260\376\277x\264\004\260\304~\362?C\333g\207\032\361\363?l\364:\366\213\304\347\277Er\334I\255\251\360?\000j\220\342*\210\324\277P\362\256\316,\371\306?\032\302\224\030\251\035\320?\246\200\'\266Z\202\341?\356\254b\355\350\021\232\277\312\234\002\261\357\266\263?\360$`<\366\313\373\277u&\227X}!\325?\265\000\372\024\327\024\364\277\000\342|\322\025\275\366?\375\004\323\304\220\007\300?\3554\275\301S\030V\277\017\234\354D\034\345\341?\265\t\001\200\"p\343?\322\022\255\250f\360\367\277\034\027\206X \343\303?\327M\020v\243\250\304?\027\367\020\001\320\345\223\277\226\356F\201G9\360\277\317\355\312\216\214\332\355?+t\002\305!+\355\277.\256\237\330\253\300\345?\360X\243\010N\317\364?\206\201\207\235\037\236\335?\007\304TO&a\251\277P\247\212\377\271+\256?\365\027\213\261\327\251\275\277\355\370\0366,\343\320?e\"${\2615\341\277\253\310C\221\266\342\372?S\365[\314B\005\363\277\341\226M\'\266I\311?\031\216QLQ\032\347?\2044\327\016A\021\345\277\340\023sb\031\023\334?\204\213Tv\027\242\311\277\323\337\275\233<1\006\300\317\257{\262+;\364?x\264\004\260\304~\362?Y\013\335Y\242\352\361?\215a9\305\276}\267\277\277\013\215\247\201;\304\277Ks\242\335\\\017\321\277\336\035@;\021\027\310\277\000\251\000\273E%\315?\373\344)\366.\206\346?\267\363$\212\270\362\265\277\202@\213\235\2455\344?e<\345i\344$\006\3004\273\031\373\277J\365?\302\204\232\223&n\305?\236\326\336\211\201\255\365?\004B\001\2457\251\352\277\351\253\255\270[1\371\277{\340E\266\216g\335\277\245\346\005\320\256\000\365?LE\271X7\236\327\277\361\215\353yc\023\377\277\343)\364\311u;\327\277M\027\320\323\021-\336\277\312f\013\030\242\226\003\300\373\344)\366.\206\346?\343\244\215\335y9\351?]ka,\304\326\345\277\266`~\347\370\000\330\277\244\257\025\340=4\354\277x\266]\024\260\003\013\300\311qk\347\330v\373?\031\216QLQ\032\347?\216\026\025\366K\260\316?\007\304TO&a\251\277C\371h\261\035-\313\277h\306QqfS\356\277\361\340\266\030c\232\322\277\341\317\311>\206\341\362?\246\351\262\363\307\311\344?\\I,6\003\212\353?p\244\335i\227+\363?\177\252vv\321\036\274\277\211\313K\321\323\311\341\277\375/\363\316\240\362\313\277C\371h\261\035-\313\277Z\374{\247$\375\322\277\355\370\0366,\343\320?\254\360\322\316\251\301\364\277^Z\247\250\334B\000\300\301\315|\00224\357?\3674\207\202#\037\373\277k\030\374\023\254\334\262\277\266\224\301\263P\004\341\277\243\235\007\n\247}\315\277\266r\214\275\217\267\346?\267\363$\212\270\362\265\277K\3454\206\025\262\363\277B\247$\273\302\355\372\277\321\201\222-\006\312\372?\317\270\202\035w\226\323?\343\244\215\335y9\351?\235\320\204BO\033\366\277"
      }
    }
  }
}
node {
  name: "tensors/component_4"
  op: "Const"
  device: "/device:CPU:0"
  attr {
    key: "_output_shapes"
    value {
      list {
        shape {
          dim {
            size: 750
          }
        }
      }
    }
  }
  attr {
    key: "dtype"
    value {
      type: DT_DOUBLE
    }
  }
  attr {
    key: "value"
    value {
      tensor {
        dtype: DT_DOUBLE
        tensor_shape {
          dim {
            size: 750
          }
        }
        tensor_content: "H\3523\034e\342\273\277H\3523\034e\342\273\277H\3523\034e\342\273\277\362\226\321Q+\336\273\277H\3523\034e\342\273\277H\3523\034e\342\273\277\265k &f\303\273\277H\3523\034e\342\273\277C\243\324\204\032\305\272\277H\3523\034e\342\273\277\341\010R\243\303\334\273\277H\3523\034e\342\273\277\326M\rz\304\223\272\277H\3523\034e\342\273\277H\3523\034e\342\273\277H\3523\034e\342\273\277H\3523\034e\342\273\277\316\223\000l\216\321\273\277\242`<o[\340\273\277~\021\350\210\213\243\273\277H\3523\034e\342\273\277\230 \311\3764\340\273\277H\3523\034e\342\273\277H\3523\034e\342\273\277\033EBr?\273\273\277H\3523\034e\342\273\277H\3523\034e\342\273\277\333\340\357\021B\341\273\277H\3523\034e\342\273\277H\3523\034e\342\273\277H\3523\034e\342\273\277<\245\004\243y\340\273\277\255\367\230\342\030\341\273\277H\3523\034e\342\273\277\223\236yF\031\330\273\277H\3523\034e\342\273\277H\3523\034e\342\273\277\205\035\"\221\223d\272\277\246\026g\330(\376\004@\217B\324:\275\325\273\277H\3523\034e\342\273\277H\3523\034e\342\273\277;\222\257\314\231\335\273\277H\3523\034e\342\273\277H\3523\034e\342\273\277H\3523\034e\342\273\277H\3523\034e\342\273\277H\3523\034e\342\273\277H\3523\034e\342\273\277H\3523\034e\342\273\277H\3523\034e\342\273\277\020;}\360+5\240?H\3523\034e\342\273\277H\3523\034e\342\273\2771\373RY\334\334\273\277H\3523\034e\342\273\277H\3523\034e\342\273\277H\3523\034e\342\273\277\356:,F\317\333\273\277E\345w\023\240\340\273\277H\3523\034e\342\273\277c\002\322\244p\365\267\277m\001\2453i\357\265\277\336)@G\276\340\273\277H\3523\034e\342\273\277\004\300\316/\341\335\273\277f\014\014\032\207\330\273\277H\3523\034e\342\273\277H\3523\034e\342\273\277\251\025\023\277o\251\261\277H\3523\034e\342\273\277H\3523\034e\342\273\277,\207W\'\360O\266\277H\3523\034e\342\273\277H\3523\034e\342\273\277H\3523\034e\342\273\277H\3523\034e\342\273\277H\3523\034e\342\273\277H\3523\034e\342\273\277H\3523\034e\342\273\277\253\342\3761\\z\273\277H\3523\034e\342\273\277\311S\002\225\354\306\252\277H\3523\034e\342\273\277\271\006o\256\000\235\273\277H\3523\034e\342\273\277H\3523\034e\342\273\277\341\010R\243\303\334\273\277H\3523\034e\342\273\277H\3523\034e\342\273\277H\3523\034e\342\273\277H\3523\034e\342\273\277\274_n\344\300\334\273\277H\3523\034e\342\273\277\222\341\246\260S*\271\277w\367\357\035q\204\273\277H\3523\034e\342\273\277H\3523\034e\342\273\277H\3523\034e\342\273\277\317\362\251\233\355\337\273\277\335{mA\220\337\273\2771L\t\270\267\033\267\277H\3523\034e\342\273\277H\3523\034e\342\273\2774\274K\2166\274\273\277H\3523\034e\342\273\277\371w\233\222\362\317\273\277H\3523\034e\342\273\277\323\271\035#3i\273\277H\3523\034e\342\273\277\\\326\227\351G\375\270\277H\3523\034e\342\273\277H\3523\034e\342\273\277H\3523\034e\342\273\277H\3523\034e\342\273\2771L\t\270\267\033\267\277H\3523\034e\342\273\277H\3523\034e\342\273\277\261\204}DL\336\273\277\353\214Y@\241\332\273\277*\301\374\3549=\273\277\274u\2307\360\306\273\277H\3523\034e\342\273\277~\230\302&\371\266\263\277N\316\001\201/\340\273\277H\3523\034e\342\273\277H\3523\034e\342\273\277\316\223\000l\216\321\273\277H\3523\034e\342\273\277#\256c\263(\315\273\277\030+\210\243\230\274\267\277H\3523\034e\342\273\277H\3523\034e\342\273\277?\237yw\024\"\272\277H\3523\034e\342\273\277H\3523\034e\342\273\277\273\010\205\341)\334\273\277\322\240|\241\033\341\273\277H\3523\034e\342\273\277H\3523\034e\342\273\277H\3523\034e\342\273\277H\3523\034e\342\273\277\022\007\314\023\347\024\234\277B\342}\001Y\234\272\277H\3523\034e\342\273\277H\3523\034e\342\273\277H\3523\034e\342\273\277H\3523\034e\342\273\277H\3523\034e\342\273\277H\3523\034e\342\273\277\277_\020\226Y\223\273\277\314\336\3164W!\273\277\025\2457\341\337\337\273\277H\3523\034e\342\273\277H\3523\034e\342\273\277H\3523\034e\342\273\277\033\247\357\305\241\325\273\277H\3523\034e\342\273\277H\3523\034e\342\273\277H\3523\034e\342\273\277H\3523\034e\342\273\277H\3523\034e\342\273\277H\3523\034e\342\273\277%\375\363\005a\270\264\277\275\324AgO\325\273\277\303\232%L\"\333\273\277H\3523\034e\342\273\277u\213\010U\370\206\267\277H\3523\034e\342\273\277H\3523\034e\342\273\277n~N\203\367V\273\277H\3523\034e\342\273\277\030\310\335i\234\331\273\277-\262\002$`\335\273\277H\3523\034e\342\273\277H\3523\034e\342\273\277\026\331\034\rS\235\273\277R(\260\'\234\263\271\277\033\">\233\033x\273\277H\3523\034e\342\273\277D\254x\220\000\330\273\277H\3523\034e\342\273\277H\3523\034e\342\273\277H\3523\034e\342\273\277H\3523\034e\342\273\277H\3523\034e\342\273\277\214\014\331\333 \331\273\277\2128\\)3\322\273\277\257\022\177>\r\315\273\277\217;u\t\264&\273\277H\3523\034e\342\273\277H\3523\034e\342\273\277H\3523\034e\342\273\277^\243\352\330\235\306\273\277H\3523\034e\342\273\277^\240\025\\N\337\273\277:\266CF0\244\273\277H\3523\034e\342\273\277H\3523\034e\342\273\277U\234v\353\026\317\273\277H\3523\034e\342\273\277a\303\273\344\n\331\273\277H\3523\034e\342\273\277H\3523\034e\342\273\277\342\")\262:\024\362?H\3523\034e\342\273\277H\3523\034e\342\273\277H\3523\034e\342\273\277\000h0\365\337\374\272\2778\\\264m\375\340\273\277H\3523\034e\342\273\277_\244l16\231\250\277H\3523\034e\342\273\277H\3523\034e\342\273\277\033\247\357\305\241\325\273\277H\3523\034e\342\273\277H\3523\034e\342\273\277\214\333\231\205I\336\273\277H\3523\034e\342\273\277H\3523\034e\342\273\277H\3523\034e\342\273\277H\3523\034e\342\273\277H\3523\034e\342\273\277\217\021\225\344\345\332\273\277\277Q\325\026\246\333\273\277\311\303a\361\243\351\237?\265\364\330\327,\027y?\353\332\2367R\310\272\277^I,Y\267\336\273\277\007\202(`\372\033\273\277H\3523\034e\342\273\277\254d\2548\337\313\273\277H\3523\034e\342\273\277H\3523\034e\342\273\2771\333\364WT\\\273\277\247\206Y&\000x\273\277H\3523\034e\342\273\277\321.O\364(\253\273\277H\3523\034e\342\273\277\340m\324su\336\273\277H\3523\034e\342\273\2774\250\300\217&\343\177\277H\3523\034e\342\273\277H\3523\034e\342\273\277H\3523\034e\342\273\277H\3523\034e\342\273\277t\327\357jPM\273\277H\3523\034e\342\273\277H\3523\034e\342\273\277H\3523\034e\342\273\277H\3523\034e\342\273\277H\3523\034e\342\273\277H\3523\034e\342\273\2771L\t\270\267\033\267\277\371M8\212\305\335\272\277H\3523\034e\342\273\277H\3523\034e\342\273\277H\3523\034e\342\273\277\024\333yQ\220\201\222?=%m\317\037\316\273\277h\t\010\366\203\314\273\277,C\252\363\274\216\273\277H\3523\034e\342\273\277H\3523\034e\342\273\277Z(,`\203\364\261\277H\3523\034e\342\273\277H\3523\034e\342\273\277&3\267\217G\341\273\277\'\273\337\350\265\334\273\277H\3523\034e\342\273\277~\302\276\262\274\260\273\277H\3523\034e\342\273\277H\3523\034e\342\273\277H\3523\034e\342\273\277H\3523\034e\342\273\277H\3523\034e\342\273\277H\3523\034e\342\273\277\315`|;\332r\273\277H\3523\034e\342\273\277H\3523\034e\342\273\277H\3523\034e\342\273\277\255\367\230\342\030\341\273\277J\016\270\274\201\224\271\277\236\322\222\374C\356\270\277H\3523\034e\342\273\277\373\216;4Y\201\002@H\3523\034e\342\273\277<\002i\370\373\212\273\277H\3523\034e\342\273\277H\3523\034e\342\273\277H\3523\034e\342\273\277H\3523\034e\342\273\277\\\007Z#~\236\272\277H\3523\034e\342\273\277H\3523\034e\342\273\277H\3523\034e\342\273\277H\3523\034e\342\273\277H\3523\034e\342\273\277zo:\317\347\032\273\277al\322\341s\330\273\277H\3523\034e\342\273\277H\3523\034e\342\273\277H\3523\034e\342\273\277H\3523\034e\342\273\277H\3523\034e\342\273\277H\3523\034e\342\273\277H\3523\034e\342\273\277\325\351\314\326\227\340\273\277\347GX\212\257\344\265\277\226\236\326\367d\336\227?H\3523\034e\342\273\277H\3523\034e\342\273\277h`?T)\340\224\277H\3523\034e\342\273\277\260a\250\024\334\277\273\277H\3523\034e\342\273\277\210\326\335|\204\334\273\277oL\177\212\255\330\273\277H\3523\034e\342\273\277H\3523\034e\342\273\277H\3523\034e\342\273\277\331HG_C\312\273\277H\3523\034e\342\273\277d;5=5\224\273\277\314\314A\276`\204\353?H\3523\034e\342\273\277\022\233\023\231\360\356\317?H\3523\034e\342\273\277H\3523\034e\342\273\277\\\007Z#~\236\272\277H\3523\034e\342\273\277F\314\\\334+a\263\277H\3523\034e\342\273\277H\3523\034e\342\273\277\034Nc\232\306\'\273\277H\3523\034e\342\273\277H\3523\034e\342\273\277H\3523\034e\342\273\277H\3523\034e\342\273\277U`\242\353\'\337\273\277H\3523\034e\342\273\277H\3523\034e\342\273\277H\3523\034e\342\273\277H\3523\034e\342\273\277H\3523\034e\342\273\277H\3523\034e\342\273\277H\3523\034e\342\273\277H\3523\034e\342\273\277\230(\006H\236G\272\277H\3523\034e\342\273\277H\3523\034e\342\273\277B\021\373`\262\331\273\277H\3523\034e\342\273\277H\3523\034e\342\273\277H\3523\034e\342\273\277H\3523\034e\342\273\277H\3523\034e\342\273\277H\3523\034e\342\273\277H\3523\034e\342\273\277H\3523\034e\342\273\277(\250[k\"\265\273\277H\3523\034e\342\273\277H\3523\034e\342\273\277H\3523\034e\342\273\277H\3523\034e\342\273\277H\3523\034e\342\273\277H\3523\034e\342\273\277H\3523\034e\342\273\277\353C$%[\220\006@\374\303\300D\276\266\273\277H\3523\034e\342\273\277\304\205-M\376*\273\277\031\371\034\300s\324\273\277\035\017\272\035\210P\273\277 \223}W4\341\273\277\223\242\3753\025S\271\277\002V\220Vj\332\273\277\036\363\024xm\274\273\277H\3523\034e\342\273\277=\374\355\245\020\341\273\277\236\027\3549\337\340\273\277-nn\367\250\337\273\277\330\371\035\211t\327\273\277\254{\345\0078\253+@H\3523\034e\342\273\277H\3523\034e\342\273\277\261\237v\340\376@\263\277H\3523\034e\342\273\277\300\321=CL\311\273\277\325\303\"*\330\332\273\277\033\234Z\034\212\340\273\277\0171RO+\264\273\277H\3523\034e\342\273\277 E\200\016\263\333\267\277H\3523\034e\342\273\277\005-\342\205\247\310\273\277H\3523\034e\342\273\277H\3523\034e\342\273\277\331tl^\356y\273\277H\3523\034e\342\273\277H\3523\034e\342\273\277H\3523\034e\342\273\277\256\177\301;\207\334\273\277\243\267%r\362\340\273\277\014\360}\321\233O\370?H\3523\034e\342\273\277ZGE\315A\304\273\277H\3523\034e\342\273\277H\3523\034e\342\273\277H\3523\034e\342\273\277H\3523\034e\342\273\277H\3523\034e\342\273\277H\3523\034e\342\273\277H\3523\034e\342\273\277H\3523\034e\342\273\2774\036\371\341\230\326\273\277\243\376\216\033\371\305\273\277\t\267\361j\213\336\273\277H\3523\034e\342\273\277\371\005n\345\377\231\273\277\274\246\037\311\346:\311?H\3523\034e\342\273\277H\3523\034e\342\273\277H\3523\034e\342\273\277H\3523\034e\342\273\277H\3523\034e\342\273\277H\3523\034e\342\273\277H\3523\034e\342\273\277H\3523\034e\342\273\277\301\322\275\014E8\271\277H\3523\034e\342\273\277\265{h\330\2519,@H\3523\034e\342\273\277H\3523\034e\342\273\277v\nt\233\004\254\273\277H\3523\034e\342\273\277\255;-\017\320\336\273\277H\3523\034e\342\273\277\277d*\355\205\336\273\277H\3523\034e\342\273\277H\3523\034e\342\273\277H\3523\034e\342\273\277\250Bv\315`\340\263?=%m\317\037\316\273\277H\3523\034e\342\273\277\200\007\2053\177\350\272\277H\3523\034e\342\273\277\021\\\347\253c\340\273\277H\3523\034e\342\273\277H\3523\034e\342\273\277H\3523\034e\342\273\277\332\231c\220Y\267,@H\3523\034e\342\273\277\373\243\'\016\007x\264\277\200\274F\307\025i\261\277H\3523\034e\342\273\277H\3523\034e\342\273\277H\3523\034e\342\273\277 8Bu\231\354\263\277H\3523\034e\342\273\277{0\221R\251C\273\277\310\215Z\245\256\214\357?H\3523\034e\342\273\277H\3523\034e\342\273\277H\3523\034e\342\273\277H\3523\034e\342\273\277H\3523\034e\342\273\277\315`|;\332r\273\277H\3523\034e\342\273\277l@|V\003\202\327?aN\350a|\340\273\277<\245\004\243y\340\273\277\332\315\232;b\336\273\277\3647\233,\261a\273\277H\3523\034e\342\273\277&7\331\366\275)\245\277\313Rpc\332\337\273\277H\3523\034e\342\273\277H\3523\034e\342\273\277\376\014@!\356\332\273\277\252D\254\205\276\224\273\277Ucz\317\273(\261\277s\276N\3518\305\273\277H\3523\034e\342\273\277t\022co\200\336\273\277i$\035\371+\335\273\277\274\304\301\r\277\271\273\277\375\244f\302\235^\374?\255;-\017\320\336\273\277\345\322\350\034F\202\271\277H\3523\034e\342\273\277|\267X\260X\340\273\277H\3523\034e\342\273\277\204\3146\304F\264\273\277/P&)J\236\273\277H\3523\034e\342\273\277H\3523\034e\342\273\2771\016\250/\274\337\273\277H\3523\034e\342\273\277H\3523\034e\342\273\277H\3523\034e\342\273\277H\3523\034e\342\273\277H\3523\034e\342\273\277H\3523\034e\342\273\277H\3523\034e\342\273\277\013(Z\007\232\037\271\277H\3523\034e\342\273\277H\3523\034e\342\273\277H\3523\034e\342\273\277H\3523\034e\342\273\277H\3523\034e\342\273\277\017\210j\371u\331\273\277H\3523\034e\342\273\277\323(\245\372\211\334\273\277\0342\276\364\253\223\273\277K /{\001\337\273\277H\3523\034e\342\273\277H\3523\034e\342\273\277H\3523\034e\342\273\277\261zI\226\363G\273\277H\3523\034e\342\273\277H\3523\034e\342\273\277H\3523\034e\342\273\277H\3523\034e\342\273\277H\3523\034e\342\273\277\002\307B0Hg\243\277H\3523\034e\342\273\277\275q\342B\307<\260\277d!R\216\230\275\272\277\0322\034C\023\335\273\277\251`Q+\331(\273\277H\3523\034e\342\273\277H\3523\034e\342\273\277\005-\342\205\247\310\273\277H\3523\034e\342\273\277\371\005n\345\377\231\273\277\242`<o[\340\273\277s\354\270\302\300\330\273\277\205\321!t\277\332\273\277H\3523\034e\342\273\277\201\310\333\266@\021\273\277\305[M(0\337\273\277\222\360\246@\353\326\273\277\237\361\022\346k\266\273\277\347Y3^T\305\273\277\243\267%r\362\340\273\277H\3523\034e\342\273\277H\3523\034e\342\273\277H\3523\034e\342\273\277\037\346\305\211\007\027\022@-\305W\372?\340\273\277H\3523\034e\342\273\277U\t\271\350\220\336\273\277H\3523\034e\342\273\277H\3523\034e\342\273\277H\3523\034e\342\273\277\353[\032\352\311\337\273\277H\3523\034e\342\273\277H\3523\034e\342\273\277H\3523\034e\342\273\277\322\240|\241\033\341\273\277H\3523\034e\342\273\277H\3523\034e\342\273\277WJI\361D\320\273\277H\3523\034e\342\273\277\3617c=\034l\235\277H\3523\034e\342\273\277H\3523\034e\342\273\277\356P\'\362J\241\273\277\205\271\262F\263\214\273\277H\3523\034e\342\273\277H\3523\034e\342\273\277H\3523\034e\342\273\277H\3523\034e\342\273\277H\3523\034e\342\273\2770\317_h)\264\261\277Z\245\325\257\021\\\267\277H\3523\034e\342\273\277H\3523\034e\342\273\277H\3523\034e\342\273\277H\3523\034e\342\273\277H\3523\034e\342\273\277H\3523\034e\342\273\277H\3523\034e\342\273\277H\3523\034e\342\273\277H\3523\034e\342\273\277H\3523\034e\342\273\277H\3523\034e\342\273\277H\3523\034e\342\273\277H\3523\034e\342\273\277H\3523\034e\342\273\277p\266\275c$\334\273\277H\3523\034e\342\273\277H\3523\034e\342\273\277/\262\323|\254\270\273\277H\3523\034e\342\273\277\025f\326\022\321\360\266\277H\3523\034e\342\273\27765?\351\233\231\265\277\206\344V\331\001\373!@H\3523\034e\342\273\277u\035\370\030\230\323\273\277&d\366\345\036\334\273\277\237g+\375\303_\262\277H\3523\034e\342\273\277H\3523\034e\342\273\277H\3523\034e\342\273\277H\3523\034e\342\273\277,f\256\312\340\321\273\277\206\237\317\227\026\266\272\277\250G\260\251\301\240\273\277\0171RO+\264\273\277H\3523\034e\342\273\277\335{mA\220\337\273\277H\3523\034e\342\273\277H\3523\034e\342\273\277H.\310H\034\340\273\277H\3523\034e\342\273\277H\3523\034e\342\273\277S?\366.\237v\263\277H\3523\034e\342\273\277H\3523\034e\342\273\277\346\250\213\333\326\334\273\277H\3523\034e\342\273\277b\351e\221\312\336\273\277\316u\026\354\226\331\273\277H\3523\034e\342\273\277H\3523\034e\342\273\277E\t\335\345\202\202\273\277H\3523\034e\342\273\277\234i\0314\261\337\273\277H\3523\034e\342\273\277)\253\243\330w\014\226\277H\3523\034e\342\273\277H\3523\034e\342\273\277H\3523\034e\342\273\277H\3523\034e\342\273\277H\3523\034e\342\273\277\324\235x}\030\325\273\277H\3523\034e\342\273\277H\3523\034e\342\273\277H\3523\034e\342\273\277H\3523\034e\342\273\277\nK\371\360\363\315\257\277\205\035\"\221\223d\272\277H\3523\034e\342\273\277H\3523\034e\342\273\277H\3523\034e\342\273\277>\227k\325^\337\273\277\220{\323\275\\\336\273\277\341\355\r\371g\247\273\277H\3523\034e\342\273\277H\3523\034e\342\273\277H\3523\034e\342\273\277\200\200\021\022{\315\273\277H\3523\034e\342\273\277H\3523\034e\342\273\277\"\327\021\204\353\336\273\277H\3523\034e\342\273\277\202\256{\353\002\341\273\277u\273J\3055\271\273\277H\3523\034e\342\273\277H\3523\034e\342\273\2773\274z5\352\340\273\277H\3523\034e\342\273\277H\3523\034e\342\273\277H\3523\034e\342\273\277c\351\251\213\366k\003@H\3523\034e\342\273\277H\3523\034e\342\273\277\201\2112:\002:\273\277H\3523\034e\342\273\277H\3523\034e\342\273\277H\3523\034e\342\273\277H\3523\034e\342\273\277Ar\022K\344#\271\277H\3523\034e\342\273\277H\3523\034e\342\273\277\322\240|\241\033\341\273\277H\3523\034e\342\273\277\303\300\317\370\341\340\273\277H\3523\034e\342\273\277\236\004\227c\377\335\273\277H\3523\034e\342\273\277H\3523\034e\342\273\277H\3523\034e\342\273\277H\3523\034e\342\273\277H\3523\034e\342\273\277H\3523\034e\342\273\277\340k`\362\344U\273\277H\3523\034e\342\273\277H\3523\034e\342\273\277H\3523\034e\342\273\277\245\373\212\367\365\271\273\277fE\013\235&\341\273\277<\245\004\243y\340\273\277H\3523\034e\342\273\277\204I\371\032Q\337\273\277H\3523\034e\342\273\277H\3523\034e\342\273\277~\302\276\262\274\260\273\277H\3523\034e\342\273\277\206\025\266\240v\330\273\2774\211\273\275\\\276\360?H\3523\034e\342\273\277H\3523\034e\342\273\277H\3523\034e\342\273\277H\3523\034e\342\273\277\235\351\250P0J\202\277u\213\010U\370\206\267\277d`\373\n\327\224\272\277H\3523\034e\342\273\277F)\014@W\336\273\277H\3523\034e\342\273\277u\035\370\030\230\323\273\277-nn\367\250\337\273\277n~N\203\367V\273\277\206\237\317\227\026\266\272\277\330\220\021\004\t\016\273\277E\345w\023\240\340\273\277H\3523\034e\342\273\277H\3523\034e\342\273\277H\3523\034e\342\273\277H\3523\034e\342\273\277\263\0169\355\204r\272\277\367\n4\000\201c\272\277H\3523\034e\342\273\277\246\026g\330(\376\004@H\3523\034e\342\273\277\025\235w\264\027\322\273\277&d\366\345\036\334\273\277\223Q\022g\310\242\272\277H\3523\034e\342\273\277H\3523\034e\342\273\277H\3523\034e\342\273\277N\316\001\201/\340\273\277\253\314\241\377Z\202\247\277H\3523\034e\342\273\277\232\367\032.r\316\273\277\211\347\327\330O\032\266\277E\345w\023\240\340\273\277\033\366\030\234p\310\273\277H\3523\034e\342\273\277\216\224\0015\217\324\273\277H\3523\034e\342\273\277H\3523\034e\342\273\277H\3523\034e\342\273\277H\3523\034e\342\273\277\216\313\tS?\256\271\277\347\n\n\210\205\322\273\277"
      }
    }
  }
}
node {
  name: "tensors/component_5"
  op: "Const"
  device: "/device:CPU:0"
  attr {
    key: "_output_shapes"
    value {
      list {
        shape {
          dim {
            size: 750
          }
        }
      }
    }
  }
  attr {
    key: "dtype"
    value {
      type: DT_DOUBLE
    }
  }
  attr {
    key: "value"
    value {
      tensor {
        dtype: DT_DOUBLE
        tensor_shape {
          dim {
            size: 750
          }
        }
